<pad>	0
<unk>	0
<s>	0
</s>	0
▁	-2.70233
.	-3.60698
이	-4.07656
..	-4.51029
가	-4.57579
의	-4.60409
▁영화	-4.62238
도	-4.64827
는	-4.73048
...	-4.74866
다	-4.80744
을	-4.84235
고	-4.90456
에	-4.91144
지	-4.92574
은	-5.03239
한	-5.12821
로	-5.36191
만	-5.37937
를	-5.41489
?	-5.4284
게	-5.44999
나	-5.52499
영화	-5.63095
리	-5.63368
▁너무	-5.66115
아	-5.66617
어	-5.66655
▁이	-5.71577
!	-5.72929
▁정말	-5.76681
기	-5.76911
인	-5.8625
과	-5.87918
라	-5.90221
하고	-5.92378
▁진짜	-6.00327
스	-6.06258
들	-6.06301
요	-6.07738
해	-6.08085
서	-6.09295
에서	-6.11637
으로	-6.12675
네	-6.12836
▁안	-6.1423
점	-6.14475
자	-6.15024
▁그	-6.19477
▁아	-6.21773
와	-6.21954
시	-6.23657
수	-6.23919
하	-6.25253
거	-6.25682
네요	-6.26651
음	-6.27604
면	-6.28228
▁잘	-6.30258
하는	-6.31165
사	-6.38117
보	-6.39019
▁1	-6.41247
야	-6.4277
▁왜	-6.43192
....	-6.43547
니	-6.44769
대	-6.45515
하다	-6.45835
▁이런	-6.45942
▁수	-6.47497
지만	-6.50826
▁더	-6.51976
▁본	-6.52804
함	-6.52969
!!	-6.54411
▁보	-6.5565
주	-6.58063
▁다	-6.5859
하게	-6.59837
일	-6.60274
▁드라마	-6.61217
구	-6.63276
▁나	-6.63403
진	-6.63527
할	-6.63978
드	-6.64802
우	-6.64957
마	-6.65661
▁그냥	-6.68051
려	-6.68147
상	-6.70996
이다	-6.71013
▁연기	-6.71242
정	-6.72235
는데	-6.72928
임	-6.73556
▁내	-6.74992
▁평점	-6.76507
던	-6.76607
성	-6.77793
여	-6.77832
데	-6.79109
▁못	-6.79771
▁10	-6.80011
미	-6.80617
부	-6.81378
장	-6.81759
안	-6.82194
▁보고	-6.82275
▁말	-6.82562
해서	-6.82637
▁한	-6.82904
히	-6.83568
신	-6.83576
냐	-6.84574
보다	-6.85357
까지	-6.85684
중	-6.86374
▁스토리	-6.89806
화	-6.90093
듯	-6.90267
▁최고	-6.90677
분	-6.91078
▁좀	-6.91389
오	-6.917
▁무	-6.92997
러	-6.93241
적	-6.94151
▁영화를	-6.94786
트	-6.94901
치	-6.95264
건	-6.95571
때	-6.98438
습니다	-6.98553
들이	-6.99792
보고	-7.00268
▁이거	-7.00903
▁쓰레기	-7.01762
▁개	-7.02144
내	-7.02655
그	-7.02937
원	-7.03033
▁ᄏᄏ	-7.04027
▁2	-7.04533
어요	-7.04996
제	-7.05899
▁참	-7.06107
전	-7.06223
것	-7.06947
▁오	-7.07325
▁생각	-7.08057
작	-7.08155
▁봤는데	-7.08311
▁없는	-7.08335
질	-7.08805
▁완전	-7.09043
▁내가	-7.09908
▁다시	-7.11551
▁최고의	-7.12173
개	-7.12938
▁뭐	-7.13091
▁없다	-7.1312
세	-7.13123
▁보는	-7.13184
소	-7.13447
ᄏᄏ	-7.13517
연	-7.1359
▁작품	-7.13719
!!!	-7.14354
물	-7.14487
▁사랑	-7.14791
▁이건	-7.15245
했다	-7.15727
▁영화는	-7.15773
감	-7.15987
▁영화가	-7.16053
편	-7.16143
▁하	-7.16319
▁있는	-7.16735
용	-7.16932
▁것	-7.1744
▁사	-7.17444
비	-7.17879
▁조	-7.18997
▁전	-7.19534
프	-7.19933
▁어	-7.2043
▁난	-7.20645
랑	-7.21223
1	-7.21371
식	-7.21383
▁좋은	-7.22406
적인	-7.22593
선	-7.22881
운	-7.23091
긴	-7.23354
▁3	-7.23604
입니다	-7.24153
무	-7.25348
▁재미	-7.25348
▁넘	-7.25466
▁이렇게	-7.25726
으면	-7.25868
년	-7.25901
▁기대	-7.26208
더	-7.26386
▁정	-7.2684
▁저	-7.27186
▁이게	-7.2887
본	-7.2891
▁액션	-7.29089
까	-7.29266
라고	-7.2996
▁있	-7.30101
명	-7.30319
▁볼	-7.30481
▁감동	-7.31462
말	-7.31531
르	-7.31576
▁김	-7.31626
같은	-7.31662
디	-7.31735
▁대	-7.31882
님	-7.32305
래	-7.33023
동	-7.33221
유	-7.34102
하지	-7.34411
ᄏ	-7.34919
걸	-7.35197
▁마지막	-7.35314
씨	-7.35552
간	-7.35593
영	-7.3605
울	-7.36508
인데	-7.37096
▁별로	-7.37631
부터	-7.37994
▁지	-7.38161
생	-7.38365
▁주	-7.39157
워	-7.39191
남	-7.39297
된	-7.39413
▁남	-7.39943
급	-7.39965
▁시간	-7.40822
▁재밌게	-7.40871
▁평점이	-7.41156
▁중	-7.41561
모	-7.41569
▁또	-7.4172
▁많이	-7.41994
발	-7.4252
▁미	-7.42796
▁부	-7.42933
린	-7.43095
타	-7.44475
조	-7.44932
▁마	-7.44983
▁유	-7.45385
었다	-7.45633
▁그리고	-7.46235
루	-7.46311
당	-7.46377
줄	-7.4664
▁역시	-7.46905
준	-7.46986
없는	-7.47184
▁좋아	-7.47714
▁하나	-7.48299
라는	-7.48495
▁비	-7.49277
▁명작	-7.49368
바	-7.50206
▁거	-7.50479
▁만든	-7.50637
▁자	-7.50638
었	-7.50868
▁한국	-7.51198
▁아니	-7.51476
판	-7.51695
있	-7.51805
▁이야기	-7.52398
▁기	-7.52521
이나	-7.5275
ᄏᄏᄏ	-7.52794
▁내용	-7.52873
란	-7.53187
▁일	-7.53225
▁돈	-7.5377
▁꼭	-7.538
▁가	-7.54867
▁별	-7.55124
▁하는	-7.55195
회	-7.55492
심	-7.55514
군	-7.55572
▁감독	-7.55615
있는	-7.55805
2	-7.5608
??	-7.56314
▁배우	-7.56317
▁지금	-7.56392
살	-7.56605
난	-7.57161
크	-7.57275
되	-7.577
▁ᄏᄏᄏ	-7.5808
▁사람	-7.58269
레	-7.58465
▁소	-7.58609
▁여자	-7.58785
▁해	-7.58828
민	-7.59134
연기	-7.59352
한다	-7.59385
드라마	-7.59475
합니다	-7.59488
위	-7.59533
호	-7.59694
관	-7.6038
▁없	-7.60441
진짜	-7.60915
국	-7.61163
▁연출	-7.61483
▁두	-7.61933
▁무슨	-7.6218
▁신	-7.63251
시간	-7.64049
0	-7.64313
엔	-7.64407
▁처음	-7.64459
문	-7.64738
▁시	-7.65313
▁가장	-7.65411
하면	-7.6543
면서	-7.65486
방	-7.65566
저	-7.66505
e	-7.66564
▁없고	-7.66616
경	-7.66699
에게	-7.67106
좀	-7.67332
류	-7.67651
버	-7.67679
터	-7.67784
▁모	-7.67917
너무	-7.68052
▁다른	-7.68072
현	-7.68111
길	-7.68589
▁눈	-7.6873
피	-7.69154
▁느낌	-7.69338
애	-7.69652
3	-7.70509
번	-7.70802
후	-7.70871
며	-7.71034
하나	-7.71169
티	-7.71368
력	-7.71796
▁아깝다	-7.72197
형	-7.72242
▁애	-7.72273
ᅲᅲ	-7.72485
▁보면	-7.72541
▁때	-7.72612
▁할	-7.72746
쳐	-7.7287
실	-7.73068
o	-7.73799
겨	-7.73806
인지	-7.74211
두	-7.74229
볼	-7.74261
망	-7.7451
든	-7.74542
단	-7.74619
노	-7.74765
역	-7.75053
슬	-7.75189
▁재	-7.7524
▁제	-7.75949
인가	-7.76218
▁일본	-7.76612
▁되	-7.77139
져	-7.77213
니까	-7.773
처럼	-7.77445
▁강	-7.77495
▁짱	-7.77617
빠	-7.78066
니다	-7.78157
▁ᄏ	-7.78531
s	-7.78543
▁않	-7.78632
죠	-7.7904
▁봤다	-7.79125
희	-7.79458
▁만들	-7.79586
▁인생	-7.79625
▁스	-7.79714
들의	-7.79759
▁우리	-7.79801
▁나오	-7.79895
못	-7.80457
▁반	-7.80601
하지만	-7.80689
▁음악	-7.8081
으	-7.80891
▁남자	-7.81175
했던	-7.82276
▁여	-7.8244
▁살	-7.83349
되는	-7.83509
▁이해	-7.83696
▁불	-7.83916
날	-7.8406
▁공	-7.84296
행	-7.84369
▁우	-7.84422
잘	-7.84472
지는	-7.84524
구나	-7.84548
파	-7.8472
였	-7.84768
다니	-7.84822
▁바	-7.8484
재	-7.85991
반	-7.86112
▁모든	-7.86401
금	-7.86599
▁많은	-7.86689
▁구	-7.86912
▁장	-7.86918
겠다	-7.87056
았	-7.87347
▁그런	-7.87408
즈	-7.87536
▁ᅲᅲ	-7.87939
ᅲ	-7.88285
이라	-7.88359
▁최	-7.88647
▁고	-7.88814
차	-7.88974
체	-7.8953
▁진	-7.90296
친	-7.90382
통	-7.9043
▁끝까지	-7.90457
▁말이	-7.90649
키	-7.90851
▁반전	-7.90868
▁끝	-7.91016
▁후	-7.91023
▁보기	-7.91031
▁이상	-7.91066
▁있다	-7.91111
하기	-7.91328
받	-7.91457
림	-7.91487
정말	-7.91528
절	-7.91835
▁만들어	-7.9184
매	-7.92091
▁주인공	-7.92184
▁알	-7.9236
▁박	-7.92484
짱	-7.92936
없이	-7.93022
브	-7.93101
카	-7.93152
a	-7.932
가는	-7.93237
▁배우들	-7.9337
없	-7.9338
였다	-7.93397
격	-7.93532
▁이영화	-7.93578
름	-7.94232
▁와	-7.94606
▁같은	-7.94804
적으로	-7.94949
▁죽	-7.95047
▁욕	-7.95087
석	-7.95514
▁망	-7.95696
근	-7.95762
▁전혀	-7.96058
▁솔직히	-7.96198
승	-7.96318
▁소재	-7.96492
다가	-7.96563
5	-7.96644
건지	-7.96666
코	-7.96769
예	-7.96944
▁좋다	-7.96959
배	-7.97045
▁좋	-7.97156
▁ᅳᅳ	-7.97334
보는	-7.97424
▁재밌	-7.97534
들은	-7.97725
▁뭔가	-7.97729
▁모두	-7.97907
▁재밌다	-7.98121
박	-7.98189
▁영화다	-7.98204
▁결말	-7.98398
달	-7.98635
장면	-7.98876
▁한번	-7.99153
▁동	-7.99219
만큼	-7.99409
언	-7.99537
▁울	-7.99771
▁ᄒᄒ	-7.99838
태	-7.99877
어서	-8.00011
▁장면	-8.00052
d	-8.00226
▁배	-8.00315
▁아주	-8.00419
▁원작	-8.00572
씬	-8.00751
▁대한	-8.01049
▁같다	-8.01225
▁봐도	-8.01249
답	-8.0132
▁하지만	-8.01539
꺼	-8.01599
▁연기력	-8.01768
▁줄	-8.02078
▁공감	-8.02498
이랑	-8.02678
ᅳᅳ	-8.03008
속	-8.031
▁현실	-8.03126
극	-8.03135
▁아니라	-8.03196
▁코미디	-8.03257
는게	-8.03612
하네요	-8.03696
럽	-8.0411
▁노	-8.04359
양	-8.04393
때문에	-8.04837
지도	-8.05379
려고	-8.05422
케	-8.05687
했는데	-8.05873
잇	-8.05945
▁파	-8.05979
정도	-8.06069
▁5	-8.0629
▁영	-8.06334
설	-8.06611
공	-8.06646
▁맞	-8.0688
감독	-8.07093
없다	-8.07301
▁대박	-8.07799
t	-8.07836
▁가족	-8.08021
▁전개	-8.08241
ᄏᄏᄏᄏ	-8.08461
병	-8.08646
토	-8.08871
배우	-8.09026
▁최악	-8.09031
▁피	-8.0927
▁개봉	-8.09284
산	-8.0933
▁단	-8.09521
▁어떻게	-8.09563
4	-8.09626
녀	-8.09922
▁웃	-8.09974
했	-8.10059
▁손	-8.10075
▁상	-8.1009
▁기억	-8.10202
▁최악의	-8.10367
글	-8.1054
▁인	-8.10635
▁재미있게	-8.10739
i	-8.10823
▁공포	-8.11017
▁심	-8.11067
직	-8.11078
▁4	-8.11191
봤는데	-8.11198
생각	-8.11234
▁내내	-8.11316
▁이걸	-8.11375
▁계속	-8.11383
재밌	-8.1144
▁가슴	-8.11466
!!!!	-8.11602
엇	-8.11656
▁선	-8.11683
▁억지	-8.11694
각	-8.11704
▁나오는	-8.11764
향	-8.1201
업	-8.12011
포	-8.12275
▁매	-8.12375
해야	-8.1254
학	-8.12717
▁재미없	-8.12747
▁대사	-8.12774
겠	-8.12791
▁실망	-8.12799
맨	-8.12838
▁아닌	-8.13118
▁내용이	-8.13289
결	-8.13421
▁예	-8.13434
▁표현	-8.13453
법	-8.13537
▁발	-8.13597
▁7	-8.14079
▁않고	-8.14237
더라	-8.14498
뿐	-8.14529
이라는	-8.14568
점이	-8.14607
것도	-8.14769
하면서	-8.14916
았다	-8.15213
릴	-8.15673
▁제목	-8.15734
▁그래도	-8.15824
▁차	-8.16365
▁속	-8.16636
▁매력	-8.16686
보면	-8.16898
하네	-8.16953
▁눈물	-8.16983
▁연	-8.17007
8	-8.17012
을까	-8.17264
한테	-8.17517
스토리	-8.17565
▁남는	-8.17592
초	-8.17799
▁딱	-8.18071
해도	-8.18079
색	-8.18102
▁평	-8.18468
내용	-8.18599
따	-8.19142
▁원	-8.19181
▁인간	-8.19395
▁성	-8.19453
이고	-8.19581
리는	-8.19947
봐도	-8.19978
권	-8.20118
참	-8.2016
▁정도	-8.20205
▁스릴러	-8.20282
▁수준	-8.20328
▁않은	-8.20338
▁추천	-8.20585
중에	-8.20625
는거	-8.20633
▁조금	-8.20743
짐	-8.21018
스트	-8.21145
사람	-8.2116
집	-8.21281
▁낮	-8.21929
담	-8.22335
계	-8.22406
▁극	-8.22416
▁8	-8.22746
▁명	-8.22918
잡	-8.22951
▁긴장감	-8.22969
▁재밋	-8.22979
▁감	-8.23115
▁캐릭터	-8.23168
아니	-8.23362
▁요즘	-8.23375
점도	-8.23449
▁막장	-8.23497
창	-8.23502
▁제대로	-8.23551
ᄒᄒ	-8.23608
▁아니다	-8.23611
▁당	-8.23727
복	-8.23827
▁근데	-8.24271
▁위	-8.24316
능	-8.24394
환	-8.24564
▁연기가	-8.24614
l	-8.24664
▁9	-8.24899
출	-8.24953
▁아름다운	-8.24969
▁쓰	-8.25155
▁영상	-8.25194
▁실	-8.25275
먹	-8.25402
는지	-8.25516
▁제일	-8.26036
종	-8.26159
인듯	-8.26161
입	-8.26284
알	-8.26327
평점	-8.26417
▁재미없다	-8.26466
▁이제	-8.26552
▁시리즈	-8.26579
웃	-8.26633
▁애니	-8.26634
해요	-8.26691
c	-8.26866
이란	-8.27098
▁0	-8.27275
▁감독이	-8.27278
죽	-8.27529
▁만드는	-8.27653
▁담	-8.27811
▁서	-8.28201
됨	-8.28384
밖에	-8.28434
▁싶	-8.28503
▁절대	-8.2852
▁굿	-8.2871
대로	-8.28762
왜	-8.28792
▁미국	-8.28933
느	-8.29021
▁연기도	-8.29543
▁정신	-8.30239
평	-8.30395
▁나름	-8.30434
불	-8.30459
머	-8.30496
별	-8.30512
▁건	-8.30701
▁노래	-8.30887
적이	-8.31472
다고	-8.31504
할수	-8.31559
움	-8.31609
하는데	-8.31632
▁생	-8.31672
▁볼만	-8.31705
▁아이	-8.31798
▁싶다	-8.31851
▁않는	-8.31882
난다	-8.31934
년대	-8.32078
▁세	-8.32119
▁내용도	-8.32264
던데	-8.32332
▁보다가	-8.32743
▁듯	-8.32778
락	-8.32841
▁시작	-8.3285
▁많	-8.33128
처	-8.33137
▁스토리가	-8.33335
m	-8.33371
▁ᄏᄏᄏᄏ	-8.33433
▁졸	-8.3345
▁몇	-8.33526
▁웃기	-8.33747
▁괜찮	-8.34017
기에	-8.34167
들을	-8.34342
▁OO	-8.34359
▁초	-8.34542
었는데	-8.34753
표	-8.35002
▁엄청	-8.35227
▁작가	-8.3528
▁아니고	-8.35419
않	-8.35422
투	-8.35692
이라고	-8.35975
기도	-8.35981
▁애들	-8.36068
ᅮ	-8.36163
▁허	-8.36297
▁잠	-8.36577
▁20	-8.36766
등	-8.36858
10	-8.36909
▁재미있	-8.36923
▁잼있	-8.37012
증	-8.37062
▁화	-8.37159
틀	-8.37395
▁점수	-8.3751
넘	-8.37669
▁모르겠	-8.37891
외	-8.38145
었던	-8.38241
▁높	-8.38529
뭐	-8.38541
▁특히	-8.3879
에는	-8.38797
▁재미도	-8.38954
론	-8.39015
주는	-8.39059
▁있었	-8.39063
먼	-8.39234
나는	-8.39296
▁막	-8.39404
합	-8.39425
▁사람들	-8.39429
▁6	-8.39458
▁몰	-8.3952
▁아까운	-8.39668
▁보다	-8.39814
▁의미	-8.39868
▁아직도	-8.39991
▁나는	-8.40145
▁영화라고	-8.40289
뻔	-8.40291
낸	-8.40328
라도	-8.404
▁시간이	-8.40554
▁뻔한	-8.40605
짓	-8.40641
▁여운이	-8.41235
▁수작	-8.41268
메	-8.41331
었음	-8.41369
아서	-8.41494
블	-8.41588
른	-8.41632
▁차라리	-8.41642
끼	-8.41645
ᄒ	-8.41806
▁날	-8.4211
▁걸	-8.42548
▁좋아하는	-8.42554
듯한	-8.42705
테	-8.42863
찬	-8.42865
거지	-8.4291
돈	-8.42957
▁뭘	-8.43371
▁될	-8.43408
▁드	-8.43465
▁보게	-8.43505
▁들어	-8.43641
▁때문에	-8.43843
▁유치	-8.43881
같	-8.43983
▁느	-8.44063
얼	-8.4413
쓰	-8.44479
갈	-8.44481
▁행복	-8.44488
▁도대체	-8.44529
▁걍	-8.4458
▁좋았다	-8.44581
▁장난	-8.44595
악	-8.44717
퍼	-8.44768
▁만화	-8.44789
립	-8.44812
이런	-8.44837
월	-8.44946
▁괜찮은	-8.45061
▁우리나라	-8.45178
에도	-8.45223
련	-8.45469
동안	-8.45478
▁사실	-8.45486
수가	-8.45523
▁한국영화	-8.45548
왔	-8.4558
죄	-8.45633
7	-8.45674
페	-8.458
▁스토리도	-8.45811
▁나온	-8.45881
싸	-8.46106
▁ᅲ	-8.46182
▁삶	-8.46188
▁같	-8.46251
▁진심	-8.46323
▁영화입니다	-8.46386
리고	-8.46654
▁친구	-8.46988
치는	-8.47105
했지만	-8.4718
▁못한	-8.47382
났	-8.47453
▁보면서	-8.47457
순	-8.47475
▁봐야	-8.47744
▁감독의	-8.47759
추	-8.47845
빈	-8.4814
잼	-8.48182
▁주는	-8.48345
술	-8.48349
▁오랜만에	-8.48407
▁마지막에	-8.48455
▁공포영화	-8.48586
▁기분	-8.48601
▁만들었	-8.4865
▁나도	-8.48723
최고	-8.48787
▁찾아	-8.48803
▁B	-8.48941
▁되는	-8.48976
▁아무	-8.49033
점은	-8.49086
▁추	-8.49543
을때	-8.49564
▁답답	-8.49616
▁웃음	-8.49633
▁뒤	-8.49669
▁멋진	-8.49687
멋	-8.49785
있다	-8.49883
다는	-8.49958
지않	-8.50005
▁영화의	-8.50007
치고	-8.5006
너	-8.50315
천	-8.508
쉬	-8.50883
줌	-8.5089
졌	-8.51019
▁첨	-8.51087
이상	-8.51163
된다	-8.51211
싶	-8.51376
▁이해가	-8.51574
▁머	-8.51667
▁따	-8.51708
???	-8.51851
잔	-8.51895
완	-8.51898
약	-8.52089
효	-8.52292
돌	-8.52435
존	-8.52442
청	-8.52583
▁아깝	-8.52648
모르	-8.52749
보단	-8.52808
▁전쟁	-8.52873
ᅮᅮ	-8.52898
▁추억	-8.53019
▁짜증나	-8.53057
▁감정	-8.5308
강	-8.53131
▁짜증	-8.53255
습	-8.53384
교	-8.53385
▁배경	-8.53442
▁봤던	-8.53536
됐	-8.53536
▁시나리오	-8.53603
▁봤습니다	-8.53715
▁힘	-8.53737
▁멋있	-8.53861
레이	-8.53916
놓고	-8.54002
▁호	-8.54054
▁강추	-8.54082
사랑	-8.54168
ᅳ	-8.54229
h	-8.54267
▁재밌어요	-8.54296
▁뭔	-8.54333
▁감동적이	-8.54425
될	-8.54548
▁오늘	-8.54653
▁알바	-8.55001
철	-8.55155
▁재미가	-8.55322
놈	-8.55343
▁베	-8.55565
▁지루하고	-8.55573
했음	-8.55627
▁지루한	-8.55638
▁없음	-8.55699
▁좋고	-8.55775
▁적	-8.55784
▁OOO	-8.55798
▁몰입	-8.558
기는	-8.55857
좋	-8.55969
탄	-8.56032
▁힘들	-8.56033
▁낚	-8.56204
▁경	-8.56285
나서	-8.56322
▁분위기	-8.56386
u	-8.56437
g	-8.56614
탈	-8.56619
▁부분	-8.56917
션	-8.56987
▁싶은	-8.57016
온	-8.57176
▁어떤	-8.57188
▁하고	-8.57498
▁배우들의	-8.57602
▁생각이	-8.57641
▁올	-8.57644
▁지루함	-8.57675
▁영화에	-8.57748
▁열	-8.57826
▁타	-8.57933
독	-8.58044
▁토	-8.58111
▁문제	-8.58167
▁이딴	-8.5821
▁그저	-8.58246
라서	-8.58252
▁살아	-8.58554
▁결국	-8.58675
▁함께	-8.58867
슨	-8.58876
▁재밌는	-8.58885
▁사람이	-8.58929
▁개인적으로	-8.59062
꾸	-8.59166
하며	-8.59271
▁특	-8.59325
▁어디	-8.5936
라이	-8.59361
쓰레기	-8.59416
보니	-8.59489
▁마음	-8.59511
더니	-8.59929
▁이유	-8.60037
▁이런영화	-8.60447
▁졸작	-8.60489
건가	-8.60616
▁외	-8.60659
▁예술	-8.60797
▁설정	-8.60819
왕	-8.60924
팔	-8.60953
폭	-8.61063
▁당시	-8.61083
광	-8.61177
구만	-8.61301
▁보는내내	-8.61316
▁시대	-8.61426
갑	-8.61489
▁팬	-8.61503
▁역사	-8.61534
▁큰	-8.61564
▁관	-8.61619
▁애니메이션	-8.61712
▁!	-8.61794
6	-8.61839
▁코믹	-8.61923
▁포스터	-8.61931
혀	-8.62033
▁얼마나	-8.62115
▁나왔	-8.62186
점대	-8.62332
▁ᄒ	-8.62338
▁캐스팅	-8.62734
영화는	-8.62844
맞	-8.62862
▁아무리	-8.62918
▁몰입도	-8.63146
봐	-8.6334
▁출연	-8.63362
이지만	-8.63426
징	-8.63488
▁잼	-8.63496
누	-8.63521
▁간	-8.63709
밀	-8.63798
재미	-8.63831
작품	-8.63835
▁믿	-8.63948
침	-8.64054
▁역	-8.64065
어야	-8.64107
짜	-8.64124
▁안되는	-8.64218
그냥	-8.64248
빨	-8.64255
셨	-8.6428
▁주연	-8.64401
이네	-8.64414
▁기억에	-8.64455
▁느낌이	-8.64637
▁엔딩	-8.64655
나요	-8.64663
▁악	-8.64785
허	-8.64864
시길	-8.64974
봄	-8.65141
▁입	-8.65147
▁필요	-8.65212
재미있	-8.65264
▁부족	-8.65338
▁후회	-8.65602
▁보세요	-8.65607
▁돌아	-8.65669
지루	-8.65766
베	-8.65803
범	-8.65835
▁꿈	-8.65838
▁개연성	-8.65887
▁최고다	-8.65889
▁영화로	-8.6636
▁오래	-8.66443
놓	-8.66532
버린	-8.6663
▁길	-8.6665
올	-8.66681
나라	-8.66721
소리	-8.66728
▁잡	-8.66813
▁책	-8.67019
▁변	-8.67282
▁무섭	-8.67315
감동	-8.67408
▁천	-8.67471
▁제발	-8.67482
록	-8.67502
혜	-8.67516
▁위해	-8.67548
▁끝나	-8.67714
나오	-8.67819
ᄋ	-8.67864
C	-8.67928
송	-8.6807
▁백	-8.68155
▁절	-8.68206
스러운	-8.6847
▁총	-8.68598
▁구성	-8.68798
뜨	-8.68966
봣	-8.69054
는건	-8.69108
께	-8.69165
▁흥미	-8.69179
▁존	-8.69236
만한	-8.69301
▁스릴	-8.69384
플	-8.69485
▁꽤	-8.69528
혼	-8.69542
▁매우	-8.69634
다면	-8.69642
▁주제	-8.69955
▁된	-8.70105
▁어느	-8.70157
이네요	-8.70199
▁그렇게	-8.70225
골	-8.70225
▁방	-8.70257
배우들	-8.70461
족	-8.70479
▁둘	-8.70679
▁않았	-8.70826
▁더빙	-8.70836
▁집중	-8.70962
김	-8.70963
열	-8.71179
▁없이	-8.71257
본다	-8.71422
에요	-8.71435
부분	-8.71484
새	-8.71493
햇	-8.715
▁새	-8.71579
▁뿐	-8.71626
진다	-8.71699
▁엄마	-8.7177
9	-8.71785
▁연기는	-8.71856
취	-8.71927
▁치	-8.71965
이야	-8.72098
▁없어	-8.72278
억	-8.72338
풍	-8.72342
▁옛날	-8.72576
거야	-8.72754
영화가	-8.72934
▁지루하다	-8.72937
▁것이	-8.7317
▁미친	-8.7338
▁데	-8.73418
홍	-8.73425
D	-8.73444
싫	-8.7355
황	-8.73623
품	-8.73848
▁신선	-8.73945
영화를	-8.73987
료	-8.741
욕	-8.74163
▁놀	-8.74176
덕	-8.74319
척	-8.74437
▁깨	-8.74567
▁관객	-8.74782
그래	-8.74936
▁극장에서	-8.75112
▁언제	-8.75124
▁편	-8.75138
끝	-8.75459
ᄒᄒᄒ	-8.75523
기를	-8.75591
간다	-8.7571
▁찍	-8.75713
▁모르겠다	-8.75767
▁봤어요	-8.75872
▁불쌍	-8.75895
기만	-8.76266
점을	-8.76386
▁지루하	-8.76437
라면	-8.76645
▁아쉽	-8.76737
길래	-8.76902
백	-8.76974
사람들	-8.77151
▁자체	-8.77257
거리	-8.77284
▁별점	-8.77328
곤	-8.77512
▁하나도	-8.77523
▁따라	-8.77558
▁약	-8.77639
▁포	-8.77642
튼	-8.77662
군요	-8.77696
으나	-8.77728
▁중국	-8.77895
▁세상	-8.77931
▁이것	-8.78109
v	-8.7813
십	-8.78132
웠	-8.78244
좋았	-8.78268
▁않는다	-8.78384
▁마음이	-8.78456
끄	-8.7859
칠	-8.7859
▁준	-8.78637
▁지루	-8.78778
필	-8.78817
좋아	-8.79116
▁머리	-8.7917
▁같이	-8.7918
▁위한	-8.79188
▁인상	-8.79343
▁!!	-8.794
같이	-8.79552
런	-8.79582
느낌	-8.79583
막	-8.79734
▁알고	-8.79936
▁궁금	-8.79953
▁너무나	-8.79965
▁누구	-8.79977
▁보았	-8.8004
▁달	-8.80125
것이	-8.80157
롭	-8.80196
인줄	-8.80299
갔	-8.80353
▁먹	-8.80389
줬	-8.80434
전개	-8.80631
▁약간	-8.80751
해라	-8.80757
▁존나	-8.81012
▁버	-8.81029
목	-8.81329
주고	-8.81348
y	-8.81385
▁있고	-8.81415
곳	-8.81621
채	-8.81726
는것	-8.81799
찍	-8.8212
▁너	-8.82222
재밋	-8.82248
▁찾	-8.82285
자체	-8.82292
▁레	-8.82304
▁로맨스	-8.82334
혹	-8.82558
▁좋아요	-8.82574
년이	-8.82596
성이	-8.82599
▁누가	-8.82653
삼	-8.82724
충	-8.82724
이었다	-8.82822
잖아	-8.8292
좋은	-8.82923
▁장르	-8.83084
▁걸작	-8.83122
▁감동이	-8.83281
▁30	-8.83296
또	-8.83333
▁이쁘	-8.834
▁이름	-8.83437
▁대체	-8.83728
▁민	-8.83789
▁자기	-8.83799
▁아이들	-8.83879
▁광	-8.83978
ᄉ	-8.84016
분들	-8.84208
T	-8.84259
k	-8.84259
▁물	-8.84333
었습니다	-8.84409
▁내용은	-8.84575
책	-8.84607
없고	-8.84682
짝	-8.84703
▁영상미	-8.84709
엉	-8.84736
▁훨씬	-8.84747
린다	-8.84855
▁얼굴	-8.84904
p	-8.84991
▁CG	-8.84992
▁그나마	-8.84998
▁여주인공	-8.85035
n	-8.85119
▁글	-8.85125
곡	-8.85236
▁보지	-8.85293
▁그만	-8.85484
되고	-8.85556
액션	-8.85627
w	-8.85975
▁분	-8.85987
▁모습	-8.86082
▁똥	-8.86128
주의	-8.86128
한데	-8.86132
▁눈물이	-8.86137
▁읽	-8.86292
▁있을	-8.8634
보기	-8.8642
▁실화	-8.8643
▁첫	-8.86713
▁초반	-8.86824
버리	-8.86943
옥	-8.86969
엄	-8.87089
수준	-8.87094
든다	-8.87525
활	-8.87649
견	-8.87664
괴	-8.87783
▁다큐	-8.87842
슴	-8.87845
▁보고싶	-8.87903
으니	-8.87929
▁재밌음	-8.87958
▁그래서	-8.8799
▁비교	-8.88058
▁발연기	-8.88097
▁갈수록	-8.88149
였음	-8.8824
▁안되	-8.88512
것같	-8.88534
▁ᅮᅮ	-8.88693
티비	-8.8871
돼	-8.88762
▁가슴이	-8.88766
▁한다	-8.88871
▁봐	-8.88873
었어요	-8.88907
▁태	-8.88912
▁확	-8.89189
이라도	-8.89196
▁메	-8.89396
▁없었다	-8.89541
▁카	-8.89725
f	-8.89748
한거	-8.89771
젤	-8.90011
▁기억이	-8.90022
드는	-8.90218
기가	-8.90431
나오는	-8.9044
▁지나	-8.90441
▁보여주	-8.90491
▁결말이	-8.90494
▁네이버	-8.90787
같음	-8.90974
▁충격	-8.91048
▁단순	-8.91097
라니	-8.91293
▁어설픈	-8.91306
▁감성	-8.91389
▁작	-8.91413
커	-8.91429
아깝다	-8.91474
고싶다	-8.91667
▁자신	-8.91894
가서	-8.9197
있고	-8.91987
정도로	-8.92039
▁느껴	-8.92104
주인공	-8.92163
그리고	-8.92395
▁뻔	-8.92423
▁ᅳ	-8.92556
▁연기를	-8.92611
폐	-8.92618
▁초딩	-8.92641
줘	-8.92676
▁알았	-8.92719
▁보여주는	-8.9274
▁비디오	-8.92744
▁재밌고	-8.92784
겼	-8.9285
들에게	-8.92912
할때	-8.92983
▁영화네요	-8.93019
을듯	-8.93043
▁갖	-8.93061
ᄀ	-8.93148
건데	-8.93264
▁안보	-8.93315
▁괜찮았	-8.93357
것이다	-8.93375
훈	-8.93643
▁다음	-8.94111
▁b	-8.94186
▁맛	-8.94214
듬	-8.94216
▁대단	-8.9433
▁허접	-8.94416
▁재미있었	-8.94452
S	-8.94485
b	-8.94616
▁암	-8.94632
ᄃᄃ	-8.94697
스타	-8.94732
▁간만에	-8.9476
이라면	-8.94788
▁어색	-8.94806
보게	-8.9485
▁터	-8.94895
▁밖에	-8.94993
▁쓰레기영화	-8.95004
▁않다	-8.95005
▁목	-8.95052
▁딸	-8.9507
▁여기	-8.9509
▁생각나	-8.95223
재미없	-8.95262
▁나올	-8.95425
관계	-8.95489
▁집	-8.95538
리가	-8.95624
▁대해	-8.95629
보다는	-8.95645
▁얘기	-8.9579
▁클	-8.95821
쿠	-8.9584
▁상황	-8.95889
▁다들	-8.95891
▁교훈	-8.96125
▁성룡	-8.96134
▁100	-8.96254
▁시즌	-8.96407
▁잔잔한	-8.96436
여자	-8.96484
▁제작	-8.96507
▁아쉽다	-8.96614
▁있어	-8.96647
▁감동도	-8.96654
▁영화관에서	-8.96671
▁영화중	-8.96983
▁여주	-8.97081
험	-8.97139
묘	-8.97203
씩	-8.97214
▁평가	-8.97266
전에	-8.97303
▁이미	-8.97363
▁알게	-8.97409
하는거	-8.97409
팬	-8.97533
▁존재	-8.97547
▁노잼	-8.97583
없음	-8.97584
아닌	-8.97858
엘	-8.98047
▁사람들이	-8.98056
귀	-8.98058
200	-8.98126
쇼	-8.98326
▁멋지	-8.98403
▁그러	-8.98506
▁훌륭	-8.98508
▁재미있는	-8.98651
땜에	-8.98772
▁패	-8.98774
풀	-8.98845
▁맘에	-8.98925
▁돋	-8.98927
ᅲᅲᅲ	-8.99069
잃	-8.99169
년도	-8.99185
▁사회	-8.99259
겠지	-8.99301
r	-8.99326
▁재미없음	-8.9941
▁이후	-8.99411
콜	-8.99452
으면서	-8.99519
▁좋은데	-8.99568
해주는	-8.99668
하겠	-9.00027
▁여배우	-9.00066
▁진정한	-9.00321
속에	-9.0043
▁그리	-9.00513
들도	-9.00535
▁볼만한	-9.00564
픈	-9.00587
킬	-9.0059
▁숨	-9.0075
▁바로	-9.00797
▁전부	-9.00839
▁같아요	-9.00892
▁꼬	-9.00899
▁아님	-9.00943
▁영화였다	-9.01005
마지막	-9.01026
▁감동적인	-9.01081
▁귀	-9.01222
▁있을까	-9.01405
겠지만	-9.01406
쪽	-9.01452
▁잘못	-9.01494
ᅲᅲᅲᅲ	-9.01693
▁삼류	-9.01786
봐야	-9.02051
▁짜	-9.02106
르는	-9.02167
▁갈	-9.0228
굳	-9.02486
▁영화라	-9.02528
딴	-9.02744
▁생각보다	-9.02774
▁크	-9.02783
하냐	-9.0279
이건	-9.02797
▁어이없	-9.02822
▁상당히	-9.02905
구요	-9.03293
A	-9.03493
▁소리	-9.03558
▁등	-9.03745
▁돌	-9.03766
▁왕	-9.03832
▁그대로	-9.03954
거나	-9.03981
▁재미있다	-9.04047
패	-9.04174
▁흐	-9.04207
▁독	-9.04381
빼	-9.04532
접	-9.04635
잔잔	-9.04639
▁하지	-9.04768
▁주고	-9.04827
이야기	-9.04955
▁재미없어	-9.05076
▁생각을	-9.05088
▁허무	-9.05126
▁국	-9.05175
편이	-9.05237
▁예상	-9.05303
도없고	-9.05316
낫	-9.05488
▁양	-9.05528
▁판타지	-9.05576
▁중간에	-9.05632
▁같은데	-9.05671
같아	-9.05759
▁앞으로	-9.05877
▁높은	-9.05976
▁90	-9.05988
▁소설	-9.06188
▁각본	-9.06192
▁것을	-9.06221
하시	-9.0639
완전	-9.06447
율	-9.06482
츠	-9.06482
▁다르	-9.06728
링	-9.06786
▁나와	-9.06815
했어요	-9.06865
▁당신	-9.07066
▁어린	-9.07231
함을	-9.07281
▁스토리는	-9.07294
▁황	-9.07333
헤	-9.07374
응	-9.07391
벽	-9.07396
땐	-9.07397
▁그것	-9.0741
함이	-9.07444
▁코	-9.07525
들어	-9.07687
▁떠	-9.0769
익	-9.07703
량	-9.07704
▁생각해	-9.07709
▁혼자	-9.07724
준다	-9.07762
▁뭐야	-9.0793
▁음	-9.08104
시대	-9.08169
딩	-9.08245
북	-9.0828
축	-9.0832
▁감동을	-9.08361
▁배우들이	-9.08417
▁순	-9.08439
▁분들	-9.08486
시키	-9.0865
▁줄거리	-9.08686
▁실제	-9.08687
세요	-9.08716
▁나이	-9.0888
▁완벽	-9.09025
▁세계	-9.09035
▁산	-9.09148
▁재미는	-9.0925
틴	-9.09252
에선	-9.09327
▁여러	-9.09349
여서	-9.09418
눈	-9.09459
한영화	-9.09469
▁있지만	-9.09539
겹	-9.09564
▁멜로	-9.09579
학교	-9.09601
▁윤	-9.09648
▁거의	-9.09731
▁준다	-9.09774
흥	-9.09837
숙	-9.09877
▁나와서	-9.09943
되어	-9.10098
겁	-9.10114
흘	-9.10186
싱	-9.10192
▁영화인데	-9.10276
▁휴	-9.10377
낮	-9.10388
O	-9.10447
념	-9.10508
▁봤지만	-9.10508
스터	-9.10531
▁빨리	-9.10547
▁몸	-9.10691
▁이영화를	-9.10758
▁에로	-9.10948
졌다	-9.10954
적이고	-9.10966
나옴	-9.1103
쁘	-9.11038
▁커	-9.11145
조차	-9.11276
편은	-9.11282
놈들	-9.11454
춘	-9.11459
OO	-9.12002
기대	-9.12033
▁재미없는	-9.1222
▁적당	-9.12237
▁이번	-9.12342
했습니다	-9.12351
보면서	-9.12386
▁죽이	-9.12404
▁슬픈	-9.12425
▁살인	-9.12447
▁여운	-9.12493
찰	-9.12721
▁아버지	-9.12756
▁좀비	-9.12817
봉	-9.12829
만으로도	-9.12846
▁정도로	-9.12897
빵	-9.12954
▁말도	-9.12981
▁갑자기	-9.13068
▁굉장히	-9.13093
▁떨어	-9.13133
▁영화임	-9.13168
뜻	-9.13371
안되	-9.13682
센	-9.13718
▁번	-9.13719
▁종	-9.13758
▁삼	-9.13786
▁것도	-9.1385
▁더욱	-9.13856
해지는	-9.14085
하니	-9.14135
▁어쩌	-9.14138
▁빠져	-9.14176
예요	-9.14218
▁그녀	-9.14318
▁똑같	-9.14373
▁보여	-9.14418
▁훌륭한	-9.14489
리스	-9.14535
▁뭐지	-9.14566
▁가치	-9.14574
▁장면이	-9.14676
▁낮은	-9.1476
▁어디서	-9.14763
▁재밌네요	-9.14802
▁저런	-9.14806
????	-9.14857
잊	-9.14891
▁온	-9.14971
▁감독님	-9.15044
▁목소리	-9.15055
▁극장판	-9.15079
▁있어서	-9.15216
남자	-9.15223
것을	-9.15341
야지	-9.15368
도록	-9.15542
스럽다	-9.15596
윤	-9.15606
봐서	-9.1563
낭비	-9.15664
▁새로운	-9.15696
▁예쁘	-9.15729
▁개그	-9.15827
▁볼수	-9.1588
▁보여준	-9.15907
▁알겠	-9.15931
하여	-9.15935
er	-9.15955
덜	-9.16028
▁봐서	-9.16099
▁소름	-9.16167
▁상영	-9.16269
노잼	-9.16401
쉽	-9.16443
▁제가	-9.16522
였어요	-9.16683
꼽	-9.16699
뒤	-9.16718
▁믿고	-9.16773
있게	-9.17217
▁화면	-9.17243
쯤	-9.17338
랜	-9.17373
탁	-9.17373
▁시청률	-9.17396
▁보니	-9.17418
셔	-9.17488
▁뭐냐	-9.17534
▁원작을	-9.17548
하던	-9.17554
▁없었	-9.1757
▁아직	-9.17632
ᄂ	-9.17712
규	-9.17712
에겐	-9.17881
▁불편	-9.18018
▁성우	-9.18161
▁재미있어요	-9.18254
▁연출력	-9.18268
찌	-9.1829
멘	-9.18394
클	-9.18415
들과	-9.18494
코미디	-9.18576
쩌	-9.18638
▁그렇다	-9.18736
▁캐	-9.18834
자들	-9.18873
감동적	-9.18919
▁그러나	-9.18919
▁좋은영화	-9.19011
▁항상	-9.19084
애들	-9.19113
▁복수	-9.19143
▁마음에	-9.1927
되지	-9.19384
뇌	-9.19424
▁흥행	-9.19427
▁비해	-9.19441
▁생각하게	-9.19565
▁된다	-9.19586
벌	-9.19601
▁했는데	-9.1966
▁방송	-9.19869
▁빛	-9.19968
놀	-9.20031
엿	-9.20118
▁평점을	-9.20199
택	-9.20431
그러	-9.20452
▁봤음	-9.20466
논	-9.20466
▁흠	-9.2051
닥	-9.20588
▁일단	-9.20741
▁대단한	-9.20789
▁프랑스	-9.20816
▁탄탄	-9.20818
▁못하는	-9.20877
높	-9.20877
▁너무너무	-9.21027
▁자체가	-9.21151
학생	-9.21246
다시	-9.21543
▁울었	-9.21574
것같다	-9.21587
▁듣	-9.21644
성을	-9.21687
쳤	-9.21805
즘	-9.21857
웨	-9.21872
써	-9.2203
겟	-9.22058
쩔	-9.22129
▁따뜻	-9.2217
앗	-9.22209
람	-9.22223
탕	-9.22227
▁바라	-9.22278
▁으	-9.22332
년전	-9.22359
▁주인공이	-9.22395
▁의도	-9.22444
득	-9.22456
변	-9.22502
같다	-9.22541
▁순수	-9.22559
▁TV	-9.22583
맛	-9.22584
▁채	-9.22772
했을	-9.22851
▁19	-9.22852
▁그런지	-9.22872
는걸	-9.23007
했고	-9.23008
▁80	-9.23079
별로	-9.23105
봣는데	-9.23146
▁처음부터	-9.2325
붙	-9.23298
▁엉성	-9.23352
▁충분히	-9.2337
떨	-9.23622
▁문	-9.23669
▁한심	-9.23744
▁재밌어	-9.23779
▁끌	-9.23816
슈	-9.24017
▁관람	-9.24345
됬	-9.24381
▁키	-9.24389
시리즈	-9.24423
능력	-9.24503
근데	-9.24511
했으면	-9.2455
다운	-9.24623
말이	-9.24695
▁가지고	-9.24702
▁풀어	-9.248
▁저는	-9.24853
음악	-9.24954
욱	-9.24956
다른	-9.25
▁봐라	-9.25006
맘	-9.25061
령	-9.25109
꼴	-9.2511
샤	-9.2511
▁댓글	-9.2511
▁교	-9.25183
▁계	-9.25197
▁사람은	-9.25377
맹	-9.25476
였는데	-9.25597
▁한편	-9.25618
그런	-9.25675
▁점점	-9.25789
I	-9.25844
▁홍콩	-9.25845
짜증	-9.25959
▁되어	-9.2616
G	-9.26212
릭	-9.26213
▁뭐가	-9.26469
밤	-9.26583
▁만족	-9.26636
ᄋᄋ	-9.26641
▁안된다	-9.26707
▁없어서	-9.26761
처음	-9.26879
친구	-9.2688
번째	-9.26888
▁헐	-9.26926
밥	-9.26954
▁만점	-9.27009
일까	-9.27175
ᄏᄏᄏᄏᄏᄏᄏᄏᄏ	-9.2737
▁식상	-9.2739
▁않아	-9.27414
먹고	-9.27524
떨어지	-9.27528
을텐데	-9.27608
▁꿀잼	-9.2765
섬	-9.27703
하는게	-9.27775
▁두번	-9.27826
▁있는데	-9.28022
뻐	-9.28077
렌	-9.28078
▁편집	-9.28141
확	-9.28155
▁자극	-9.2832
마다	-9.28353
랄	-9.28389
▁순간	-9.28404
하자	-9.28417
▁아까움	-9.28444
으며	-9.28474
웅	-9.28799
▁좋네요	-9.28803
푸	-9.28835
▁써	-9.28858
▁투	-9.28864
▁황당	-9.28913
무비	-9.29043
▁놀라	-9.2917
많	-9.29213
압	-9.29213
▁있었다	-9.29298
기엔	-9.29586
깔	-9.29596
이라니	-9.29598
▁먹먹	-9.29645
귀엽	-9.29662
▁말고	-9.29739
▁한마디로	-9.29787
▁참신	-9.29857
흔	-9.29876
▁필요없	-9.29914
감이	-9.29931
춤	-9.2998
▁과거	-9.30017
많은	-9.3012
▁좋겠다	-9.30175
졸	-9.30221
칼	-9.30364
▁불륜	-9.30379
▁선택	-9.30403
올리	-9.30469
▁들었	-9.30504
거다	-9.30545
려서	-9.30565
▁봄	-9.30631
착	-9.30653
▁무조건	-9.30751
보다가	-9.30863
▁것은	-9.30947
▁그닥	-9.30985
워서	-9.31031
▁흥미진진	-9.31138
▁도저히	-9.31138
아저씨	-9.31146
▁진행	-9.31339
▁맥	-9.31381
있어	-9.3144
검	-9.31525
냈	-9.31527
껏	-9.31527
할까	-9.31616
텐데	-9.31674
▁노력	-9.31702
▁유치한	-9.31789
한다는	-9.31793
▁보지마	-9.31807
▁짧	-9.31809
▁예전에	-9.31834
앙	-9.31918
▁어릴때	-9.31918
속에서	-9.31946
▁유명	-9.32054
▁다시봐도	-9.3217
▁망작	-9.32269
콩	-9.32309
▁아쉬운	-9.3231
▁그때	-9.32357
▁물론	-9.32361
▁엄청난	-9.32474
거냐	-9.32493
▁사이	-9.32557
최악	-9.32591
▁아닌가	-9.32651
ᄌ	-9.32703
걸까	-9.32753
▁참고	-9.32841
주세요	-9.33001
빌	-9.33055
줘야	-9.33072
▁질질	-9.33096
셈	-9.33099
방송	-9.33109
▁나온다	-9.3321
▁알아	-9.33261
굿	-9.33275
동생	-9.33309
▁끝내	-9.33313
▁지루해	-9.33324
▁원래	-9.33355
▁인물	-9.33357
콘	-9.33496
▁범죄	-9.33498
▁싫어	-9.33527
▁느끼	-9.33599
▁낫다	-9.33612
▁스타일	-9.33644
보세요	-9.33652
▁전개가	-9.33656
▁지금까지	-9.33735
▁이영화는	-9.33754
꼬	-9.33863
염	-9.33894
▁미안	-9.33919
빼고	-9.3401
▁시절	-9.34067
숨	-9.3407
시절	-9.34159
▁ᄍᄍ	-9.34278
킹	-9.34294
났다	-9.34376
▁돈주고	-9.34392
▁모르고	-9.34405
st	-9.34639
문화	-9.34669
턴	-9.34696
▁따뜻한	-9.34774
▁유쾌	-9.3489
추천	-9.34893
▁할말	-9.34914
▁아빠	-9.34969
▁죽음	-9.35071
내는	-9.35073
▁결혼	-9.35103
▁극장	-9.35138
만든	-9.35389
중에서	-9.35423
▁재밌는데	-9.35446
널	-9.35493
▁후반부	-9.35593
▁감독은	-9.35609
▁괴	-9.35719
대박	-9.35837
▁재밌었다	-9.35848
▁봤네요	-9.3591
▁귀신	-9.36073
손	-9.36143
쌍	-9.36277
▁사람들은	-9.36312
냥	-9.36434
딱	-9.36436
랬	-9.36516
지마라	-9.36732
암	-9.3689
평론가	-9.36966
봐라	-9.3713
▁그래픽	-9.37141
▁설명	-9.37156
▁받아	-9.37184
보는데	-9.37273
▁자꾸	-9.37292
▁모르는	-9.37365
늘	-9.37402
▁로맨틱	-9.37553
▁힘든	-9.37657
▁최근	-9.3771
▁분명	-9.37729
인거	-9.37742
▁있음	-9.37793
▁전설	-9.37856
▁쓴	-9.37888
▁이것도	-9.37953
▁알려	-9.38117
▁넘어	-9.38125
큐	-9.38183
하려는	-9.38195
스런	-9.38405
▁감상	-9.38412
하긴	-9.3842
지금	-9.38499
몰	-9.38712
혁	-9.38803
▁더럽게	-9.38805
▁괜히	-9.38808
웠다	-9.38984
▁M	-9.39017
▁완벽한	-9.39111
영상	-9.39124
오빠	-9.39196
▁전형적인	-9.39223
▁그림	-9.39309
▁보는데	-9.39326
▁없을	-9.39384
▁벌	-9.39419
나온다	-9.39479
▁저질	-9.39535
프로그램	-9.39645
▁오히려	-9.39647
▁희망	-9.39659
▁바보	-9.39835
▁아까워	-9.4003
▁미화	-9.40031
▁무서운	-9.40071
▁부족한	-9.40082
실망	-9.40218
▁없네	-9.40222
▁감사	-9.40226
내가	-9.40284
였습니다	-9.40334
▁사랑을	-9.40365
▁병맛	-9.40497
▁예고편	-9.40502
▁상상	-9.40602
▁그럴	-9.40687
▁웃긴	-9.40781
쓸	-9.40918
힌	-9.40922
▁SF	-9.40922
명작	-9.40956
보인다	-9.41098
▁여성	-9.41316
째	-9.41428
▁나쁜	-9.41428
▁느낄	-9.41503
시켜	-9.41542
끈	-9.41752
▁가능	-9.41761
▁억지로	-9.41776
팅	-9.4178
▁완성도	-9.41782
▁전편	-9.41922
▁없네요	-9.41926
▁있다는	-9.41933
▁싶었	-9.41949
▁뭔지	-9.42009
▁일본영화	-9.42143
지않는	-9.42214
릿	-9.42214
쥐	-9.42215
▁느끼게	-9.42249
▁이정도	-9.42314
갔다	-9.42384
흑	-9.42615
픽	-9.42649
▁대한민국	-9.4265
▁만나	-9.42679
있네	-9.4282
네여	-9.43023
육	-9.43075
E	-9.43086
버렸다	-9.43086
▁우연히	-9.43087
▁내인생	-9.43089
▁현재	-9.43101
▁인간의	-9.43125
▁그게	-9.43305
▁만들지	-9.43312
▁재밌었	-9.43321
하세요	-9.43345
................	-9.43377
▁자연	-9.4343
▁연출이	-9.43503
몽	-9.43525
x	-9.43525
▁인정	-9.43544
했어	-9.4358
수록	-9.43629
았던	-9.43696
▁알았다	-9.43746
년에	-9.43778
▁진실	-9.43778
▁평점은	-9.4389
꽃	-9.43965
▁흘러	-9.43974
많이	-9.44074
▁벗	-9.4423
▁넣	-9.44302
점짜리	-9.44348
V	-9.44407
찡	-9.44408
휴	-9.44446
▁동화	-9.44455
▁비슷한	-9.44456
▁아무것도	-9.44508
▁요소	-9.44558
▁늘	-9.44816
훨	-9.4485
▁ost	-9.44855
랄까	-9.44932
▁만드	-9.44991
▁신기	-9.451
때마다	-9.45189
이에요	-9.45236
▁이야기를	-9.4527
퇴	-9.45299
▁아쉬움	-9.45299
▁좋았어요	-9.4531
▁바람	-9.45353
▁반전이	-9.45433
같아서	-9.45611
▁안나오	-9.45738
앤	-9.45747
▁이상한	-9.45832
▁기대하고	-9.45923
▁유머	-9.45943
▁중반	-9.46081
었지만	-9.46108
틱	-9.46198
귀여워	-9.46225
놓은	-9.46291
공포	-9.46401
▁화이팅	-9.4646
▁개인	-9.46472
▁대작	-9.4655
▁좋음	-9.46594
▁촬영	-9.46651
▁청춘	-9.46652
▁메세지	-9.46654
▁어른	-9.46658
미치	-9.4667
짜리	-9.46885
있었	-9.46957
작가	-9.46971
힘	-9.47024
▁허술	-9.47171
▁작품성	-9.47196
▁진부하	-9.47278
▁배우가	-9.47384
만들어	-9.47408
▁수준이	-9.47481
겠네	-9.47537
▁특유의	-9.47563
좋다	-9.47589
▁천재	-9.47655
▁다행	-9.47673
결말	-9.47687
▁이런거	-9.48004
▁처음으로	-9.48036
더군요	-9.48181
볼수있	-9.48272
▁서로	-9.48315
있는데	-9.48427
▁액션도	-9.48461
웬	-9.48481
얻	-9.48481
▁재미있고	-9.48604
케이	-9.48626
없어	-9.48653
▁웃겨	-9.48669
싶은데	-9.48675
▁성장	-9.48745
▁대단하다	-9.48756
▁전작	-9.48866
▁아들	-9.48899
▁코메디	-9.48926
ᄅ	-9.48944
놨	-9.48944
▁중간	-9.48966
뭔	-9.49009
한번	-9.49115
▁알았는데	-9.4919
특	-9.49267
었으면	-9.49358
▁마무리	-9.49414
▁엉망	-9.49414
▁싶어	-9.49492
니깐	-9.49676
형님	-9.49799
왠	-9.49828
쩐	-9.49876
폰	-9.49876
찾	-9.50027
럴	-9.50134
쟁	-9.50183
▁리메이크	-9.50346
▁어렸을때	-9.50416
▁지금도	-9.50519
빡	-9.50817
개봉	-9.50895
▁졸라	-9.50935
였던	-9.50942
▁멀	-9.50947
▁왜이리	-9.50949
▁이런걸	-9.51022
▁아이들이	-9.51254
잉	-9.51291
땅	-9.51291
마저	-9.51306
▁유치하고	-9.51619
인간	-9.51631
지않고	-9.51653
▁아프	-9.51659
▁우울	-9.51709
▁tv	-9.51772
▁환상	-9.51796
▁지난	-9.51799
최고의	-9.51806
▁등장	-9.51968
▁이러	-9.52011
▁킬링타임용	-9.5203
▁모습이	-9.5203
렉	-9.52246
몬	-9.52246
▁액션영화	-9.52266
줄알았	-9.52289
▁속편	-9.52296
끔	-9.52598
필요	-9.52659
끊	-9.52727
X	-9.52727
롱	-9.52727
드립니다	-9.52727
▁표정	-9.52768
▁되었	-9.52771
▁돌려	-9.52811
▁뻔하	-9.52829
▁노출	-9.52854
▁않을	-9.52884
드라	-9.52901
▁재미없고	-9.52989
▁남주	-9.53075
▁않았다	-9.53091
쾌	-9.53103
▁화려한	-9.53214
봅니다	-9.53218
▁않음	-9.53308
11	-9.53373
그래도	-9.53394
흐	-9.53432
▁좋을	-9.53503
▁보이는	-9.53588
사람이	-9.53656
객	-9.53673
벤	-9.53695
옹	-9.53695
▁귀여운	-9.53695
▁비추	-9.53722
▁잊을	-9.53783
▁정치	-9.53842
▁관심	-9.53853
▁또한	-9.53907
점준	-9.53929
언니	-9.53952
▁장면은	-9.54034
균	-9.54183
▁진부한	-9.54188
▁잔인하	-9.54193
룡	-9.54637
▁게임	-9.54646
▁지루하지	-9.54648
받는	-9.54668
벨	-9.54673
잭	-9.54673
세계	-9.54716
▁겁나	-9.54718
▁왠지	-9.54722
▁자유	-9.5481
▁빠지	-9.54875
좋고	-9.55003
▁잼나	-9.55108
홀	-9.55166
▁그렇고	-9.55166
▁리얼	-9.55236
먹는	-9.55272
▁명작이다	-9.55274
했는지	-9.55309
.........	-9.55312
모습	-9.55318
무슨	-9.55331
▁가득	-9.55342
▁아니지만	-9.55395
P	-9.55661
뒷	-9.55661
▁아닐까	-9.55661
▁경찰	-9.55696
▁그려	-9.55738
으려	-9.55738
▁통해	-9.55748
기억	-9.55785
▁아오	-9.55799
▁사건	-9.55844
왔다	-9.56074
멍	-9.56157
좌	-9.56158
▁맞는	-9.56238
▁만들었다	-9.56268
▁어찌	-9.56301
▁해주	-9.56463
쏘	-9.56658
N	-9.56659
지않은	-9.56673
점준다	-9.56753
▁최악이다	-9.56779
▁그런데	-9.56786
하는것	-9.56945
알바	-9.56954
지말고	-9.56977
▁뛰어	-9.57108
촌	-9.57122
▁좋았습니다	-9.57175
▁행동	-9.57185
▁시간낭비	-9.57259
▁좋았고	-9.57269
▁군대	-9.57303
아깝	-9.57362
재밌게	-9.57434
▁세상에	-9.57627
▁먼저	-9.57676
▁전체적으로	-9.57701
▁성인	-9.57706
▁안맞	-9.57735
an	-9.57741
역시	-9.57743
▁떠나	-9.57776
▁미래	-9.57802
순간	-9.58033
▁심리	-9.58176
▁성공	-9.58338
꼭	-9.58361
만드는	-9.58461
▁전체	-9.58581
끼리	-9.58588
▁마치	-9.58604
폴	-9.58684
썩	-9.58684
▁보고나서	-9.59034
▁전달	-9.59088
▁별루	-9.59143
최	-9.59148
▁무엇보다	-9.59197
타임	-9.59239
▁같습니다	-9.59505
▁주인공들	-9.59614
즐	-9.59641
할수있	-9.59679
궁	-9.59705
잤	-9.59712
춰	-9.59712
▁크리스	-9.59742
▁어렵	-9.59755
▁상상력	-9.59767
▁허접한	-9.59864
▁대충	-9.59877
▁영화였습니다	-9.59915
...........	-9.59947
▁생각한다	-9.60116
반전	-9.60392
▁지금봐도	-9.60443
▁15	-9.60576
흡	-9.60751
닐	-9.60751
밝	-9.60751
▁한계	-9.6083
▁재밌었어요	-9.60931
커플	-9.61022
▁너무나도	-9.61027
▁이젠	-9.61064
▁삶을	-9.61151
녹	-9.61275
뉴	-9.61275
뽕	-9.61275
▁밑에	-9.61352
▁일상	-9.61372
▁많아	-9.61376
▁그랬	-9.61547
영환	-9.61774
▁카메라	-9.61801
한다면	-9.61843
할듯	-9.61926
려면	-9.62044
▁심심	-9.62067
▁잘봤습니다	-9.6233
썼	-9.6233
농	-9.6233
▁독립영화	-9.6233
거같다	-9.62542
연출	-9.6255
▁못하고	-9.62732
와서	-9.6284
솔	-9.6286
ᄇ	-9.62861
▁확실히	-9.62862
▁케이블	-9.62864
애니	-9.62913
인것	-9.62915
없네	-9.62926
져서	-9.62934
버리고	-9.63154
▁자신의	-9.63322
or	-9.63338
극장	-9.63382
핵	-9.63396
떡	-9.63396
ᄆ	-9.63397
▁와닿	-9.63421
▁범인	-9.63446
싸움	-9.63476
▁연애	-9.63633
▁잘만든	-9.63662
엽	-9.63775
▁소재는	-9.63793
▁충분	-9.63841
식으로	-9.63844
깨	-9.6387
▁영웅	-9.63985
드리	-9.64025
▁있었던	-9.64045
았는데	-9.64066
떠	-9.64103
겠습니다	-9.64165
▁다소	-9.64225
럼	-9.64239
소재	-9.6424
▁어색한	-9.64252
▁어이없는	-9.64291
좋겠	-9.6444
킬링타임	-9.6447
짠	-9.64475
▁좋았는데	-9.6453
▁감사합니다	-9.6454
▁어린이	-9.64561
일뿐	-9.64658
▁좋았을	-9.64703
▁미소	-9.64754
▁매력적인	-9.648
▁마음을	-9.64846
▁영화중에	-9.64899
가족	-9.64929
둘	-9.6494
깜	-9.65017
둥	-9.65018
것들	-9.65039
▁좋았음	-9.65082
▁같네요	-9.65147
넣	-9.65149
▁그럼	-9.65232
웃김	-9.65259
ᄃ	-9.65264
밑	-9.65484
▁OST	-9.65565
뿌	-9.65565
▁왜이렇게	-9.65565
낙	-9.65565
씀	-9.65565
▁취향	-9.6557
▁캐릭터들	-9.65611
▁제작비	-9.65718
▁모습을	-9.65737
▁없나	-9.65787
눈물	-9.65848
▁스케일	-9.66115
▁cg	-9.66119
▁메시지	-9.66123
▁떨어지는	-9.66179
거임	-9.66254
▁가끔	-9.6626
▁기분이	-9.66357
하시는	-9.6639
L	-9.66667
▁저예산	-9.66667
▁ᄉᄇ	-9.66668
▁12	-9.66691
▁젊은	-9.66693
▁느껴지는	-9.66792
▁아놔	-9.66842
▁하루	-9.66953
내요	-9.66984
▁독특	-9.6709
줘서	-9.67137
▁순수한	-9.67144
걸로	-9.6715
코드	-9.67155
▁유쾌한	-9.67213
나온	-9.67222
닝	-9.67222
컬	-9.67222
휘	-9.67222
▁높아	-9.67271
▁실패	-9.67277
▁외국	-9.67379
▁고민	-9.67389
▁40	-9.67464
받은	-9.67665
껴	-9.67757
껄	-9.67781
▁진정	-9.68079
엠	-9.68343
▁중간중간	-9.68343
▁여전히	-9.68343
▁예전	-9.68397
▁나에게	-9.68491
생활	-9.68502
급영화	-9.68521
▁여자들	-9.68683
▁아니면	-9.68687
마음	-9.68792
▁역대	-9.68813
▁글쎄	-9.68911
▁느낀	-9.68924
받고	-9.69156
▁제작진	-9.6918
▁역시나	-9.69221
▁호러	-9.69274
았음	-9.69344
삭	-9.69476
쫌	-9.69476
현실	-9.69512
▁찍은	-9.69557
▁감탄	-9.69573
on	-9.69578
▁현대	-9.69582
▁조폭	-9.69711
총	-9.6991
▁역할	-9.69917
▁평범한	-9.70008
z	-9.70047
▁볼때마다	-9.70139
▁독특한	-9.70253
▁기본	-9.70315
▁오락	-9.70413
▁스토리와	-9.70491
딸	-9.70527
▁처음이다	-9.70576
▁아닌데	-9.70614
덤	-9.70622
맙	-9.70622
▁슈퍼	-9.70624
▁결론	-9.70629
킨	-9.70745
▁보지마세요	-9.70752
으론	-9.70773
되서	-9.70774
▁현실성	-9.70846
▁주기	-9.70872
스럽고	-9.71021
안타깝	-9.71146
F	-9.71199
▁블랙	-9.71201
시킨	-9.71657
▁봤었는데	-9.71782
▁섹시	-9.71788
따위	-9.72042
▁어이가	-9.7206
항	-9.72359
묵	-9.72366
탑	-9.72366
▁슬픔	-9.72368
따라	-9.72489
▁있다면	-9.72612
▁굳이	-9.72621
▁필요한	-9.72664
나올	-9.72775
▁아름답다	-9.72955
▁저렇게	-9.72955
▁리뷰	-9.72969
▁귀엽고	-9.73028
아까워	-9.73053
▁시선	-9.73098
▁소재를	-9.73199
▁몇번	-9.733
▁죽는	-9.73325
▁나중에	-9.73404
▁사극	-9.73438
▁초반에	-9.73464
옛	-9.73544
붕	-9.73546
▁뜬금없	-9.73546
▁아름답고	-9.73546
쓴	-9.7366
▁괴물	-9.73676
▁악역	-9.73683
▁70	-9.73792
▁평생	-9.73856
▁후반	-9.73879
테러	-9.73909
▁마라	-9.73922
섭	-9.73973
▁신선한	-9.74063
닮	-9.74142
덕분에	-9.74144
▁예쁜	-9.74163
까진	-9.74415
정신	-9.74483
▁끝나고	-9.74512
▁그들의	-9.74518
새끼	-9.74654
▁있으	-9.74684
윌	-9.7474
맡	-9.7474
▁표절	-9.7475
▁종교	-9.74783
B	-9.74924
되네요	-9.7503
맞추	-9.75044
모자	-9.7506
ᄏᄏᄏᄏᄏᄏᄏᄏᄏᄏᄏᄏᄏᄏᄏᄏ	-9.75061
▁보고싶다	-9.75085
▁찍어	-9.75153
협	-9.7524
납	-9.75299
혐	-9.75343
▁슬프다	-9.75343
▁어릴적	-9.75343
▁깔끔	-9.75344
▁살짝	-9.75448
▁분노	-9.75504
▁용서	-9.75536
▁우정	-9.75551
똥	-9.75574
▁과연	-9.7559
▁사랑하는	-9.75766
▁보기엔	-9.75896
뚱	-9.75949
▁그렇지	-9.75949
▁잊혀지지	-9.75949
▁안되고	-9.75955
▁폭력	-9.75958
▁희생	-9.75978
슬퍼	-9.76109
▁이유가	-9.7613
▁올라	-9.76204
▁잼없	-9.76264
▁시원	-9.76269
끝나	-9.76314
▁고전	-9.76328
버려	-9.76333
▁가진	-9.76437
▁시청자	-9.76508
힐	-9.76558
갓	-9.76558
쩜	-9.76558
유치	-9.76632
봐요	-9.76691
무섭	-9.76741
▁감동적이고	-9.76745
▁싫다	-9.76826
▁재밌었는데	-9.76877
재미없다	-9.76945
빙	-9.76953
▁처음엔	-9.76969
못보겠	-9.77147
굴	-9.7715
괜	-9.7716
텔	-9.77172
▁이연걸	-9.77176
▁결과	-9.77266
했나	-9.77305
▁알바들	-9.77324
▁추천합니다	-9.7742
re	-9.7766
▁어렸을	-9.77697
▁드러	-9.77699
▁몰입감	-9.77728
▁의심	-9.77766
컨	-9.77789
콤	-9.77789
낼	-9.77789
탐	-9.77789
값	-9.77789
▁압권	-9.77792
▁불쾌	-9.77842
더라구요	-9.7801
비슷	-9.78068
▁이건뭐	-9.7811
▁포장	-9.7813
시키는	-9.78177
▁뮤지컬	-9.7841
틈	-9.7841
팍	-9.7841
▁열심히	-9.78411
▁아닌듯	-9.7854
▁반성	-9.78649
▁소녀	-9.78716
좋아요	-9.78842
▁하나하나	-9.78897
온다	-9.78915
멜	-9.79005
▁더이상	-9.79008
떄	-9.79035
씁쓸	-9.79039
▁티비에서	-9.79071
▁끝난	-9.79087
소름돋	-9.79126
▁나왔으면	-9.79261
누나	-9.79334
▁동물	-9.7958
▁잼있게	-9.79619
▁묘사	-9.79689
▁중요한	-9.79711
▁생각합니다	-9.7982
▁상처	-9.79836
▁볼거리	-9.79891
잼있	-9.7995
▁재미없네	-9.80143
▁만들어진	-9.80222
▁긴장	-9.80236
하려고	-9.80287
왓	-9.80297
아쉬웠	-9.80321
▁무협	-9.80406
▁자막	-9.80486
▁포기	-9.80745
갑니다	-9.81078
▁되었다	-9.81099
머리	-9.81282
설정	-9.81323
첨	-9.81492
▁지루할	-9.81494
ᄏᄏᄏᄏᄏᄏᄏᄏᄏᄏᄏᄏᄏ	-9.81545
뽑	-9.81575
스러움	-9.81576
▁섹스	-9.81584
▁설레	-9.81633
▁몸매	-9.8165
표현	-9.81689
▁이정도면	-9.81861
▁개판	-9.81884
년전에	-9.81952
▁느끼는	-9.82131
쯧	-9.8222
꾼	-9.8222
튀	-9.8222
▁채널	-9.82238
▁북한	-9.82304
방식	-9.82314
▁진심으로	-9.82446
가지고	-9.82476
점주는	-9.82581
댄	-9.8287
▁퀄리티	-9.8287
▁아까웠	-9.82884
▁빠져들	-9.82934
꿀잼	-9.82983
▁잘만들었	-9.83048
▁재미있음	-9.8305
▁달리	-9.83052
ᄍᄍ	-9.83426
어설프	-9.83482
▁등장인물	-9.83524
진심	-9.83524
▁놀랍	-9.83537
▁혹시	-9.83558
20	-9.83599
▁아침	-9.83615
▁과정	-9.83662
강추	-9.83728
▁재밋게	-9.83757
▁고생	-9.83915
▁오버	-9.83921
톰	-9.84181
▁해피엔딩	-9.84181
엑	-9.84181
푹	-9.84181
제목	-9.84242
▁흐름	-9.84264
▁어제	-9.84405
▁전투	-9.84539
얘기	-9.84633
▁크게	-9.84791
▁재밌습니다	-9.84818
재밌어요	-9.84829
▁힐링	-9.84844
▁비극	-9.85219
ᄃᄃᄃ	-9.85283
▁열정	-9.85372
▁그럭저럭	-9.8551
▁다큐멘터리	-9.8551
▁디즈니	-9.8551
▁강렬	-9.85541
▁쉽게	-9.85566
▁볼수록	-9.85655
하더라	-9.85756
▁남녀	-9.8589
▁그걸	-9.86087
뛰	-9.86154
▁가볍게	-9.86181
▁쓰래기	-9.86183
▁지루해서	-9.86251
▁좋았던	-9.86285
▁보러	-9.86301
▁국민	-9.86327
겟다	-9.86428
M	-9.86511
특히	-9.86589
▁신경	-9.86683
냉	-9.86857
칸	-9.86857
▁비주얼	-9.86857
느라	-9.86883
말이필요없	-9.86888
▁없지만	-9.86994
로써	-9.87395
헌	-9.87537
낳	-9.87537
첩	-9.87537
측	-9.87537
톤	-9.87537
▁인기	-9.87592
in	-9.87602
같고	-9.87647
▁올해	-9.87694
▁몇번을	-9.8777
▁그다지	-9.87774
▁언제나	-9.87819
▁유치함	-9.87968
▁느낄수	-9.87993
▁엉성한	-9.8814
▁봐야할	-9.88154
혈	-9.88222
▁잔인한	-9.88223
▁통쾌	-9.88226
포인트	-9.88231
▁나머지	-9.8824
▁몰라도	-9.88338
▁죽어	-9.8853
얘	-9.88567
▁못했다	-9.88617
▁조잡	-9.88632
▁어쩔	-9.88691
였지만	-9.88692
했네	-9.88771
R	-9.88912
▁싸구려	-9.88912
▁헐리우드	-9.88912
ᅡ	-9.88912
▁눈빛	-9.88944
하하하	-9.88951
만들었	-9.891
끌	-9.8933
쓰고	-9.89358
렁	-9.89606
팀	-9.89606
꽝	-9.89606
▁늘어	-9.89613
엄마	-9.8978
▁심각	-9.89809
▁다운받아	-9.89818
bb	-9.89824
줄이야	-9.89882
▁죽여	-9.89958
▁과장	-9.9
학년	-9.90053
▁매력적이	-9.90206
▁의문	-9.9022
옆	-9.90306
녕	-9.90306
셀	-9.90306
j	-9.90306
▁홍보	-9.90365
나와서	-9.90373
▁재미있네요	-9.90519
▁악당	-9.90523
막장	-9.906
▁찍었	-9.90855
옷	-9.9101
▁연예인	-9.9101
▁형편없	-9.91012
전쟁	-9.91057
▁다시한번	-9.9114
오브	-9.91257
▁이쁜	-9.91376
주고싶	-9.91704
뚝	-9.91719
멸	-9.91719
쩝	-9.91719
형제	-9.91766
▁알수	-9.91791
▁필요없다	-9.91793
▁존경	-9.91891
▁출연진	-9.92202
놔	-9.92207
▁풋풋	-9.92433
아까움	-9.92459
▁우주	-9.92577
▁이제야	-9.9258
좋아하는	-9.92662
없어서	-9.9309
몇	-9.93116
▁청소년	-9.93153
▁펑펑	-9.93153
털	-9.93153
▁시사회	-9.93154
▁어려운	-9.93155
▁불구하고	-9.93156
▁아픔	-9.93299
▁방금	-9.93308
▁마세요	-9.93315
▁달라	-9.93335
도아니고	-9.9341
집니다	-9.9347
▁니들	-9.93529
컷	-9.93877
샘	-9.93877
씹	-9.93877
▁재밌네	-9.93919
▁뛰어난	-9.93951
했으나	-9.93973
▁사랑스러운	-9.94159
고싶은	-9.9437
▁발전	-9.94389
▁나쁘지	-9.94445
왔는데	-9.94445
▁산으로	-9.94494
▁딱히	-9.9452
렷	-9.94607
▁아름다움	-9.94607
뮤	-9.94607
▁어머니	-9.94608
▁로그인	-9.94609
▁낮아서	-9.94739
▁사랑스럽	-9.95265
▁볼만함	-9.95368
믿	-9.9537
▁베스트	-9.95462
괜찮	-9.95563
몸	-9.95566
▁생애	-9.95618
▁킬링타임용으로	-9.95682
▁끌어	-9.95949
▁여기서	-9.95963
▁좋습니다	-9.9603
▁무언가	-9.96091
▁연결	-9.96298
맥	-9.96363
▁생생	-9.96464
▁재밌었음	-9.96575
낭	-9.96753
례	-9.96829
▁밋밋	-9.9683
▁유치하다	-9.96838
▁전문가	-9.96839
▁빌려	-9.96913
▁평범	-9.96992
캐릭터	-9.9716
▁대표	-9.97215
▁일반	-9.97347
▁단연	-9.9739
99	-9.9741
▁이따위	-9.97418
▁남겨	-9.9744
▁고통	-9.97548
▁바뀌	-9.97591
▁웃겼	-9.97675
소설	-9.97691
▁현실적이	-9.97696
에대한	-9.97863
▁시청	-9.97903
신분들	-9.97981
했었	-9.98034
▁투자	-9.98091
답답	-9.98097
하던데	-9.98165
▁멍청한	-9.98193
버림	-9.98238
▁안돼	-9.98248
▁오글거리	-9.98339
략	-9.98339
▁스스로	-9.98353
▁시걸	-9.98416
젠	-9.98638
▁많았	-9.98735
▁몰입해서	-9.98798
▁현실적인	-9.98873
본사람	-9.98878
했네요	-9.99063
▁집에서	-9.99068
찮	-9.99097
▁견자단	-9.99102
빅	-9.99102
앉	-9.99102
▁볼만하다	-9.99201
▁연속	-9.99271
닌	-9.99322
▁질리지	-9.99325
▁아직까지	-9.99347
기전에	-9.99596
듣	-9.99598
▁남편	-9.99858
▁헐리웃	-9.99872
므	-9.99872
▁러브	-9.99921
스타일	-9.99997
▁매력있	-10.0006
캐	-10.0043
지마세요	-10.0052
꿀	-10.0062
넌	-10.0065
▁기독교	-10.0065
▁무엇을	-10.0065
▁벌써	-10.0067
▁흔한	-10.0075
▁어울리	-10.0082
▁잊지	-10.0084
▁외모	-10.0091
▁떠나서	-10.0105
으로써	-10.0117
▁마이클	-10.0143
새롭	-10.0148
▁인간들	-10.0154
▁주변	-10.0159
해주세요	-10.0165
▁영국	-10.0182
셔서	-10.0195
▁생각없이	-10.0214
ar	-10.022
▁러닝타임	-10.0222
깎	-10.0222
▁누군가	-10.0222
▁위대한	-10.0222
▁심장	-10.0226
▁살아있	-10.0227
긴한데	-10.0245
ᅲᅮ	-10.0248
노래	-10.0274
섯	-10.0301
▁레전드	-10.0301
▁무서웠	-10.0302
ing	-10.0303
▁즐겁게	-10.0303
▁잔잔하고	-10.0306
▁지켜	-10.0311
▁발견	-10.0312
▁명품	-10.0312
아까운영화	-10.0319
▁인상적이	-10.0337
▁시각	-10.0342
딘	-10.0381
떼	-10.0381
땡	-10.0381
▁김기덕	-10.0381
▁기대안하고	-10.0381
▁맨날	-10.0383
▁갈등	-10.0388
▁반복	-10.0408
▁싶네요	-10.0411
잖	-10.0425
기위해	-10.0435
톱	-10.0462
▁찌질	-10.0463
겁니다	-10.0473
▁아이돌	-10.0475
▁허세	-10.0507
▁유쾌하고	-10.0516
OOO	-10.0538
▁관객들	-10.0539
▁국내	-10.054
보는내내	-10.0553
엔딩	-10.0566
지도않고	-10.0567
▁인물들	-10.0581
▁솔직	-10.0614
쥬	-10.0625
▁시트콤	-10.0625
▁쵝오	-10.0625
▁검색	-10.0625
▁보고나면	-10.0627
▁편견	-10.0632
▁안타깝다	-10.0633
▁에휴	-10.0634
스릴러	-10.064
옴	-10.0654
▁철학	-10.0661
펙	-10.0707
▁로봇	-10.0709
스러워	-10.0714
▁치밀	-10.0717
▁코난	-10.0725
▁착한	-10.0725
!!!!!!!!!	-10.0756
랍	-10.0789
▁에피소드	-10.0791
▁007	-10.0791
▁good	-10.0791
덴	-10.0791
▁암튼	-10.0796
갖	-10.0818
갈수록	-10.0823
▁장면들	-10.0825
닫	-10.0875
▁즐거운	-10.0875
칙	-10.0875
▁뭉클	-10.0875
▁있어야	-10.0886
▁세월	-10.0891
▁멍청	-10.0891
▁대부분	-10.0906
잠	-10.0908
▁무척	-10.0914
ᄍᄍᄍ	-10.0929
밍	-10.096
▁슬펐	-10.096
▁의외로	-10.096
en	-10.0962
▁헤어	-10.0966
▁달달	-10.0974
계속	-10.0975
▁평론가들	-10.0998
▁어쩔수	-10.101
할만한	-10.1042
낀	-10.1043
고싶어	-10.1044
빗	-10.1045
탓	-10.1045
▁초등학생	-10.1045
▁짝퉁	-10.1045
▁경험	-10.1052
▁최강	-10.1063
▁지루했다	-10.1078
ᅵ	-10.1131
곱	-10.1131
ᅩ	-10.1131
롤	-10.1218
헛	-10.1306
쁜	-10.133
닉	-10.1394
둑	-10.1394
멈	-10.1394
켜	-10.1432
칭	-10.1484
쿵	-10.1484
퀴	-10.1484
캬	-10.1484
읽	-10.1548
젊	-10.157
W	-10.1574
델	-10.1574
젼	-10.1574
텐	-10.1653
액	-10.1663
랫	-10.1665
뽀	-10.1665
벅	-10.1665
숭	-10.1756
뜬	-10.1756
둔	-10.1756
쭉	-10.1849
층	-10.1943
K	-10.1943
긋	-10.1943
룩	-10.1943
콧	-10.1943
헬	-10.1943
깝	-10.1982
뷰	-10.2035
렬	-10.2128
켓	-10.2132
롯	-10.2228
핑	-10.2228
덩	-10.2325
넹	-10.2325
윈	-10.2325
찜	-10.2423
럭	-10.2423
텝	-10.2423
밖	-10.2498
빛	-10.256
폼	-10.2622
믹	-10.2722
핀	-10.2723
H	-10.2723
깁	-10.2825
깍	-10.2825
낯	-10.2825
삐	-10.2929
앵	-10.2929
팝	-10.2929
돋	-10.3
큼	-10.3014
큰	-10.3016
륜	-10.3029
훌	-10.3033
싼	-10.3033
곰	-10.3033
댓	-10.3138
랭	-10.3138
쿨	-10.3138
쏠	-10.3244
퀄	-10.3352
곧	-10.3352
펜	-10.3352
챙	-10.346
렀	-10.3461
닿	-10.3565
뜩	-10.357
ᅥ	-10.357
곽	-10.357
ᄎ	-10.357
쪼	-10.357
찔	-10.357
쯔	-10.357
픔	-10.3659
섹	-10.3679
U	-10.3682
펑	-10.3682
딜	-10.3794
얄	-10.3794
앨	-10.3794
쿡	-10.3908
벗	-10.3952
컴	-10.4139
J	-10.4139
렛	-10.4139
찐	-10.4139
낚	-10.417
렵	-10.4247
갱	-10.4256
벼	-10.4375
싹	-10.4496
짬	-10.4618
랩	-10.4741
뭉	-10.4866
퓨	-10.4866
뭣	-10.4866
탱	-10.4866
흠	-10.4977
및	-10.4993
삶	-10.5108
륭	-10.5121
ᄁ	-10.5121
낄	-10.5249
셋	-10.5251
킥	-10.5251
깃	-10.5251
뗄	-10.5251
쫓	-10.5251
헐	-10.5261
램	-10.5383
삽	-10.5516
옵	-10.5516
짤	-10.5516
젖	-10.5516
눌	-10.5651
뎅	-10.5651
맴	-10.5651
템	-10.5651
튜	-10.5651
둡	-10.5651
밴	-10.5651
꿈	-10.5683
ᄍ	-10.5712
뢰	-10.5788
ᄡ	-10.5788
넬	-10.5927
숀	-10.5927
켄	-10.5927
홈	-10.5927
걍	-10.5986
툭	-10.6068
셜	-10.6068
닷	-10.6068
뱅	-10.6068
풋	-10.6211
닼	-10.6211
툰	-10.6211
렴	-10.6211
뻥	-10.6356
옳	-10.6356
웟	-10.6356
죤	-10.6356
쇄	-10.6356
썰	-10.6356
랙	-10.6502
껀	-10.6503
릅	-10.6503
뚜	-10.6503
떤	-10.6642
긍	-10.6652
똘	-10.6652
걷	-10.6652
릇	-10.6652
셰	-10.6652
겐	-10.6728
갠	-10.6803
셉	-10.6803
썸	-10.6803
읍	-10.6803
쩍	-10.6803
몫	-10.6803
뭘	-10.7092
뱀	-10.7113
힙	-10.7114
씁	-10.7271
쩡	-10.7272
랴	-10.7272
냅	-10.7272
퉁	-10.7433
뺏	-10.7434
쟈	-10.7434
Y	-10.7434
끗	-10.7434
닭	-10.7434
룰	-10.7434
엣	-10.7434
ᅢ	-10.7597
ᄊ	-10.7597
쉐	-10.7597
욤	-10.7597
땜	-10.7666
헉	-10.7764
띠	-10.7764
덮	-10.7934
듦	-10.7934
렐	-10.7934
밉	-10.7934
뤄	-10.7934
쉴	-10.7934
팡	-10.7934
첼	-10.8106
츄	-10.8106
킴	-10.8106
룬	-10.8261
밧	-10.8281
즉	-10.8281
넷	-10.8281
맺	-10.8281
촬	-10.846
맷	-10.846
쌓	-10.846
콕	-10.846
퉤	-10.846
팩	-10.846
푼	-10.846
혔	-10.846
됫	-10.8642
캡	-10.8642
덧	-10.8827
캠	-10.8827
퀸	-10.9016
븐	-10.9016
솜	-10.9016
쌈	-10.9016
쏴	-10.9016
톡	-10.9016
훼	-10.9016
핫	-10.9208
뜸	-10.9208
렘	-10.9208
왈	-10.9208
캅	-10.9208
팽	-10.9208
멀	-10.935
웹	-10.9404
귄	-10.9404
뼈	-10.9404
잣	-10.9404
짙	-10.9404
헷	-10.9404
캔	-10.9404
꽁	-10.9604
랏	-10.9604
얀	-10.9604
뻑	-10.9604
쭈	-10.9604
뎀	-10.9808
뚫	-10.9808
좆	-10.9808
킵	-10.9808
냄	-11.0015
뜯	-11.0017
ᄐ	-11.0017
곁	-11.0017
륵	-11.0017
믄	-11.0017
칫	-11.0229
샌	-11.0229
숲	-11.0229
턱	-11.0229
훔	-11.0447
늬	-11.0447
룸	-11.0447
첫	-11.0452
밋	-11.0661
봇	-11.0666
넓	-11.0669
녁	-11.0669
덥	-11.0669
젝	-11.0896
졋	-11.0896
짖	-11.0896
펭	-11.0896
삘	-11.0896
쇠	-11.0896
썬	-11.0896
깐	-11.0992
떳	-11.1129
꾹	-11.1129
멕	-11.1129
헨	-11.1129
짧	-11.1194
끓	-11.1367
묶	-11.1367
훗	-11.1367
겸	-11.1367
헝	-11.1367
즌	-11.1586
흉	-11.161
줫	-11.1611
펠	-11.1611
갇	-11.1611
궈	-11.1611
뎌	-11.1611
겄	-11.1861
딕	-11.1861
쉣	-11.1861
탠	-11.1861
펴	-11.1861
깡	-11.2117
뉘	-11.2117
벙	-11.2117
앜	-11.2117
윽	-11.2117
밨	-11.2117
낌	-11.2376
봅	-11.2376
쎄	-11.2379
뷔	-11.238
띵	-11.238
뎁	-11.238
럿	-11.238
밸	-11.238
빤	-11.238
쏙	-11.238
릉	-11.238
욬	-11.2651
펀	-11.2651
둬	-11.2651
웰	-11.2651
켈	-11.2651
핏	-11.2651
잎	-11.2651
뿔	-11.2919
탭	-11.2928
횡	-11.2928
꿨	-11.3214
넼	-11.3214
꺄	-11.3214
꼇	-11.3214
챔	-11.3508
텀	-11.3508
뺨	-11.3811
톨	-11.3811
긔	-11.3811
뒀	-11.3811
뱉	-11.3811
쉰	-11.3811
쌩	-11.3811
엎	-11.3811
췄	-11.3811
률	-11.4123
댐	-11.4124
흙	-11.4124
Z	-11.4124
댕	-11.4124
륙	-11.4124
샷	-11.4124
웩	-11.4124
핳	-11.4124
눠	-11.4124
q	-11.4124
컵	-11.4446
엌	-11.4446
쿄	-11.4446
ᅦ	-11.4446
댈	-11.4446
됌	-11.4446
샀	-11.4446
샹	-11.4446
쌀	-11.4446
펄	-11.4446
숫	-11.4446
꽂	-11.478
샬	-11.478
횽	-11.478
칩	-11.478
됴	-11.478
쒸	-11.478
촉	-11.5124
킷	-11.5124
듀	-11.5124
탔	-11.5124
햄	-11.5124
뀌	-11.5477
쵝	-11.5481
욜	-11.5482
뻘	-11.5482
ᄑ	-11.5482
뺀	-11.5482
솟	-11.5482
슐	-11.5482
젓	-11.5482
쫙	-11.5482
씌	-11.5482
쬐	-11.5482
괘	-11.5852
뇨	-11.5852
돕	-11.5852
쌔	-11.5852
욧	-11.5852
췌	-11.5852
귓	-11.5852
쑤	-11.5852
힛	-11.5852
넨	-11.5852
꽤	-11.597
펐	-11.6236
썽	-11.6237
좁	-11.6237
쨩	-11.6237
쪄	-11.6237
퀀	-11.6237
갸	-11.6237
롬	-11.6237
홉	-11.6237
훅	-11.6637
ᅭ	-11.6637
꿋	-11.6637
쌤	-11.6637
씽	-11.6637
퍽	-11.6637
밭	-11.6637
얹	-11.6637
갤	-11.7053
꼼	-11.7053
댔	-11.7053
윙	-11.7053
엥	-11.7053
햐	-11.7053
밌	-11.748
쵸	-11.7488
늠	-11.7488
뛴	-11.7488
뤽	-11.7488
밈	-11.7488
얕	-11.7488
핍	-11.7488
깬	-11.7488
몹	-11.7488
붓	-11.7488
굉	-11.7942
뭥	-11.7942
놉	-11.7943
뎈	-11.7943
뜰	-11.7943
붐	-11.7943
힝	-11.7943
깽	-11.7943
낰	-11.7943
낱	-11.7943
썅	-11.7943
윗	-11.7943
쟝	-11.7943
얌	-11.7943
퀼	-11.7943
Q	-11.7943
걱	-11.8403
팜	-11.8419
굼	-11.8419
됀	-11.8419
휼	-11.8419
겜	-11.8419
곸	-11.8419
웁	-11.8419
짭	-11.8419
딥	-11.8419
앳	-11.8419
ᅧ	-11.8419
싯	-11.8919
ᅣ	-11.8919
꾀	-11.8919
꿉	-11.8919
뚤	-11.8919
뱃	-11.8919
뵈	-11.8919
쑈	-11.8919
융	-11.8919
텍	-11.8919
젬	-11.8919
빽	-11.9445
샴	-11.9445
돠	-11.9445
빔	-11.9445
섰	-11.9445
댜	-11.9445
얔	-11.9445
늑	-11.9999
땟	-12.0001
쁠	-12.0001
쉘	-12.0001
읎	-12.0001
쟤	-12.0001
캣	-12.0001
쾅	-12.0001
퀘	-12.0001
욘	-12.0001
욯	-12.0001
짚	-12.0001
쿤	-12.0001
떴	-12.0001
걔	-12.0589
뺐	-12.0589
갚	-12.0589
뇬	-12.0589
댁	-12.0589
룻	-12.0589
맬	-12.0589
숴	-12.0589
웡	-12.0589
퉷	-12.0589
훤	-12.0589
넉	-12.0589
뭍	-12.0589
좃	-12.1214
괄	-12.1214
뤠	-12.1214
죵	-12.1214
쨔	-12.1214
핰	-12.1214
뮬	-12.1214
꿰	-12.1214
됏	-12.1214
겔	-12.1881
벡	-12.1881
쏜	-12.1881
풉	-12.1881
넥	-12.1881
믓	-12.1881
뿅	-12.1881
뿍	-12.1881
쪙	-12.1881
첸	-12.1881
겅	-12.1881
슥	-12.1881
킁	-12.1881
퐁	-12.2595
끽	-12.2595
넴	-12.2595
눅	-12.2595
뷁	-12.2595
쒯	-12.2595
잌	-12.2595
찼	-12.2595
툴	-12.2595
휙	-12.2595
굽	-12.2595
껌	-12.2595
륨	-12.2595
썹	-12.2595
얍	-12.2595
잰	-12.2595
쳇	-12.2595
칵	-12.2595
텨	-12.2595
흣	-12.2595
뺑	-12.2595
넝	-12.3364
렜	-12.3364
굶	-12.3364
깼	-12.3364
꼐	-12.3364
넛	-12.3364
볶	-12.3364
섀	-12.3364
챈	-12.3364
꽈	-12.3364
돔	-12.3364
뒹	-12.3364
쫑	-12.3364
춥	-12.3364
샵	-12.3364
끙	-12.4197
갯	-12.4197
괸	-12.4197
냔	-12.4197
눕	-12.4197
뿡	-12.4197
욥	-12.4197
졷	-12.4197
햅	-12.4197
뎃	-12.4197
멱	-12.4197
뻗	-12.4197
왁	-12.4197
콱	-12.4197
팰	-12.4197
헿	-12.4197
캄	-12.4197
컥	-12.5103
곀	-12.5106
궤	-12.5106
뒈	-12.5106
랖	-12.5106
벳	-12.5106
꺠	-12.5106
쑥	-12.5106
읭	-12.5106
줏	-12.5106
밓	-12.5106
혓	-12.5107
눔	-12.6106
앰	-12.6106
잦	-12.6106
ᄈ	-12.6106
ᆪ	-12.6106
갘	-12.6106
깟	-12.6106
닛	-12.6106
롹	-12.6106
짰	-12.6106
쫘	-12.6106
딛	-12.6106
쨰	-12.6106
떵	-12.6106
웍	-12.8468
챤	-13.5869
쥑	-13.587
잴	-13.5871
윅	-13.5872
땔	-13.5873
닠	-13.5874
놧	-13.5875
뀜	-13.5876
껑	-13.5877
홥	-13.5878
헴	-13.5879
촛	-13.588
앍	-13.5881
쎈	-13.5882
뉜	-13.5883
훑	-13.5884
샛	-13.5885
덱	-13.5886
낍	-13.5887
괞	-13.5888
휠	-13.5889
헠	-13.589
츤	-13.5891
좔	-13.5892
꺾	-13.5893
횟	-13.5894
핥	-13.5895
폄	-13.5896
큽	-13.5897
옜	-13.5898
샐	-13.5899
쁩	-13.59
멧	-13.5901
뀔	-13.5902
휩	-13.5903
큘	-13.5904
콥	-13.5905
촘	-13.5906
뺴	-13.5907
멎	-13.5908
핡	-13.5909
뵙	-13.591
꺽	-13.5911
긁	-13.5912
딪	-13.5913
릎	-13.5914
낡	-13.5915
펏	-13.5916
슌	-13.5917
씻	-13.5918
녔	-13.5919
꺅	-13.592
굵	-13.5921
뤘	-13.5922
쿼	-13.5923
셸	-13.5924
닳	-13.5925
켠	-13.5926
쥔	-13.5927
왼	-13.5928
닦	-13.5929
픕	-13.593
탤	-13.5931
딨	-13.5932
흰	-13.5933
넋	-13.5934
빚	-13.5935
꽥	-13.5936
룹	-13.5937
뀐	-13.5938
뭡	-13.5939
얽	-13.594
앓	-13.5941
썻	-13.5942
쫒	-13.5943
쨋	-13.5944
껍	-13.5945
텅	-13.5946
꽉	-13.5947
붉	-13.5948
땠	-13.5949
멤	-13.595
둠	-13.5951
홧	-13.5952
밟	-13.5953
겻	-13.5954
틋	-13.5955
뿜	-13.5956
빕	-13.5957
컸	-13.5958
뻣	-13.5959
옮	-13.596
셧	-13.5961
핸	-13.5962
맑	-13.5963
뭇	-13.5964
찢	-13.5965
켰	-13.5966
엮	-13.5967
팠	-13.5968
땀	-13.5969
쨌	-13.597
쫄	-13.5971
틸	-13.5972
펼	-13.5973
띄	-13.5974
겪	-13.5975
껐	-13.5976
왤	-13.5977
뻤	-13.5978
쏟	-13.5979
닙	-13.598
딧	-13.5981
듭	-13.5982
꿔	-13.5983
섞	-13.5984
획	-13.5985
겉	-13.5986
줍	-13.5987
쁨	-13.5988
늙	-13.5989
됩	-13.599
늦	-13.5991
볍	-13.5992
찝	-13.5993
꼈	-13.5994
묻	-13.5995
똑	-13.5996
랐	-13.5997
앞	-13.5998
깊	-13.5999
떻	-13.6
렸	-13.6001
렇	-13.6002
봤	-13.6003
슷	-13.6003
