<pad>	0
<unk>	0
<s>	0
</s>	0
▁	-3.17581
.	-3.45054
이	-4.36589
..	-4.36644
▁영화	-4.54723
...	-4.61544
의	-4.64369
도	-4.7069
가	-4.74232
는	-4.77959
을	-4.91467
에	-5.00282
은	-5.13859
다	-5.14281
고	-5.15586
지	-5.22418
?	-5.28364
한	-5.38855
를	-5.46977
만	-5.47628
▁너무	-5.51472
로	-5.57315
!	-5.60824
▁이	-5.61119
▁정말	-5.64508
게	-5.76142
나	-5.76419
영화	-5.82584
▁진짜	-5.85438
과	-5.91827
어	-5.97262
기	-6.00119
리	-6.06109
하고	-6.07639
라	-6.07955
인	-6.12348
으로	-6.12835
점	-6.17464
네	-6.19451
에서	-6.19993
▁안	-6.20162
아	-6.2044
▁그	-6.23049
▁잘	-6.25912
들	-6.2636
와	-6.31335
해	-6.34329
▁1	-6.34394
서	-6.35381
▁왜	-6.36353
▁다	-6.36482
하는	-6.37199
▁수	-6.37594
요	-6.38678
▁아	-6.39252
▁더	-6.39492
▁이런	-6.41062
!!	-6.43742
거	-6.45515
자	-6.46236
네요	-6.47013
....	-6.47093
스	-6.50047
수	-6.52563
▁그냥	-6.53341
▁본	-6.53855
면	-6.53971
대	-6.5861
▁드라마	-6.59622
음	-6.61283
시	-6.62996
▁10	-6.65039
니	-6.67017
▁보고	-6.68366
지만	-6.68525
하	-6.69059
▁연기	-6.70267
함	-6.7058
▁내	-6.70629
야	-6.71627
사	-6.72569
▁평점	-6.74133
하게	-6.7506
하다	-6.78069
이다	-6.78944
▁영화를	-6.79287
일	-6.79609
▁한	-6.79951
여	-6.80373
▁좀	-6.80634
주	-6.8331
보	-6.84359
우	-6.86708
드	-6.87027
미	-6.87641
진	-6.90447
▁못	-6.91895
정	-6.92295
▁2	-6.92299
▁ᄏᄏ	-6.92868
▁봤는데	-6.93082
데	-6.93107
▁최고	-6.93465
▁스토리	-6.93587
보다	-6.93933
임	-6.94081
안	-6.94597
▁없는	-6.94737
는데	-6.94814
▁참	-6.94992
▁쓰레기	-6.95076
성	-6.963
까지	-6.96315
▁이거	-6.9637
구	-6.96926
▁없다	-6.9726
▁최고의	-6.97289
듯	-6.97449
들이	-6.97595
▁영화가	-6.98336
할	-6.98457
▁내가	-6.9893
▁완전	-6.99128
▁영화는	-6.99282
해서	-6.99781
▁이건	-7.00313
던	-7.0087
▁개	-7.0204
▁나	-7.02172
신	-7.03174
▁있는	-7.03748
적	-7.05559
▁좋은	-7.06882
상	-7.06971
▁3	-7.07169
▁보는	-7.07336
▁것	-7.08355
냐	-7.0882
▁다시	-7.10252
치	-7.11646
▁이렇게	-7.1175
ᄏᄏ	-7.11842
려	-7.12048
▁난	-7.12087
▁보	-7.12293
건	-7.12909
▁이게	-7.13806
장	-7.15484
!!!	-7.15646
중	-7.15752
부	-7.16165
전	-7.16735
▁뭐	-7.168
보고	-7.17642
▁말	-7.18468
랑	-7.18668
원	-7.20906
트	-7.20962
히	-7.21279
마	-7.23161
세	-7.23817
분	-7.24862
▁넘	-7.26021
물	-7.26103
▁평점이	-7.26257
러	-7.26816
▁많이	-7.26918
▁저	-7.26925
▁전	-7.27074
그	-7.27092
화	-7.27172
▁재밌게	-7.27211
▁오	-7.27251
▁감동	-7.27388
ᄏ	-7.28536
질	-7.29212
▁무	-7.29239
▁지	-7.29361
개	-7.29369
비	-7.30356
인데	-7.30362
▁작품	-7.30922
▁그리고	-7.31227
▁역시	-7.32294
▁하	-7.32578
년	-7.32637
것	-7.33964
오	-7.34186
▁또	-7.35002
▁생각	-7.35664
소	-7.3601
▁주	-7.367
▁재미	-7.36728
적인	-7.37042
제	-7.37356
1	-7.37604
내	-7.37943
▁볼	-7.37997
입니다	-7.3839
때	-7.38533
▁감독	-7.38841
▁마지막	-7.39039
▁별로	-7.40276
하지	-7.40434
▁시간	-7.4086
했다	-7.40947
어요	-7.41659
▁하는	-7.42203
용	-7.42685
??	-7.43031
습니다	-7.43477
라고	-7.43745
같은	-7.44582
급	-7.4489
▁액션	-7.45226
감	-7.45457
▁꼭	-7.46282
무	-7.46285
부터	-7.46733
걸	-7.46868
▁가	-7.49743
말	-7.49904
▁이야기	-7.50153
식	-7.50568
▁ᄏᄏᄏ	-7.50691
▁지금	-7.50785
▁없고	-7.50886
▁가장	-7.50897
▁아니	-7.51107
▁기대	-7.52007
남	-7.52117
▁김	-7.52163
▁무슨	-7.52569
▁별	-7.5279
2	-7.52837
▁다른	-7.52939
씨	-7.53111
▁하나	-7.53334
줄	-7.535
▁명작	-7.54035
진짜	-7.54044
▁사	-7.54576
영	-7.54897
좀	-7.55478
군	-7.55493
작	-7.55571
란	-7.55913
울	-7.56264
▁아깝다	-7.56288
본	-7.56526
더	-7.5711
된	-7.57817
이나	-7.5786
▁한국	-7.58006
▁보면	-7.58436
편	-7.58732
▁만든	-7.58924
호	-7.59295
유	-7.59467
▁정	-7.59774
에게	-7.6
▁중	-7.6013
▁돈	-7.60248
라는	-7.60348
ᅲᅲ	-7.60947
▁미	-7.6097
드라마	-7.61361
▁느낌	-7.61766
▁어	-7.61907
▁배우	-7.62005
동	-7.62144
▁할	-7.62438
있는	-7.62462
운	-7.62503
조	-7.62508
ᄏᄏᄏ	-7.62871
▁대	-7.63033
▁유	-7.63117
없는	-7.63146
디	-7.6392
▁일	-7.64089
▁처음	-7.64351
▁연출	-7.64551
당	-7.65222
▁조	-7.65443
▁ᄏ	-7.65852
▁비	-7.67713
선	-7.67824
▁자	-7.67859
바	-7.68122
▁사랑	-7.68338
▁일본	-7.68371
▁좋아	-7.68428
너무	-7.68686
▁고	-7.68762
인지	-7.68937
▁내용	-7.69024
▁마	-7.69512
워	-7.69512
위	-7.6959
처럼	-7.70117
모	-7.70408
▁ᅲᅲ	-7.71886
프	-7.72138
▁기	-7.72298
▁말이	-7.72692
연	-7.72875
간	-7.73658
심	-7.73765
살	-7.74267
▁두	-7.74311
크	-7.7477
르	-7.74796
▁같은	-7.74865
한다	-7.75192
레	-7.75363
들의	-7.75419
린	-7.75533
▁짱	-7.76065
명	-7.76106
긴	-7.7611
▁끝까지	-7.76475
타	-7.76978
▁영화다	-7.77433
▁와	-7.77869
▁여자	-7.77871
두	-7.77992
▁거	-7.78038
으면	-7.78706
▁있다	-7.79559
정말	-7.79559
▁알	-7.7989
저	-7.80042
었다	-7.80232
▁제	-7.80247
류	-7.80421
죠	-7.80423
며	-7.80625
▁ᅳᅳ	-7.80713
래	-7.80748
▁때	-7.80765
면서	-7.81142
▁좋다	-7.8117
▁솔직히	-7.81619
희	-7.81656
길	-7.81893
▁전혀	-7.81912
했던	-7.82044
▁해	-7.8216
단	-7.82401
판	-7.83187
▁하지만	-7.83253
▁사람	-7.83293
▁뭔가	-7.83698
ᅲ	-7.83715
난	-7.83811
준	-7.84252
되는	-7.84393
지는	-7.85171
인가	-7.85571
차	-7.85765
▁같다	-7.85782
합니다	-7.85848
▁대한	-7.85994
▁봤다	-7.86268
▁신	-7.86325
▁구	-7.87593
▁아주	-7.87658
▁애	-7.88092
하지만	-7.88152
▁아니라	-7.88778
겨	-7.88969
방	-7.89299
▁ᄒᄒ	-7.89319
루	-7.89589
▁인생	-7.89873
3	-7.89966
노	-7.90188
이랑	-7.90241
들은	-7.90471
▁그런	-7.90927
ᅳᅳ	-7.91108
▁봐도	-7.91731
▁후	-7.91789
▁많은	-7.9199
번	-7.92251
이라	-7.92534
재	-7.9259
든	-7.92657
▁대박	-7.92731
연기	-7.92946
경	-7.92946
때문에	-7.92983
구나	-7.93179
하면	-7.93554
▁최악	-7.94012
▁이영화	-7.94137
▁바	-7.94143
▁모두	-7.94438
발	-7.94468
▁재밌다	-7.94707
▁4	-7.94743
▁남	-7.94776
▁한번	-7.94965
되	-7.95034
▁소	-7.95192
▁반	-7.95244
잘	-7.95364
▁어떻게	-7.95631
▁최악의	-7.95967
▁줄	-7.96072
없이	-7.9622
▁재미있게	-7.9649
버	-7.96649
▁계속	-7.96685
하나	-7.96696
민	-7.96709
▁이걸	-7.96803
▁아닌	-7.97055
▁코미디	-7.97191
까	-7.9726
생	-7.97295
▁내내	-7.9736
국	-7.97642
▁장면	-7.97852
관	-7.97986
▁부	-7.98145
엔	-7.98223
시간	-7.98355
▁내용이	-7.98528
▁나오는	-7.98557
적으로	-7.9865
▁배우들	-7.98904
▁모든	-7.99114
▁않고	-7.99223
봤는데	-7.9932
생각	-7.99356
▁우리	-8.0027
림	-8.00292
▁장	-8.00431
▁실망	-8.00562
져	-8.00756
▁반전	-8.0086
▁그래도	-8.01051
티	-8.01753
박	-8.02001
▁보기	-8.02016
▁7	-8.02023
날	-8.0213
▁되	-8.02683
▁강	-8.0272
▁모	-8.02933
▁박	-8.02935
한테	-8.02992
▁딱	-8.02994
▁남자	-8.02996
▁5	-8.03398
님	-8.03623
▁불	-8.03836
▁주인공	-8.0402
보면	-8.04108
파	-8.04234
▁시	-8.04624
피	-8.0483
망	-8.05015
하네	-8.05279
애	-8.05381
이라는	-8.05798
후	-8.05816
다가	-8.05943
▁끝	-8.06009
▁공포	-8.06083
▁이상	-8.06789
없다	-8.07031
▁이해	-8.07541
▁만들어	-8.07749
하네요	-8.07944
▁9	-8.08422
터	-8.08454
▁0	-8.08615
o	-8.08639
▁아니다	-8.08948
▁근데	-8.09038
▁하고	-8.09289
▁조금	-8.09506
▁요즘	-8.09543
▁연기가	-8.09892
▁8	-8.1016
어서	-8.10347
▁음악	-8.10499
▁재미없다	-8.10601
▁아름다운	-8.10815
▁기억	-8.10912
e	-8.11157
▁애니	-8.11458
못	-8.11561
▁제일	-8.11587
체	-8.11606
현	-8.11659
▁욕	-8.11709
겠다	-8.11812
▁만드는	-8.11895
반	-8.11945
형	-8.12056
▁속	-8.12367
▁듯	-8.12614
▁이제	-8.12682
▁스릴러	-8.12731
▁전개	-8.12732
이고	-8.13135
▁스	-8.13578
▁건	-8.13586
▁않은	-8.13685
점도	-8.13704
▁감독이	-8.14094
▁추천	-8.14216
으	-8.14217
▁절대	-8.14431
▁우	-8.14467
▁개봉	-8.14483
▁보다	-8.14533
▁굿	-8.15007
▁연기도	-8.1514
스토리	-8.15494
▁않는	-8.15644
지도	-8.15658
산	-8.15877
다니	-8.16202
▁제대로	-8.16223
즈	-8.16333
▁수준	-8.16736
▁공감	-8.16746
▁보다가	-8.16916
▁눈	-8.16992
점이	-8.17004
▁싶다	-8.17123
없	-8.17267
키	-8.1729
▁!	-8.17348
이란	-8.17394
년대	-8.17572
▁스토리가	-8.17731
▁내용도	-8.17904
공	-8.18035
ᄒᄒ	-8.18274
▁배	-8.18343
배	-8.18518
▁걸	-8.18601
▁노	-8.19217
▁나는	-8.19426
보는	-8.19501
달	-8.19615
카	-8.20079
▁아니고	-8.20468
니까	-8.20562
회	-8.2061
하기	-8.20681
▁나오	-8.20847
▁없	-8.20943
!!!!	-8.20976
▁막장	-8.21044
토	-8.21145
▁캐릭터	-8.21562
▁OO	-8.22071
▁가족	-8.22106
것도	-8.22206
들을	-8.22686
건지	-8.2307
▁정도	-8.23218
▁대사	-8.23226
▁진	-8.23278
매	-8.23309
죽	-8.23396
▁미국	-8.2351
▁남는	-8.23543
▁만들	-8.23548
했는데	-8.23699
▁특히	-8.23807
이라고	-8.24671
d	-8.24929
▁표현	-8.25001
는거	-8.25024
려고	-8.25261
▁동	-8.25731
포	-8.25838
▁아직도	-8.25977
▁울	-8.2598
▁영화라고	-8.25995
예	-8.26064
▁때문에	-8.26134
문	-8.26275
태	-8.26331
▁피	-8.26493
▁뻔한	-8.26561
▁재	-8.26655
해요	-8.2669
▁시간이	-8.26696
릴	-8.26831
▁차라리	-8.26842
5	-8.26896
▁여운이	-8.26917
▁ᅲ	-8.26976
▁세	-8.26978
실	-8.27122
는게	-8.27225
사람	-8.27314
격	-8.27402
▁재미도	-8.27734
락	-8.27786
▁나름	-8.27925
▁공	-8.27999
인듯	-8.28081
석	-8.28411
▁파	-8.28411
▁아까운	-8.28435
i	-8.28522
극	-8.28844
속	-8.28854
▁인간	-8.292
짱	-8.29542
▁결말	-8.29738
▁도대체	-8.29844
▁영화의	-8.29922
▁걍	-8.29937
▁여	-8.29948
등	-8.29968
▁원	-8.3012
▁주는	-8.30126
정도	-8.30282
배우	-8.30353
▁엄청	-8.30377
라도	-8.3058
▁나온	-8.307
▁발	-8.30808
뿐	-8.30824
▁좋았다	-8.30889
▁눈물	-8.30979
▁보면서	-8.30987
▁스토리도	-8.30993
▁서	-8.31046
▁우리나라	-8.31078
▁날	-8.31222
▁진심	-8.31293
ᄒ	-8.31297
▁영화입니다	-8.31329
▁사실	-8.3139
쳐	-8.31476
▁되는	-8.31843
▁원작	-8.31866
종	-8.3273
▁심	-8.32746
▁제목	-8.32953
따	-8.33037
▁몇	-8.33671
▁B	-8.3369
집	-8.33807
▁오랜만에	-8.33857
던데	-8.33909
▁감독의	-8.33931
▁성	-8.33996
▁최	-8.3401
▁마지막에	-8.34048
해도	-8.34061
녀	-8.3414
▁나도	-8.34433
왜	-8.34652
코	-8.34767
▁영상	-8.34999
케	-8.35099
▁공포영화	-8.35312
▁멋진	-8.35349
참	-8.3536
▁연	-8.35443
▁예	-8.35804
▁될	-8.35831
있다	-8.35841
▁차	-8.35894
점은	-8.3603
▁머	-8.36092
중에	-8.36214
▁20	-8.36219
▁이해가	-8.36357
▁ᄏᄏᄏᄏ	-8.36361
▁연기력	-8.36531
▁있	-8.3658
▁초	-8.36641
계	-8.36786
▁쓰	-8.36865
▁웃	-8.36876
장면	-8.36927
▁재밌	-8.36936
능	-8.37145
업	-8.37731
▁6	-8.37761
었는데	-8.37794
10	-8.37842
밖에	-8.38037
력	-8.38254
▁맞	-8.38264
4	-8.3872
▁좋아하는	-8.38727
▁시리즈	-8.38756
▁시나리오	-8.38947
ᄏᄏᄏᄏ	-8.39066
▁좋고	-8.3909
▁재밌어요	-8.39134
초	-8.39168
▁봤던	-8.39179
▁허	-8.39197
▁없음	-8.39252
▁봤습니다	-8.39358
▁생각이	-8.39383
불	-8.39401
▁시작	-8.39501
▁기분	-8.39616
는지	-8.40144
s	-8.40234
▁볼만	-8.40318
ᅮᅮ	-8.40419
▁수작	-8.40531
가는	-8.40547
꺼	-8.40673
움	-8.40771
▁오늘	-8.409
▁지루한	-8.41157
▁지루하고	-8.41216
???	-8.41461
만큼	-8.41632
▁가슴	-8.41812
▁긴장감	-8.41833
더라	-8.41999
통	-8.42092
▁억지	-8.42095
리는	-8.42211
▁소재	-8.42215
ᅳ	-8.423
▁싶은	-8.42849
▁재미가	-8.42925
▁망	-8.43107
▁재밌는	-8.43124
▁어떤	-8.43188
평점	-8.43291
▁뭘	-8.43301
0	-8.43324
▁배우들의	-8.43458
▁그저	-8.43743
▁지루함	-8.43891
했	-8.44001
▁뭔	-8.44135
▁들	-8.44237
▁영화에	-8.44241
봐도	-8.44334
▁살	-8.44431
▁않	-8.44442
▁함께	-8.44512
▁매	-8.44529
▁OOO	-8.44545
하며	-8.44707
▁막	-8.44898
▁영	-8.45057
넘	-8.45065
▁개인적으로	-8.45163
▁설정	-8.45553
▁노래	-8.45732
▁사람이	-8.45777
▁현실	-8.45891
역	-8.46104
금	-8.46255
최고	-8.46269
볼	-8.46329
▁보는내내	-8.46398
었던	-8.46563
▁사람들	-8.46606
▁졸작	-8.46696
▁졸	-8.46713
▁큰	-8.46752
니다	-8.46819
였다	-8.46894
악	-8.47013
을까	-8.47098
▁애니메이션	-8.47139
않	-8.47192
감독	-8.47477
승	-8.47498
하면서	-8.47748
▁강추	-8.47749
알	-8.47782
▁없이	-8.47848
탄	-8.47856
▁!!	-8.47881
▁알바	-8.47928
▁캐스팅	-8.48065
▁괜찮은	-8.48139
색	-8.48209
▁얼마나	-8.48233
8	-8.48376
설	-8.48502
▁된	-8.4851
▁한국영화	-8.48643
▁아무리	-8.48866
먹	-8.4927
l	-8.49338
▁보세요	-8.49443
a	-8.49637
했음	-8.49658
▁최고다	-8.4972
▁못한	-8.49794
주는	-8.49895
양	-8.50156
t	-8.50256
▁안되는	-8.50281
재밌	-8.50561
머	-8.50802
▁필요	-8.50859
이런	-8.51602
학	-8.51796
▁후회	-8.51841
갈	-8.51973
▁재밋	-8.5212
▁영화로	-8.52151
재미	-8.52164
그냥	-8.52355
기도	-8.52438
론	-8.52827
병	-8.52964
▁아이	-8.53
테	-8.53071
대로	-8.5312
봄	-8.53204
▁기억에	-8.53232
언	-8.53361
구만	-8.53535
강	-8.53602
▁결국	-8.53783
스트	-8.53857
▁제발	-8.53867
▁물	-8.54413
절	-8.54796
▁매우	-8.55148
▁만화	-8.55169
▁선	-8.55573
▁매력	-8.55601
▁평	-8.55686
▁잠	-8.55768
담	-8.55836
뭐	-8.55914
▁아무	-8.55915
▁더빙	-8.55938
름	-8.56047
짐	-8.56228
▁연기는	-8.56274
▁느낌이	-8.56285
▁그렇게	-8.56404
▁전쟁	-8.56624
돌	-8.56831
른	-8.5685
행	-8.56851
▁총	-8.57066
너	-8.57522
잇	-8.57564
돈	-8.57639
기에	-8.57931
▁웃음	-8.57997
작품	-8.58104
▁베	-8.58173
▁지루하다	-8.58293
이지만	-8.58463
투	-8.5874
글	-8.59235
▁명	-8.59327
난다	-8.59538
법	-8.59786
기는	-8.59881
▁ᄒ	-8.59918
▁예술	-8.59924
▁코믹	-8.59949
▁토	-8.60064
▁분위기	-8.60166
하는데	-8.60371
▁작가	-8.60471
▁같이	-8.60485
7	-8.60566
버린	-8.60575
사랑	-8.60631
▁모르겠다	-8.60822
교	-8.6085
▁행복	-8.60856
다고	-8.60891
잼	-8.61014
내용	-8.61022
잡	-8.61083
이야	-8.61102
보단	-8.61331
▁극장에서	-8.61353
할수	-8.61392
▁위	-8.61497
▁봤어요	-8.61515
▁들어	-8.6161
▁화	-8.61665
리고	-8.61711
▁것이	-8.618
▁정신	-8.62057
▁보지	-8.62114
▁하나도	-8.62195
쓰	-8.62388
▁있고	-8.62484
▁죽	-8.62564
블	-8.62588
▁길	-8.62746
증	-8.62984
▁웃기	-8.63098
▁마음이	-8.63101
▁별점	-8.63192
▁상	-8.63243
▁애들	-8.63261
레이	-8.63312
▁문제	-8.63408
▁중국	-8.63422
▁너	-8.63697
▁너무나	-8.63767
맨	-8.63807
이네요	-8.6383
점을	-8.63876
▁약	-8.63889
된다	-8.63929
▁준	-8.6399
▁않는다	-8.64182
▁봐야	-8.642
▁위한	-8.64213
▁위해	-8.64257
▁보게	-8.64307
이었다	-8.64318
군요	-8.64395
련	-8.64414
봐	-8.64473
슨	-8.64519
▁한다	-8.64594
▁열	-8.64864
▁알고	-8.65235
플	-8.6537
▁스릴	-8.65431
▁잼	-8.65535
해라	-8.65619
아니	-8.65717
▁존	-8.65765
▁당	-8.66056
▁실	-8.6617
▁몰입도	-8.66326
치고	-8.66433
▁간	-8.66459
▁엔딩	-8.66463
▁없어	-8.66576
천	-8.66594
이네	-8.66605
▁단	-8.6681
▁주연	-8.66841
▁좋아요	-8.66866
평	-8.66885
뻔	-8.66885
▁호	-8.67079
▁존나	-8.6713
온	-8.67194
▁타	-8.67267
았	-8.67397
▁경	-8.67422
ᅮ	-8.67642
느낌	-8.67706
입	-8.67712
▁손	-8.67721
▁자기	-8.67754
창	-8.67846
▁적	-8.67996
▁인	-8.68042
▁로맨스	-8.68378
▁글	-8.6842
직	-8.68435
별	-8.68444
▁누가	-8.68658
▁걸작	-8.68832
있	-8.68883
싶	-8.69104
▁치	-8.69182
해야	-8.69198
보니	-8.69235
▁대체	-8.69272
씬	-8.69294
▁추	-8.69299
▁내용은	-8.6936
▁악	-8.69365
▁미친	-8.69417
이상	-8.69903
▁얼굴	-8.69941
▁입	-8.69958
소리	-8.70071
▁똥	-8.70072
엇	-8.70088
▁눈물이	-8.70362
▁있을	-8.7039
▁그만	-8.70477
▁높	-8.70481
근	-8.70578
▁잡	-8.70593
인줄	-8.70622
▁훨씬	-8.70693
▁모습	-8.70846
였	-8.70878
영화는	-8.7089
▁변	-8.71061
▁ᅮᅮ	-8.71063
▁그나마	-8.71112
▁여주인공	-8.71139
좋아	-8.71174
▁CG	-8.71269
▁극	-8.71277
감동	-8.71606
▁외	-8.71631
라서	-8.71759
듯한	-8.71796
순	-8.71811
g	-8.71911
▁편	-8.72119
표	-8.72168
어야	-8.72415
놓고	-8.72452
▁많	-8.72457
▁갈수록	-8.72756
▁가슴이	-8.72865
나요	-8.72887
건가	-8.72904
권	-8.73029
라면	-8.73036
▁감동이	-8.73294
났	-8.733
었음	-8.73382
짓	-8.73513
▁결말이	-8.73674
점대	-8.7369
액션	-8.73801
범	-8.73823
▁먹	-8.74021
▁꽤	-8.7407
기를	-8.74072
▁이딴	-8.74203
거지	-8.7425
였음	-8.74265
▁재밌음	-8.74451
▁발연기	-8.74484
▁마음	-8.74579
▁밖에	-8.74658
될	-8.74667
▁그래서	-8.74688
놓	-8.74708
▁ᅳ	-8.74728
수준	-8.74745
▁없었다	-8.74774
▁유치	-8.74777
▁구성	-8.74878
칠	-8.74884
▁어느	-8.74912
백	-8.74921
▁백	-8.75
▁기억이	-8.75023
▁엄마	-8.75048
▁영화네요	-8.75094
나는	-8.75291
만한	-8.75349
h	-8.75522
치는	-8.75947
수가	-8.76014
▁안되	-8.76074
짜	-8.76205
에도	-8.76427
독	-8.76665
환	-8.76688
▁집중	-8.76914
이라도	-8.76929
▁어설픈	-8.76949
았다	-8.77044
나오는	-8.77252
▁재밌고	-8.77314
열	-8.77439
▁연기를	-8.77488
▁보여주는	-8.77661
거야	-8.77749
▁다큐	-8.77869
적이	-8.78064
▁따라	-8.78105
▁자체	-8.7827
쓰레기	-8.78549
결	-8.78586
▁같	-8.78634
막	-8.78699
쉬	-8.78732
션	-8.79308
베	-8.79312
▁허접	-8.79515
▁않다	-8.79553
▁딸	-8.79568
년이	-8.79923
▁장난	-8.79952
▁있었	-8.80028
새	-8.80087
있고	-8.80165
다는	-8.80203
▁노잼	-8.80347
▁얘기	-8.8043
6	-8.80431
할때	-8.80576
▁다들	-8.80581
▁메	-8.80582
했지만	-8.80592
▁그러	-8.80599
그리고	-8.8064
▁음	-8.8082
셨	-8.8083
▁간만에	-8.81054
▁30	-8.81121
▁감동도	-8.81144
▁힘들	-8.81232
됨	-8.81254
▁뿐	-8.81284
▁시즌	-8.81313
▁찾아	-8.81421
▁영화중	-8.81425
▁포	-8.81625
▁아쉽다	-8.81633
▁성룡	-8.81767
▁주고	-8.819
▁잔잔한	-8.82043
▁출연	-8.82198
겠지	-8.82202
었어요	-8.82248
▁쓰레기영화	-8.82308
▁평가	-8.82388
김	-8.82466
▁관	-8.82471
▁버	-8.82477
각	-8.8254
▁100	-8.82555
▁카	-8.82737
▁멋있	-8.82741
▁상황	-8.82761
▁영화관에서	-8.82805
슬	-8.82882
▁존재	-8.83179
▁사람들이	-8.83255
▁지루	-8.83379
침	-8.83394
튼	-8.83639
약	-8.83678
완	-8.83754
▁감	-8.84042
▁나이	-8.84065
땜에	-8.84287
라니	-8.84319
없고	-8.84551
▁당시	-8.84841
척	-8.8493
친	-8.85007
▁찾	-8.85039
▁의미	-8.85108
▁볼만한	-8.85201
끼	-8.85409
겠	-8.85423
▁맘에	-8.8547
부분	-8.85535
▁힘	-8.85558
▁재미없음	-8.85703
▁좋은데	-8.85705
▁바로	-8.85809
여자	-8.85855
▁진정한	-8.85897
▁데	-8.85944
린다	-8.85958
▁영화였다	-8.86055
는건	-8.86066
▁전부	-8.86161
▁관객	-8.86194
이건	-8.86525
▁코	-8.86772
▁잼있	-8.86911
▁재미없	-8.86954
▁감동적인	-8.87028
웃	-8.8718
▁있을까	-8.87278
▁같아요	-8.87339
▁것을	-8.87471
찍	-8.87506
▁아님	-8.87584
존	-8.87921
▁배경	-8.87921
▁약간	-8.87926
▁암	-8.87929
이지	-8.87953
▁오래	-8.87953
▁친구	-8.87957
▁대해	-8.8799
▁생각보다	-8.88018
▁재미있다	-8.88039
출	-8.88097
외	-8.88192
▁재미있는	-8.88461
▁생각을	-8.88502
▁갈	-8.88532
▁상당히	-8.88548
영화를	-8.8855
▁생	-8.88562
주의	-8.8862
▁영상미	-8.88735
느	-8.88986
목	-8.89121
▁네이버	-8.89192
▁올	-8.89202
께	-8.89346
재미있	-8.89396
혀	-8.8957
▁다음	-8.89678
놈	-8.89953
▁그대로	-8.90046
▁점수	-8.90178
브	-8.90317
기만	-8.90319
▁여기	-8.90496
▁첨	-8.90545
▁찍	-8.90613
▁것도	-8.90622
것이	-8.90798
▁나올	-8.90925
▁감성	-8.91145
▁같은데	-8.91255
▁살아	-8.91317
▁스토리는	-8.91342
▁준다	-8.91429
퍼	-8.91532
▁중간에	-8.91779
▁각본	-8.91854
▁판타지	-8.91868
구요	-8.91876
r	-8.91895
▁높은	-8.91971
▁90	-8.92027
▁영화라	-8.92034
었	-8.9207
같이	-8.92074
빠	-8.92166
으나	-8.92188
▁소리	-8.92275
낸	-8.92334
메	-8.92427
▁흥미	-8.92467
없음	-8.92578
료	-8.92642
편이	-8.92654
▁야	-8.9282
▁배우들이	-8.92851
▁천	-8.92863
월	-8.92884
▁거의	-8.92897
이야기	-8.92933
▁충격	-8.93062
지않	-8.93143
▁감동을	-8.93215
또	-8.93282
덕	-8.93402
▁재미는	-8.93433
좋	-8.93469
▁재미없는	-8.93532
채	-8.93611
들어	-8.93849
아서	-8.93855
에선	-8.93865
9	-8.93929
거리	-8.94199
▁않았	-8.94219
향	-8.94238
▁정도로	-8.94261
▁뭐야	-8.94263
▁나와서	-8.94364
▁줄거리	-8.94414
완전	-8.94453
▁혼자	-8.94465
이거	-8.94506
▁b	-8.94575
더니	-8.94612
처	-8.94923
▁꿈	-8.9507
▁종	-8.95271
▁나왔	-8.95275
시대	-8.95335
왕	-8.95479
빈	-8.95487
숙	-8.9552
▁있지만	-8.9563
▁부족	-8.95713
졌	-8.9576
▁주제	-8.95778
▁등	-8.95781
복	-8.95904
▁이영화를	-8.95924
▁담	-8.95945
▁했는데	-8.96031
▁멜로	-8.96078
▁봤지만	-8.96151
영화가	-8.96313
분들	-8.96563
▁장르	-8.96764
조차	-8.96814
▁순	-8.96815
▁레	-8.96883
▁영화인데	-8.97008
▁이름	-8.97096
혜	-8.97103
▁추억	-8.97111
을때	-8.9727
진다	-8.97282
▁재미있	-8.97367
▁왕	-8.97705
▁팬	-8.97722
들에게	-8.97752
눈	-8.97768
나오	-8.9781
들도	-8.97875
했습니다	-8.98031
편은	-8.98136
▁뭐지	-8.98161
곡	-8.98212
▁예상	-8.98301
스러운	-8.98307
▁분	-8.98345
▁언제	-8.98426
햇	-8.98432
▁된다	-8.98445
▁감정	-8.98453
▁윤	-8.98487
보기	-8.98525
▁봐	-8.98527
c	-8.98575
쪽	-8.98711
▁좋	-8.98744
▁제작	-8.98778
▁굉장히	-8.98956
k	-8.98991
▁봐서	-8.99163
커	-8.99183
▁갑자기	-8.993
▁아버지	-8.99313
록	-8.99358
예요	-8.99458
재밋	-8.99515
▁훌륭한	-8.99768
▁재밌네요	-9.00066
▁낮은	-9.00135
▁어디서	-9.00187
다면	-9.00282
▁장면이	-9.00304
▁제가	-9.0048
건데	-9.00499
▁몰입	-9.00552
▁비교	-9.00628
정도로	-9.00663
▁드	-9.00696
▁극장판	-9.00702
▁끝나	-9.00716
▁통	-9.00913
되어	-9.01013
합	-9.01056
▁저런	-9.01087
지루	-9.01095
▁초딩	-9.01099
▁보니	-9.01128
청	-9.012
▁숨	-9.01273
▁머리	-9.0132
▁삼	-9.01327
▁새로운	-9.01352
▁양	-9.01427
해지는	-9.01496
충	-9.01586
▁어디	-9.01619
▁아이들	-9.01629
ᄋ	-9.01654
▁역사	-9.01698
하여	-9.01767
▁몸	-9.01973
▁원작을	-9.0216
▁영화임	-9.02174
기대	-9.02246
▁크	-9.02331
▁있어서	-9.02386
▁감독님	-9.02517
▁화면	-9.026
▁방송	-9.02763
▁터	-9.02822
▁여배우	-9.02826
이라면	-9.02845
견	-9.02931
▁아직	-9.02935
쯤	-9.0298
▁포스터	-9.03006
한거	-9.03019
맞	-9.03129
▁사회	-9.03359
남자	-9.03394
했어요	-9.03417
▁역	-9.03442
b	-9.03472
다시	-9.03523
▁비해	-9.03524
잖아	-9.03545
▁성우	-9.03598
보다는	-9.03638
습	-9.03663
봐서	-9.03664
▁부분	-9.03726
▁어색	-9.03972
▁그리	-9.04
익	-9.04036
에는	-9.04042
▁뭐냐	-9.04043
▁질	-9.04047
▁연출력	-9.04167
틀	-9.04291
혹	-9.04343
▁마음에	-9.04378
▁평점을	-9.046
▁생각하게	-9.0469
▁재미있어요	-9.04711
▁항상	-9.04725
욕	-9.04737
광	-9.04798
성이	-9.04834
▁현	-9.04875
▁의도	-9.05005
슴	-9.05054
▁흥행	-9.05083
▁보여주	-9.05206
▁그러나	-9.05296
훈	-9.05377
▁주인공이	-9.05557
▁대단	-9.05836
놈들	-9.06006
▁실화	-9.06055
▁봤음	-9.06109
▁되어	-9.06255
▁일단	-9.06292
것같다	-9.06396
▁대단한	-9.06443
간다	-9.06732
땐	-9.0681
▁빨리	-9.06841
▁달	-9.06847
귀	-9.06866
▁교훈	-9.07145
▁개연성	-9.07214
▁있어	-9.07321
▁좋은영화	-9.07353
▁번	-9.07374
▁그런지	-9.07417
y	-9.07445
▁비디오	-9.0762
철	-9.07634
▁떠	-9.07634
여서	-9.07687
길래	-9.07731
▁못하는	-9.07791
츠	-9.07868
앗	-9.08005
족	-9.08154
▁자체가	-9.0816
듬	-9.08161
▁누구	-9.08198
▁하지	-9.08238
했고	-9.08337
▁봐라	-9.08371
좋은	-9.08582
▁처음부터	-9.08827
▁충분히	-9.08961
나라	-9.09012
되고	-9.0905
▁TV	-9.09106
스럽다	-9.09194
D	-9.09201
▁첫	-9.09211
▁저는	-9.09231
▁맛	-9.09244
▁가지고	-9.09291
▁산	-9.09452
▁뭐가	-9.09555
립	-9.09579
뜨	-9.09583
▁80	-9.09614
거다	-9.09615
념	-9.09653
으니	-9.09693
▁패	-9.09736
써	-9.09785
▁어린	-9.09823
▁옛날	-9.09829
년전	-9.09843
같다	-9.09936
▁말도	-9.10015
▁이런영화	-9.1006
추	-9.10117
▁세계	-9.10203
▁짜증	-9.10205
했으면	-9.10358
▁궁금	-9.10435
▁만들었	-9.10459
▁책	-9.10527
▁없어서	-9.10542
변	-9.10634
별로	-9.1065
▁있는데	-9.10791
하냐	-9.10801
였는데	-9.10916
▁여주	-9.10936
▁꿀잼	-9.11067
▁점점	-9.1128
▁순간	-9.11353
찬	-9.11493
▁댓글	-9.11496
답	-9.11529
▁너무너무	-9.11535
▁사람은	-9.11552
적이고	-9.11628
하니	-9.11692
도록	-9.11767
▁봄	-9.11775
▁s	-9.11829
올	-9.11843
품	-9.11849
▁헐	-9.11873
▁작	-9.11902
▁써	-9.11906
▁생각해	-9.1192
거나	-9.12118
▁싶	-9.12126
▁만점	-9.12175
근데	-9.12378
허	-9.12436
▁뻔	-9.12468
시리즈	-9.12615
▁시대	-9.12636
▁있었다	-9.12655
▁삼류	-9.12681
전개	-9.12717
▁아까움	-9.12776
같	-9.12786
▁잘못	-9.12873
겠지만	-9.13035
▁나와	-9.13058
리가	-9.13163
▁안된다	-9.13174
▁말고	-9.13253
쿠	-9.13345
▁뒤	-9.13415
겟	-9.13441
엘	-9.1372
▁나의	-9.1382
▁이유	-9.13888
짝	-9.14012
팬	-9.14024
▁설	-9.14075
▁했다	-9.14445
탈	-9.14452
▁더욱	-9.14532
▁편집	-9.1454
▁돌	-9.14611
처음	-9.1472
OO	-9.14833
▁목	-9.1484
▁볼수	-9.14904
▁좋네요	-9.14912
▁느	-9.14948
벌	-9.14989
졌다	-9.15059
버리	-9.1513
나서	-9.15136
▁먹먹	-9.15272
일까	-9.15402
도없고	-9.15429
▁과거	-9.15431
▁짜	-9.15492
▁문	-9.15592
▁요	-9.15718
라이	-9.15811
▁나온다	-9.15888
▁훌륭	-9.15905
▁좋겠다	-9.15911
사람들	-9.15955
▁한마디로	-9.15958
▁꼬	-9.16017
▁불륜	-9.1602
멋	-9.16072
함을	-9.16183
▁쳐	-9.16218
▁감동적이	-9.16236
▁무조건	-9.16394
▁그닥	-9.16531
본다	-9.16586
▁유치한	-9.1667
▁참고	-9.16683
▁시절	-9.1673
왔	-9.16772
▁도저히	-9.16781
▁돌아	-9.16859
아닌	-9.16878
▁선택	-9.16999
▁흥미진진	-9.17088
껏	-9.1717
세요	-9.17212
런	-9.17217
▁두번	-9.17391
▁노력	-9.1742
▁방	-9.175
이라니	-9.17554
▁진행	-9.17653
▁어릴때	-9.17707
끝	-9.17714
▁다시봐도	-9.17735
롭	-9.17747
기가	-9.17763
▁하다	-9.17866
▁망작	-9.17878
▁아쉬운	-9.17953
▁엄청난	-9.18076
▁예전에	-9.18104
▁전개가	-9.18138
많	-9.18189
윤	-9.18225
▁슬픈	-9.18308
▁소설	-9.18317
▁영화도	-9.18327
거냐	-9.18476
▁이영화는	-9.18493
술	-9.18508
▁것은	-9.18576
▁놀	-9.18726
▁광	-9.18735
▁지나	-9.18791
▁물론	-9.18807
▁원래	-9.18854
▁아닌가	-9.18955
▁ᄍᄍ	-9.19105
규	-9.19138
▁깨	-9.19265
▁지금까지	-9.1927
▁리	-9.19289
▁그때	-9.19357
하시	-9.19489
▁끝내	-9.19534
염	-9.19537
▁인물	-9.19661
▁없었	-9.19759
▁낫다	-9.19817
럽	-9.19973
u	-9.19986
하는게	-9.20007
마지막	-9.2006
▁따뜻한	-9.2012
▁죽음	-9.20186
▁지루해	-9.20602
▁느끼	-9.20623
얼	-9.20655
최악	-9.20718
▁만족	-9.20736
▁감독은	-9.20776
▁재밌는데	-9.20784
▁이미	-9.2087
잔	-9.20922
▁돈주고	-9.20923
▁재밌었다	-9.20961
▁아빠	-9.20996
▁복수	-9.21093
▁보는데	-9.21132
▁당신	-9.2114
만든	-9.21303
▁후반부	-9.21346
▁결혼	-9.21484
▁이번	-9.2149
▁모르고	-9.21495
걸까	-9.21565
▁봤네요	-9.21612
▁투	-9.21688
마다	-9.21714
하던	-9.2176
배우들	-9.21821
▁쓴	-9.2184
아이	-9.21884
한데	-9.2195
▁괜찮	-9.22019
▁따	-9.22074
함이	-9.22077
▁게	-9.22121
▁사랑을	-9.22164
먼	-9.22176
▁이것도	-9.22279
어도	-9.22317
주세요	-9.22424
▁살인	-9.22463
효	-9.2248
▁귀신	-9.22552
씩	-9.22685
▁괴	-9.22703
▁없네	-9.22752
▁흠	-9.22837
▁설명	-9.22932
▁M	-9.22964
이냐	-9.22981
▁낮	-9.22998
▁사람들은	-9.23047
▁태	-9.23147
▁분명	-9.23268
보는데	-9.23313
▁싸	-9.23327
▁없을	-9.23355
을듯	-9.23373
▁그래픽	-9.23465
▁초반	-9.2366
▁이어	-9.23661
▁자꾸	-9.23696
가서	-9.23734
▁감상	-9.23796
대박	-9.23833
▁읽	-9.23975
▁힘든	-9.23978
링	-9.24027
▁바라	-9.24073
▁완벽한	-9.2426
▁모르는	-9.24321
▁까	-9.24345
▁해도	-9.24435
▁괜히	-9.24447
▁안보	-9.24565
▁해서	-9.24578
딱	-9.24584
지금	-9.24614
▁있음	-9.24637
고싶다	-9.24652
▁아쉽	-9.24659
주인공	-9.24805
▁휴	-9.24839
려서	-9.2486
▁전형적인	-9.2489
▁저질	-9.2495
▁계	-9.24962
▁바보	-9.25044
웠	-9.25057
▁그게	-9.25062
봐라	-9.25073
는것	-9.25177
하는거	-9.252
▁만나	-9.25201
▁미화	-9.25255
▁더럽게	-9.25349
▁감사	-9.25473
▁라는	-9.25504
년도	-9.25552
성을	-9.25583
였습니다	-9.25584
▁오히려	-9.25731
▁부족한	-9.2575
▁어쩌	-9.25826
▁교	-9.25828
▁느낄	-9.25919
▁허무	-9.25982
▁상상	-9.26032
▁늘	-9.26097
▁예고편	-9.26144
▁가는	-9.26206
▁합니다	-9.26305
▁작품이	-9.26327
▁영화보다	-9.26336
▁여성	-9.26336
▁온	-9.26359
들과	-9.26383
▁무서운	-9.26448
킹	-9.26565
▁SF	-9.26567
▁목소리	-9.26986
▁이정도	-9.27027
▁병맛	-9.27031
▁나쁜	-9.27044
▁뭔지	-9.27143
이에요	-9.27157
시켜	-9.27164
야지	-9.27274
▁웃긴	-9.27409
보다가	-9.27423
▁억지로	-9.27455
▁평점은	-9.27582
▁완성도	-9.27628
풍	-9.27671
▁느끼게	-9.27766
년에	-9.27774
▁황	-9.27793
▁아들	-9.27832
▁인간의	-9.27866
▁연출이	-9.27913
▁없네요	-9.2799
▁있다는	-9.28039
는걸	-9.28043
▁알았다	-9.28094
책	-9.28107
실망	-9.28237
내가	-9.28286
▁일본영화	-9.2829
▁귀	-9.28327
▁프랑스	-9.28333
▁대한민국	-9.28581
꼬	-9.28632
▁인정	-9.28637
▁우연히	-9.28755
▁어이없	-9.28759
▁현재	-9.28781
▁나라	-9.28789
▁믿고	-9.28869
▁알게	-9.28899
▁벗	-9.28934
패	-9.29006
▁반전이	-9.29026
명작	-9.2905
▁으	-9.29069
됬	-9.29071
▁집	-9.29075
x	-9.29168
하세요	-9.2921
▁했	-9.2925
▁진실	-9.29253
▁좀비	-9.2939
▁스타일	-9.29447
▁재밌어	-9.29572
▁금	-9.29639
지고	-9.29712
점짜리	-9.29727
▁평점에	-9.29733
▁몰	-9.29734
▁ᄒᄒᄒ	-9.29817
징	-9.30013
▁이리	-9.30036
▁신기	-9.30044
▁개그	-9.30057
▁만들지	-9.30209
필	-9.30298
십	-9.30406
▁이야기를	-9.30416
▁이상한	-9.30491
곤	-9.30523
▁아무것도	-9.30541
▁기대하고	-9.30543
한영화	-9.30554
▁흐	-9.30555
▁비슷한	-9.30688
▁믿	-9.30757
만으로도	-9.30911
▁세상	-9.30935
▁좋았어요	-9.30994
▁돈이	-9.31028
억	-9.31211
갑	-9.31286
▁화이팅	-9.31316
맛	-9.31323
▁상영	-9.31361
▁ost	-9.31363
▁앞으로	-9.31382
놓은	-9.31388
삼	-9.31416
많이	-9.31478
n	-9.31491
▁유머	-9.31505
m	-9.3178
엉	-9.31835
▁재미없어	-9.31916
에요	-9.31926
▁작품성	-9.31928
속에	-9.31934
했을	-9.31955
▁대작	-9.31983
▁지루하지	-9.32013
모르	-9.32021
▁바람	-9.32069
▁요소	-9.32113
겁	-9.32141
드는	-9.32158
▁액션도	-9.32178
▁민	-9.32189
영화다	-9.32271
슈	-9.32292
▁메세지	-9.32296
▁청춘	-9.32299
▁됐	-9.32543
굿	-9.32619
휴	-9.32679
로서	-9.32703
인거	-9.32711
f	-9.32711
하긴	-9.32796
▁재미있고	-9.32805
▁서로	-9.32821
▁수준이	-9.32974
봐야	-9.33135
▁이후	-9.33234
▁배우가	-9.33264
▁좋음	-9.33308
▁티비	-9.3332
▁티	-9.33418
▁형	-9.33436
▁처음으로	-9.33483
자가	-9.33513
더군요	-9.33847
▁코메디	-9.3387
▁특유의	-9.33978
▁슬프	-9.33981
▁질질	-9.34033
▁천재	-9.34053
▁전작	-9.34063
▁여운	-9.34091
렌	-9.34124
힌	-9.34124
▁이런거	-9.34129
그런	-9.34144
싸	-9.34146
좋다	-9.34209
▁관계	-9.34301
▁성장	-9.34327
▁중간	-9.3434
시절	-9.34356
으면서	-9.34361
▁않을	-9.34369
▁절	-9.34483
전에	-9.34488
▁독	-9.34549
에겐	-9.34695
▁알았는데	-9.34703
▁대단하다	-9.34709
났다	-9.34736
▁새	-9.3475
준다	-9.34805
▁아이들이	-9.34912
▁처	-9.34972
E	-9.35052
▁니	-9.35121
▁이러	-9.35176
노잼	-9.35179
▁지금도	-9.35197
▁불편	-9.35226
▁키	-9.35328
줘	-9.35331
▁가치	-9.35515
결말	-9.35546
▁듯한	-9.35547
▁받	-9.35634
손	-9.3566
한번	-9.35747
말이	-9.35749
픈	-9.35805
▁그래	-9.35807
▁마무리	-9.35882
▁리메이크	-9.35989
▁이것	-9.36061
▁어렸을때	-9.36136
▁졸라	-9.36142
으며	-9.36255
였던	-9.36297
▁시청률	-9.36298
▁것이다	-9.36313
▁이런걸	-9.36326
마저	-9.36481
누	-9.36487
▁실제	-9.36516
▁급	-9.36554
▁재미없고	-9.36592
▁완벽	-9.36618
▁돋	-9.36759
▁끌	-9.36761
▁유치하고	-9.36896
싱	-9.36933
................	-9.36947
▁보여	-9.3697
▁지난	-9.37026
▁액션영화	-9.37081
아깝다	-9.37104
▁모습이	-9.37106
▁우울	-9.37138
려는	-9.37145
▁남주	-9.37151
▁왜이리	-9.37157
▁C	-9.37427
▁수가	-9.37467
▁등장	-9.37536
했어	-9.3767
▁킬링타임용	-9.3771
시고	-9.3775
▁둘	-9.37844
▁안나오	-9.37851
▁디	-9.37875
▁받아	-9.37896
▁않았다	-9.37993
이면	-9.38053
w	-9.3814
끔	-9.38276
사람이	-9.38278
▁tv	-9.38443
▁속편	-9.38505
▁만들었다	-9.38566
▁인상	-9.38595
인이	-9.3867
▁확	-9.38672
이게	-9.3873
▁빠져	-9.3876
재미없	-9.38789
것이다	-9.38819
▁낚	-9.38852
▁화려한	-9.38854
해주는	-9.38859
리스	-9.3891
▁정치	-9.38949
낮	-9.38993
을텐데	-9.39139
▁삶	-9.39147
▁프로	-9.39286
▁귀여운	-9.39355
▁관심	-9.39422
감이	-9.39426
▁노출	-9.39559
▁비추	-9.39632
▁않음	-9.39713
▁병	-9.39726
춘	-9.39815
▁누	-9.3989
▁사랑이	-9.39916
있는데	-9.4007
한다는	-9.40091
▁갑	-9.40113
받	-9.40127
▁자유	-9.40147
▁진부한	-9.40149
그래도	-9.40194
▁또한	-9.40197
▁맞는	-9.40292
인간	-9.403
벨	-9.40316
▁겁나	-9.40341
오는	-9.40358
▁장면은	-9.40369
돼	-9.40457
▁왠지	-9.40648
▁아니지만	-9.40686
▁관람	-9.40723
▁저도	-9.40767
앙	-9.40782
▁얼	-9.40798
▁그렇고	-9.40809
▁리얼	-9.40834
ᅲᅲᅲ	-9.40849
에서는	-9.41018
했는지	-9.41093
▁명작이다	-9.41122
▁알았	-9.41179
뒤	-9.41192
방송	-9.41192
탕	-9.41276
됐	-9.41428
보면서	-9.41477
▁알아	-9.41638
▁밀	-9.41654
ᄌ	-9.41801
▁아닐까	-9.41808
▁게임	-9.4183
▁어찌	-9.41851
점준다	-9.4198
▁트	-9.42058
▁나만	-9.42084
▁맥	-9.42135
봣	-9.42188
었지만	-9.42192
엿	-9.42232
들고	-9.42288
네여	-9.42298
땅	-9.42301
▁최악이다	-9.42338
▁경찰	-9.42415
▁그녀	-9.42515
▁골	-9.42526
있게	-9.4269
▁사건	-9.42713
량	-9.42775
셔	-9.42787
버렸다	-9.42798
▁시간낭비	-9.42829
▁행동	-9.42841
추천	-9.42859
▁좋았습니다	-9.42863
▁군대	-9.42882
▁근	-9.42959
▁미래	-9.43078
▁사이	-9.43131
면서도	-9.4317
▁똑같	-9.43225
▁그런데	-9.43248
모습	-9.43291
▁떠나	-9.43292
▁좋았고	-9.43311
▁전체적으로	-9.43332
▁먼저	-9.43344
▁복	-9.43347
▁신선	-9.43401
무슨	-9.43404
▁심리	-9.43464
▁극장	-9.43558
▁성인	-9.43705
▁짜증나	-9.43742
지않는	-9.43759
랄	-9.43787
▁마치	-9.43804
르는	-9.43814
▁답답	-9.43845
▁내인생	-9.43899
없어	-9.43911
▁성공	-9.43915
봉	-9.43981
▁본다	-9.44024
하자	-9.44037
▁주인공들	-9.44061
든다	-9.44155
분이	-9.44177
괴	-9.44249
육	-9.44298
▁보여준	-9.44431
▁황당	-9.44444
▁전달	-9.44581
▁별루	-9.44584
지않은	-9.44623
황	-9.44692
시는	-9.4475
▁지루하	-9.44781
들아	-9.44795
▁무엇보다	-9.4484
되지	-9.44851
암	-9.4486
▁같습니다	-9.44959
알바	-9.44996
▁삶을	-9.45116
것은	-9.45132
▁생각한다	-9.45181
인의	-9.45182
▁허접한	-9.45355
▁눈이	-9.45366
▁보이는	-9.45393
것을	-9.45443
▁상상력	-9.45499
▁범죄	-9.4561
▁영화였습니다	-9.45634
역시	-9.45694
▁보고나서	-9.45722
▁모르겠	-9.45776
▁대충	-9.45789
▁스토리에	-9.45872
▁멀	-9.45886
아깝	-9.45963
팔	-9.45978
▁지금봐도	-9.46027
▁싫	-9.46051
령	-9.46208
▁한계	-9.46266
와서	-9.46353
널	-9.46388
뻐	-9.46393
▁깊이	-9.46394
▁재밌었어요	-9.4649
풀	-9.46494
▁너무나도	-9.46524
버리고	-9.4654
▁이젠	-9.46609
지마	-9.46632
시키	-9.46701
▁보고싶	-9.46925
영환	-9.46939
▁권	-9.46991
스런	-9.47122
랬	-9.47233
▁일상	-9.47235
있네	-9.4725
▁소재는	-9.47252
줘야	-9.47264
자들	-9.47265
팅	-9.47437
▁로맨틱	-9.47437
▁밑에	-9.47499
응	-9.47555
최	-9.47583
▁심심	-9.47592
▁한편	-9.476
좋았	-9.47601
▁아까워	-9.47737
▁하면	-9.47805
▁느껴	-9.47813
▁자신의	-9.47881
갔다	-9.47934
깔	-9.4796
▁깊은	-9.47973
밀	-9.48093
p	-9.48094
일이	-9.48119
▁엉성	-9.48131
▁카메라	-9.48133
▁드라마를	-9.48209
스타	-9.48241
반전	-9.4831
▁못하고	-9.48367
시간이	-9.48443
▁확실히	-9.48506
거같다	-9.48508
이렇게	-9.48517
▁A	-9.48608
었으면	-9.48611
겠네	-9.48778
▁촬영	-9.48802
▁잘봤습니다	-9.48848
▁아오	-9.48884
한건	-9.48892
▁어이없는	-9.49032
떡	-9.4904
ᄆ	-9.4904
▁범인	-9.49075
▁명작이	-9.49099
▁다소	-9.491
▁통해	-9.49116
▁연애	-9.49147
▁싫어	-9.49205
음악	-9.4921
▁평론가	-9.49251
▁중에	-9.4926
▁잘만든	-9.49305
▁어색한	-9.49425
▁용	-9.49458
센	-9.49566
홀	-9.49577
▁마음을	-9.49718
▁!!!	-9.4974
▁영화중에	-9.498
▁독립영화	-9.50008
득	-9.50012
걸로	-9.50055
▁자신	-9.50207
▁좋았는데	-9.50218
▁여자가	-9.50226
▁영웅	-9.50438
애니	-9.50439
▁같네요	-9.50451
▁있었던	-9.50581
나온다	-9.5066
페	-9.50716
있어	-9.50753
드리	-9.50768
▁감사합니다	-9.50782
연출	-9.50795
▁좋았음	-9.50798
▁창	-9.50829
▁매력적인	-9.50848
▁액션이	-9.50908
▁영화에서	-9.50913
▁....	-9.51025
▁몰랐	-9.51041
▁그런가	-9.51058
▁15	-9.51078
던가	-9.51137
었습니다	-9.51164
뿌	-9.51208
▁이야기가	-9.51221
▁모습을	-9.51228
거임	-9.51256
▁세상에	-9.51323
▁제작비	-9.51324
▁눈을	-9.51336
수록	-9.51349
▁이영화가	-9.51361
▁답	-9.51371
▁왜이렇게	-9.51386
▁미소	-9.51413
엄	-9.51439
▁m	-9.51501
▁하는데	-9.51593
웠다	-9.51653
▁스케일	-9.51758
▁메시지	-9.51763
재밌게	-9.51801
▁OST	-9.51806
▁빼	-9.51878
▁캐릭터들	-9.51879
▁19	-9.51924
▁싶어	-9.51931
깨	-9.52098
▁시도	-9.521
였어요	-9.52111
▁해준	-9.52131
▁순수한	-9.52199
▁취향	-9.52219
에서도	-9.5225
▁그랬	-9.52297
가족	-9.52344
보세요	-9.52345
▁유쾌한	-9.52398
소재	-9.5241
작가	-9.52436
▁아놔	-9.52447
▁프로그램	-9.52466
????	-9.52468
▁보이	-9.52469
졸	-9.52581
▁고민	-9.52645
꼭	-9.52674
▁표	-9.52703
▁임	-9.52727
▁여자들	-9.5281
때마다	-9.52861
▁놀라	-9.52883
▁예전	-9.52942
그러	-9.53014
▁특	-9.53035
나게	-9.53061
▁동화	-9.53072
한다면	-9.53083
▁저예산	-9.53105
▁죽는	-9.5317
▁훨	-9.53218
ᄃ	-9.53218
▁ᄉᄇ	-9.53227
던지	-9.53334
▁씨	-9.53347
▁진정	-9.53379
잉	-9.53413
몬	-9.53424
▁단순	-9.53472
▁짱짱	-9.535
▁느껴지는	-9.53526
▁낭비	-9.53556
▁중반	-9.53587
▁나에게	-9.53604
▁자연	-9.53681
일뿐	-9.53773
먹는	-9.53806
홍	-9.53843
▁이런게	-9.53883
▁부분이	-9.53895
▁떨어지는	-9.53927
눈물	-9.53961
▁여전히	-9.5402
▁역시나	-9.54036
▁붙	-9.54049
코드	-9.54072
친구	-9.54132
▁아저씨	-9.54134
▁역대	-9.54175
▁이쁘	-9.54196
갔	-9.54206
몰	-9.54243
▁회	-9.5437
한듯	-9.5439
닥	-9.5442
ᄉ	-9.54425
율	-9.54478
▁클	-9.54488
▁중간중간	-9.54552
▁글쎄	-9.54555
▁느낀	-9.54558
▁찍은	-9.54562
▁ᄏᄏᄏᄏᄏ	-9.54597
급영화	-9.54637
드라	-9.54671
▁생각나	-9.54713
▁유쾌	-9.54726
▁제작진	-9.54729
▁호러	-9.54738
마음	-9.54747
▁내용을	-9.54813
다른	-9.54882
▁맨	-9.54957
▁팔	-9.55
▁입니다	-9.55039
▁국	-9.5508
▁조폭	-9.55156
▁감탄	-9.5517
▁아니면	-9.55244
▁딴	-9.55249
▁풀어	-9.55338
▁스토리와	-9.55349
▁기분이	-9.55359
쩔	-9.55447
▁그림	-9.55462
▁매력이	-9.55481
▁기본	-9.55521
나온	-9.55564
▁독특한	-9.55577
찰	-9.55588
▁평범한	-9.55609
틴	-9.5564
▁현실성	-9.55649
릭	-9.55656
더만	-9.55719
▁현대	-9.55784
ᄏᄏᄏᄏᄏᄏᄏᄏᄏᄏᄏᄏᄏᄏᄏᄏ	-9.55913
빨	-9.55938
▁처음이다	-9.55941
▁있나	-9.56077
▁화가	-9.56091
하라	-9.56129
T	-9.56209
묘	-9.56212
덤	-9.56265
▁홍	-9.56268
필요	-9.5638
ᄀ	-9.56562
주고	-9.56566
▁철	-9.56596
▁나를	-9.56645
▁짧	-9.56655
하려는	-9.56718
이제	-9.56722
받고	-9.5673
▁볼때마다	-9.56755
▁역할	-9.56775
C	-9.56814
인것	-9.56822
턴	-9.56831
▁좋을	-9.5688
받은	-9.5691
내는	-9.56997
만으로	-9.57059
▁ᅮ	-9.57077
▁벌	-9.57094
져서	-9.57176
시킨	-9.5722
따위	-9.57244
▁해주는	-9.57261
▁초반에	-9.57298
▁아닌데	-9.57299
▁젤	-9.57311
최고의	-9.57317
▁틀	-9.57339
곳	-9.57344
▁긴	-9.57368
▁보지마세요	-9.57414
▁섹시	-9.57427
▁돌려	-9.57492
▁봤었는데	-9.57497
현실	-9.57501
▁해야	-9.57561
▁연기력이	-9.57586
▁소재를	-9.57616
▁사람을	-9.57655
▁했지만	-9.57661
나고	-9.57685
▁있다면	-9.57767
되서	-9.57804
▁전편	-9.5782
안되	-9.57862
▁마라	-9.57884
송	-9.57889
or	-9.57937
항	-9.58006
▁신선한	-9.58008
▁슬픔	-9.58012
쇼	-9.58033
▁든다	-9.58161
▁시선	-9.58265
▁애들이	-9.5834
이며	-9.58462
▁나중에	-9.58553
흘	-9.58554
ᄅ	-9.58597
▁저렇게	-9.58598
▁리뷰	-9.58606
먹고	-9.58612
영화중	-9.58628
딸	-9.58648
▁나오고	-9.58651
▁사극	-9.58809
영상	-9.58924
보이	-9.58936
▁아름답다	-9.58956
▁필요한	-9.5904
▁귀엽고	-9.59055
▁끝나고	-9.59104
▁떨어	-9.59186
닝	-9.59189
었고	-9.59277
▁악역	-9.59279
까진	-9.59291
▁사랑하는	-9.59292
▁괴물	-9.59294
▁70	-9.59296
니깐	-9.59322
▁꼴	-9.59357
▁굳이	-9.59412
▁뒷	-9.5943
▁게이	-9.59455
▁아름답고	-9.59463
▁함	-9.59466
새끼	-9.59501
쁘	-9.59561
짜리	-9.59601
▁찍어	-9.59609
만들어	-9.59704
▁흘러	-9.5971
ᄂ	-9.59771
▁예쁜	-9.59801
▁그렇다	-9.59805
내요	-9.59816
북	-9.59834
셈	-9.59855
S	-9.59886
▁그들의	-9.59913
▁이유가	-9.60001
▁액션은	-9.6005
▁표정	-9.60076
▁우정	-9.60245
맞추	-9.60263
▁평생	-9.60396
▁표절	-9.60406
▁종교	-9.60421
▁보고싶다	-9.60429
찌	-9.60448
▁후반	-9.60567
▁가진	-9.60593
▁영화관	-9.60738
▁감동적이고	-9.60818
▁드라마가	-9.60859
▁안되고	-9.60876
▁아깝	-9.60901
협	-9.60915
▁cg	-9.60922
▁음악이	-9.6096
▁각	-9.60973
▁분들	-9.60979
버려	-9.61017
▁살짝	-9.61023
▁어릴적	-9.61047
▁과연	-9.61058
▁분노	-9.61073
▁홍콩	-9.6112
타임	-9.61123
흐	-9.61189
사가	-9.61202
▁죄	-9.61202
▁좋았	-9.6123
많은	-9.61236
▁용서	-9.61246
▁고전	-9.6134
▁식	-9.61358
▁시원	-9.61406
욱	-9.61421
ᅲᅲᅲᅲ	-9.61433
▁참신	-9.61482
▁전에	-9.61532
▁보지마	-9.61544
▁희생	-9.616
텐데	-9.61669
▁취	-9.61733
취	-9.61736
프로	-9.61744
쓴	-9.61773
하다가	-9.61808
시키는	-9.6185
▁드는	-9.61857
▁않아	-9.61927
▁슬프다	-9.61927
▁넣	-9.61983
▁웃겨	-9.62025
▁능력	-9.62177
▁보기엔	-9.62355
▁캐	-9.62355
봐요	-9.62369
▁재밌었는데	-9.62379
▁페	-9.62398
▁처음엔	-9.62452
▁소름	-9.62471
만화	-9.62543
말고	-9.62547
▁기대를	-9.62634
쾌	-9.62708
▁폭력	-9.62719
왔다	-9.62737
▁아는	-9.62739
굴	-9.62797
P	-9.62804
▁이연걸	-9.62817
▁추천합니다	-9.62988
▁드러	-9.62988
▁보는게	-9.62996
총	-9.63033
▁결과	-9.63037
줌	-9.63061
▁의심	-9.63076
▁올라	-9.63129
▁몰입감	-9.63197
▁어렸을	-9.63239
▁칼	-9.63251
지마라	-9.63334
하면서도	-9.63405
낼	-9.63432
▁압권	-9.63433
▁불쾌	-9.63466
씨가	-9.63468
끝나	-9.63482
나올	-9.6355
▁되었	-9.63573
재미없다	-9.6361
▁포장	-9.63622
▁끝난	-9.63625
킨	-9.6365
▁몰입이	-9.6367
▁남는다	-9.6368
코미디	-9.63684
▁짜증나는	-9.63689
▁반성	-9.63799
▁연기와	-9.63845
▁잼없	-9.63849
▁필	-9.63879
▁다르	-9.64007
▁이건뭐	-9.64069
쳤	-9.64129
▁잼있게	-9.64147
▁그의	-9.642
▁스토리를	-9.64221
▁말로	-9.64262
▁알바들	-9.64269
▁연기에	-9.64277
▁아닌듯	-9.64305
유치	-9.64324
줬	-9.64332
빵	-9.6436
▁재밌었	-9.64383
는건지	-9.64424
▁안됨	-9.64428
▁더이상	-9.64514
▁열심히	-9.64573
하다니	-9.64581
▁뮤지컬	-9.64627
렉	-9.64678
an	-9.64685
▁이하	-9.64704
하겠	-9.64743
▁사랑과	-9.64754
▁무섭	-9.64758
▁티비에서	-9.64971
▁동물	-9.64983
더라구요	-9.65004
기엔	-9.65017
무섭	-9.65068
▁생각합니다	-9.6507
▁접	-9.65092
▁싫다	-9.6511
▁안하고	-9.65137
▁여러	-9.6527
▁묘사	-9.65318
▁짠	-9.65336
▁상처	-9.65351
▁만들어진	-9.65428
가지	-9.65453
▁먼	-9.65454
것만	-9.65531
골	-9.65611
번째	-9.65613
둘	-9.65652
▁40	-9.65663
하려고	-9.65692
▁소녀	-9.65698
같고	-9.65728
하는지	-9.65826
함과	-9.65831
▁희망	-9.65844
▁긴장	-9.65897
▁포기	-9.65992
없네	-9.66001
▁자막	-9.66067
▁볼거리	-9.66086
▁말할	-9.66099
할듯	-9.66138
▁무지	-9.66153
▁나왔으면	-9.66204
▁다행	-9.66308
되네요	-9.6637
▁빛	-9.66428
▁주인공의	-9.66437
▁현실을	-9.66505
▁나서	-9.66572
오빠	-9.666
▁송	-9.66646
워서	-9.66746
좋아요	-9.66763
▁공감이	-9.66772
▁달리	-9.66887
갑니다	-9.66938
▁12	-9.66941
죄	-9.66966
뜻	-9.66972
▁밥	-9.66989
▁개판	-9.67156
V	-9.67205
쏘	-9.67214
폰	-9.67218
스러움	-9.67219
▁섹스	-9.67222
감독이	-9.67251
▁몸매	-9.6727
▁법	-9.67278
애들	-9.67357
짜증	-9.67398
▁이정도면	-9.67439
▁설레	-9.67455
람	-9.67504
▁느끼는	-9.67584
▁죽어	-9.67591
▁하루	-9.67641
▁봤다가	-9.67747
▁나가	-9.67856
ᄏᄏᄏᄏᄏ	-9.67857
▁봤으면	-9.67863
튀	-9.67863
▁같아	-9.67936
하는것	-9.67977
혼	-9.68077
▁진심으로	-9.68085
▁되었다	-9.68138
▁환	-9.68144
▁다만	-9.68146
▁북한	-9.68152
▁짓	-9.68181
▁재미있음	-9.68205
▁지루할	-9.6821
▁재미를	-9.68292
▁중요한	-9.68325
▁있지	-9.68382
▁인기	-9.68395
머리	-9.68462
▁듣	-9.68476
누나	-9.68514
▁같음	-9.68514
▁빈	-9.68532
속에서	-9.68556
세계	-9.68564
▁많다	-9.68587
▁사는	-9.68607
놀	-9.68703
점주는	-9.68732
▁I	-9.6878
자체	-9.6883
▁과정	-9.68869
▁고생	-9.68906
▁빨	-9.68911
했나	-9.68952
▁썩	-9.68988
아님	-9.68996
▁사랑에	-9.69016
▁춤	-9.69075
▁어제	-9.69119
빡	-9.69134
▁오버	-9.69142
▁낫	-9.69283
▁보시길	-9.69297
스터	-9.69307
▁퀄리티	-9.69308
관계	-9.69308
안에	-9.69315
동안	-9.69464
▁하게	-9.69477
▁덜	-9.6959
첨	-9.69622
▁올리	-9.69648
A	-9.69696
▁허술	-9.69717
웅	-9.69746
20	-9.69764
표현	-9.69774
▁해피엔딩	-9.69824
▁크게	-9.6988
▁죽을	-9.69933
▁무섭다	-9.69958
한게	-9.69959
▁끊	-9.69979
▁이유는	-9.70009
▁재밌습니다	-9.70056
▁만드	-9.7012
▁스타	-9.70169
▁영화이다	-9.70207
년전에	-9.70298
ᄍᄍ	-9.70441
탁	-9.70448
▁힐링	-9.70487
느라	-9.70518
하구	-9.70548
▁난다	-9.70586
▁비극	-9.7069
▁흐름	-9.70801
▁만든다	-9.70827
▁열정	-9.70831
▁했던	-9.70878
킬	-9.70892
▁감동과	-9.70902
▁되게	-9.70922
▁최근	-9.70975
클	-9.71054
▁젊은	-9.71087
진심	-9.71105
▁그럭저럭	-9.71153
▁디즈니	-9.71153
▁쉽게	-9.71164
er	-9.71179
▁영화보고	-9.71235
▁볼수록	-9.71254
▁w	-9.71474
▁다큐멘터리	-9.71511
▁재미없네	-9.71537
▁생각나는	-9.71669
▁지루해서	-9.71676
▁그걸	-9.71693
▁제목이	-9.71706
▁우리가	-9.71749
강추	-9.71817
▁가볍게	-9.71824
갓	-9.71824
▁별로다	-9.71838
▁남아	-9.71918
▁어린이	-9.72019
▁친	-9.72038
▁없지만	-9.72046
▁언제나	-9.72088
▁좋았던	-9.72093
▁어쩔	-9.723
랜	-9.72301
▁동생	-9.72308
▁굳	-9.7232
감을	-9.72335
▁청	-9.72361
▁쓰래기	-9.72416
제목	-9.72451
퇴	-9.72455
롱	-9.72466
힐	-9.725
▁비주얼	-9.725
▁삶의	-9.72512
얘기	-9.72639
▁빌	-9.72703
▁올해	-9.72736
재밌어요	-9.72779
력이	-9.72874
▁놈	-9.72881
으로서	-9.7292
잼있	-9.73029
하지도	-9.7305
▁폭	-9.73092
▁국민	-9.7315
▁몇번을	-9.73154
넣	-9.73181
▁ᄃᄃ	-9.73196
▁그려	-9.73239
▁그다지	-9.73285
▁쩌	-9.73285
▁엉성한	-9.7337
▁정서	-9.73417
▁봐야할	-9.7348
▁아쉬움	-9.735
▁유치함	-9.73535
▁지구	-9.73552
다운	-9.73561
▁드라마는	-9.73636
로써	-9.73768
였지만	-9.73812
▁남기	-9.7383
▁나머지	-9.73873
▁통쾌	-9.7388
▁추억의	-9.73906
▁보고싶은	-9.73914
잔잔	-9.73924
▁슬	-9.73926
폐	-9.73927
▁d	-9.73934
▁몰라도	-9.73936
케이	-9.73986
▁가끔	-9.73989
▁미안	-9.74097
▁소재가	-9.741
오브	-9.74113
▁남을	-9.74195
▁팬이	-9.74205
▁해주	-9.74224
▁그럼	-9.74306
얘	-9.7433
▁돌아가	-9.74337
▁잔인하	-9.74374
시간에	-9.74429
혁	-9.74512
▁배우의	-9.74527
ᅡ	-9.74555
▁헐리우드	-9.74555
▁싸구려	-9.74555
▁눈빛	-9.74574
특히	-9.74596
▁멋	-9.74739
▁만큼	-9.74785
▁잔인한	-9.74792
▁못했다	-9.74835
보게	-9.74874
ᄒᄒᄒ	-9.74941
▁채널	-9.74991
▁믿을	-9.75049
가지고	-9.75052
▁영화지만	-9.75061
▁죽여	-9.75089
▁느꼈	-9.75095
끄	-9.7517
▁늘어	-9.75179
▁소재로	-9.752
팀	-9.75249
했네	-9.7527
나와	-9.75276
겟다	-9.75289
▁아깝지	-9.75321
re	-9.75366
몽	-9.7543
찾	-9.75589
명이	-9.75593
▁느낄수	-9.7561
▁재미있네요	-9.75632
인들	-9.75686
벽	-9.75924
팍	-9.75949
j	-9.75949
▁좋아서	-9.75989
으론	-9.76048
▁광고	-9.76053
확	-9.76063
▁악당	-9.76093
▁홍보	-9.76118
웨	-9.76222
▁찡	-9.76222
▁킬링타임	-9.76397
줄이야	-9.76494
▁S	-9.76529
▁필요없는	-9.76544
▁필요없다	-9.76557
봣는데	-9.76609
압	-9.76613
▁연예인	-9.76654
▁자극	-9.76705
▁맘	-9.76776
▁에로	-9.76778
용으로	-9.76779
▁다시한번	-9.76781
놨	-9.76838
▁높다	-9.76894
▁점수를	-9.76968
▁이쁜	-9.76992
▁재밋게	-9.77073
▁우주	-9.77227
겼	-9.77289
in	-9.77332
멘	-9.77361
숨	-9.77366
▁꾸	-9.7738
했다는	-9.7738
세기	-9.77385
끌	-9.77393
껄	-9.77479
▁슬프고	-9.7756
▁되지	-9.77571
▁빠지	-9.77585
얻	-9.77608
▁출연진	-9.77628
엄마	-9.77652
내용이	-9.77678
한것	-9.77711
▁오글	-9.77712
O	-9.77722
▁개인	-9.77727
스가	-9.77792
▁끝나는	-9.77807
▁판	-9.77826
나옴	-9.77843
▁사람의	-9.77876
놔	-9.77899
▁문화	-9.77906
▁재밌네	-9.77923
▁풍	-9.77943
▁끄	-9.77989
▁이제야	-9.78007
재밌다	-9.7802
▁잊혀지지	-9.7802
▁모르	-9.78037
텔	-9.78076
▁가지	-9.7809
▁반전도	-9.78166
▁아마	-9.78181
▁뜨	-9.78232
접	-9.78262
끈	-9.78278
딩	-9.78316
되면	-9.78487
▁만들고	-9.78571
막장	-9.78646
리를	-9.78682
인생	-9.78721
▁보았	-9.78752
N	-9.78794
▁그린	-9.78795
털	-9.78796
▁어려운	-9.78796
▁불구하고	-9.78797
▁시사회	-9.78831
▁방금	-9.78841
▁T	-9.78851
▁아픔	-9.78871
▁마세요	-9.78888
집니다	-9.78927
▁순수	-9.78966
떠	-9.79018
▁연출도	-9.79123
▁음악도	-9.79204
좋고	-9.7922
▁채	-9.79228
았음	-9.7923
았던	-9.79294
▁실패	-9.79329
▁않게	-9.79337
전쟁	-9.79394
기분	-9.79419
즘	-9.79456
룡	-9.79465
X	-9.7951
컷	-9.79521
나와서	-9.79537
▁뛰어난	-9.79552
있음	-9.79582
▁발전	-9.79589
▁펑펑	-9.79616
자리	-9.79626
▁사랑스러운	-9.79626
▁합	-9.79671
중의	-9.79701
▁둘다	-9.79702
상을	-9.79708
▁차이	-9.79724
▁싶었	-9.79733
왔는데	-9.79745
했으나	-9.79787
온다	-9.79847
▁나쁘지	-9.79932
▁딱히	-9.79959
리아	-9.80009
▁산으로	-9.80015
▁없나	-9.80093
▁불쌍	-9.80163
려면	-9.80232
▁아름다움	-9.8025
▁로그인	-9.80251
▁어머니	-9.80297
▁ᄉ	-9.80402
▁월	-9.80428
ᄃᄃ	-9.8044
▁식상	-9.80452
▁어른	-9.80458
▁어이가	-9.80484
축	-9.80573
▁조연	-9.80587
▁가서	-9.806
▁헤	-9.80617
▁웃기고	-9.80654
아까움	-9.80655
▁쫌	-9.80691
미치	-9.80717
▁볼만함	-9.80756
▁끌어	-9.80879
컨	-9.80986
자는	-9.80986
▁쓸	-9.80993
하시는	-9.80996
▁풀	-9.81006
점준	-9.8104
▁베스트	-9.81055
▁생애	-9.81074
▁브	-9.81089
▁보아	-9.81126
▁좋습니다	-9.81128
▁빠	-9.81161
옥	-9.81229
▁킬링타임용으로	-9.8133
▁낮아서	-9.81347
내고	-9.81348
▁여기서	-9.81424
빙	-9.81507
▁인생을	-9.8152
▁죽이	-9.81551
빼고	-9.81634
▁한국인	-9.81676
콜	-9.81711
▁있게	-9.81714
▁무언가	-9.81729
▁전설	-9.81777
▁연결	-9.81798
▁그것	-9.81822
▁생생	-9.81823
같음	-9.81908
평점이	-9.81943
▁재밌었음	-9.81957
▁봣	-9.81981
▁느와르	-9.81983
▁루	-9.82028
할까	-9.82044
on	-9.82135
M	-9.82144
▁많아	-9.82157
▁유치하다	-9.82185
거라	-9.82261
▁유명	-9.82307
▁커	-9.82352
자체가	-9.82356
택	-9.824
▁달라	-9.82425
▁죄다	-9.82471
혈	-9.82473
▁단연	-9.82627
▁평범	-9.82638
▁현실적이	-9.82713
▁남겨	-9.82736
▁고통	-9.82759
▁가득	-9.82768
무비	-9.82802
▁많았	-9.82828
▁엉망	-9.82844
▁전문가	-9.82886
B	-9.82899
으려	-9.82941
▁결말은	-9.82981
▁찍었	-9.83002
▁이따위	-9.83017
▁하면서	-9.83053
▁꽃	-9.83109
개봉	-9.83112
있어서	-9.83171
▁니들	-9.83207
▁바뀌	-9.83232
▁검	-9.83239
▁50	-9.83304
영화라고	-9.83327
중에서	-9.83395
스의	-9.83399
▁시청	-9.83414
▁빌려	-9.83417
에대한	-9.83513
▁안돼	-9.83543
지를	-9.8355
▁좀더	-9.83555
올리	-9.83569
폭	-9.83579
▁시걸	-9.83628
▁탈	-9.8364
잃	-9.83661
착	-9.83676
괜찮	-9.83677
▁결말도	-9.83722
순간	-9.83745
믿	-9.83782
한다고	-9.83795
▁푹	-9.83823
▁멋지다	-9.83847
▁귀엽	-9.83848
▁투자	-9.83877
▁봣는데	-9.83925
즐	-9.83932
▁청소년	-9.83982
▁스스로	-9.83986
▁멍청한	-9.84015
▁때문	-9.84118
▁남녀	-9.84152
버리는	-9.84179
높	-9.84195
▁몰입해서	-9.84197
▁오글거리	-9.84199
▁평이	-9.8421
▁현실적인	-9.84243
▁되고	-9.84272
인가요	-9.84365
▁눈물을	-9.84383
▁나왔다	-9.8441
v	-9.8454
학생	-9.84543
하는건	-9.84557
▁무서워	-9.8456
▁집에서	-9.84563
▁볼만하다	-9.84612
웃기	-9.84649
▁대화	-9.84689
▁연속	-9.84721
값	-9.84733
엠	-9.84742
솔	-9.84743
R	-9.84745
▁견자단	-9.84745
▁시간을	-9.8486
▁뻔하고	-9.84876
것들	-9.84898
했네요	-9.84936
▁핵	-9.84953
▁아직까지	-9.84974
▁남편	-9.84974
▁뜻	-9.85026
▁전체	-9.85061
▁끼	-9.85147
하던데	-9.85153
▁퍼	-9.85171
캐릭터	-9.85282
님의	-9.85313
▁단순한	-9.85406
▁들었	-9.85414
▁탄탄한	-9.85445
흑	-9.85484
므	-9.85515
▁헐리웃	-9.85515
하신	-9.85515
한국	-9.85515
사람은	-9.8552
▁뒤로	-9.85554
▁c	-9.85593
▁매력적이	-9.85608
▁정말로	-9.85651
▁힘들다	-9.85663
▁시시	-9.85719
▁사기	-9.85815
대는	-9.85856
▁거지	-9.85867
헤	-9.85906
▁외국	-9.85931
▁보았다	-9.8601
▁야한	-9.86023
답답	-9.86089
지않고	-9.86104
▁봤었	-9.86193
▁괜찮았	-9.86214
▁몇번	-9.8626
꿀	-9.86271
▁기독교	-9.8629
▁무엇을	-9.86292
▁벌써	-9.86306
▁흔한	-9.86313
▁옛날에	-9.86317
▁매력있	-9.86346
▁예쁘	-9.86349
▁할말	-9.86362
▁표현한	-9.86384
고싶은	-9.86401
▁시대를	-9.86429
까지는	-9.86431
▁외모	-9.86437
세상	-9.86484
▁나은	-9.86501
▁떠나서	-9.86585
사회	-9.86685
▁인간들	-9.86739
▁알겠	-9.86755
▁모든게	-9.86789
으로써	-9.86793
▁인간이	-9.86853
편보다	-9.86874
떨	-9.8695
▁질리지	-9.8701
▁마이클	-9.87077
▁지금은	-9.87077
!!!!!	-9.87092
▁이후로	-9.87102
르고	-9.87133
▁있습니다	-9.87168
▁라고	-9.87173
▁말을	-9.87199
▁주변	-9.87217
볼수있	-9.87228
▁영국	-9.87229
▁씬	-9.87258
▁무시	-9.87305
셔서	-9.87345
해주세요	-9.87367
았는데	-9.87446
▁심장	-9.87467
▁살아있	-9.87488
▁생각없이	-9.87519
가요	-9.87644
▁꼽	-9.87653
▁행	-9.87702
흥	-9.87702
▁와닿	-9.87708
▁남자가	-9.87856
▁러닝타임	-9.87858
▁누군가	-9.8786
하더라	-9.87861
▁위대한	-9.87861
▁재미있었다	-9.87884
친다	-9.87908
할수있	-9.87909
▁미드	-9.8793
스타일	-9.88014
▁드럽게	-9.88064
▁알수	-9.88079
▁누구나	-9.88091
▁보니까	-9.88093
시다	-9.88133
긴한데	-9.88148
▁섬	-9.88216
하려	-9.88235
▁단지	-9.88265
▁장면에서	-9.88282
▁영어	-9.88287
사는	-9.883
▁찌	-9.88415
못한	-9.88422
냥	-9.88445
▁못한다	-9.88452
사이	-9.88459
▁나옴	-9.88499
콩	-9.88538
캐	-9.88546
▁레전드	-9.88653
▁즐겁게	-9.8866
▁잔잔하고	-9.88663
ing	-9.88671
▁무서웠	-9.88678
▁명품	-9.88696
▁발견	-9.88714
▁이런영화가	-9.88716
▁지켜	-9.88734
▁시각	-9.88762
▁나오면	-9.88807
만들었	-9.88823
▁뽑	-9.88845
연기가	-9.88872
▁이해할	-9.88906
▁싶네요	-9.89012
▁높아	-9.89088
▁관객들	-9.89188
▁않지만	-9.8922
▁중요	-9.8924
▁말하는	-9.89317
▁배우들도	-9.89332
틈	-9.894
▁좋았을	-9.89419
릿	-9.89441
떼	-9.89452
▁김기덕	-9.89453
▁기대안하고	-9.89455
구성	-9.89459
▁이거보고	-9.89466
편의	-9.89469
▁작가가	-9.8949
▁인도	-9.89491
▁느낌을	-9.89503
▁맨날	-9.89504
보자	-9.89508
▁갈등	-9.89525
▁반복	-9.89545
▁있으면	-9.89581
는것도	-9.89641
▁필요없	-9.89655
수있는	-9.89671
▁특이	-9.89697
님들	-9.89754
슬퍼	-9.89765
들만	-9.89792
▁앤	-9.89822
▁공부	-9.8986
었어	-9.89912
볼만	-9.89963
▁한심	-9.89982
▁보길	-9.89997
기위해	-9.90022
▁싶지	-9.9003
특	-9.90034
▁같아서	-9.90051
시작	-9.90051
▁할말이	-9.90053
정신	-9.90054
장면이	-9.90154
▁눈에	-9.90181
만드는	-9.90216
검	-9.90219
▁활	-9.9023
▁그렇다고	-9.90231
▁꺼	-9.90234
나가는	-9.90239
떄	-9.90259
씹	-9.90259
톱	-9.90259
겁니다	-9.90298
낫	-9.90318
▁찌질	-9.90332
▁아이돌	-9.90344
▁재밌을	-9.90394
학교	-9.90404
아까	-9.90455
형제	-9.90458
▁ᅲᅲᅲ	-9.90508
노래	-9.90525
▁환상	-9.90557
▁재밋다	-9.90559
▁유쾌하고	-9.90588
▁허세	-9.90592
▁나오지	-9.90648
▁국내	-9.90658
▁13	-9.90694
ar	-9.90756
▁발로	-9.90774
▁있어요	-9.9079
▁한참	-9.90883
▁직	-9.90904
험	-9.9094
▁왠	-9.90942
▁비슷	-9.90949
▁않나	-9.91061
깜	-9.91071
더라면	-9.91074
▁독특	-9.91119
더라도	-9.91194
▁못해	-9.91284
▁샤	-9.91338
그래	-9.91402
유발	-9.91472
▁아나	-9.91473
꾸	-9.91522
겹	-9.91562
언니	-9.91569
주고싶	-9.91588
▁끝이	-9.91674
▁솔직	-9.91818
▁유명한	-9.91836
▁생각하는	-9.91842
▁슈퍼	-9.91874
탐	-9.91891
▁시트콤	-9.91891
쥬	-9.91891
▁쵝오	-9.91892
▁보고나면	-9.91903
▁안보고	-9.91905
▁안타깝다	-9.91913
▁편견	-9.91937
▁에휴	-9.91941
▁넘어	-9.92064
냈	-9.92139
흔	-9.92155
ᅲᅮ	-9.92179
이라서	-9.92325
▁건지	-9.92347
해진	-9.9237
▁내려	-9.92375
▁영화에요	-9.92381
계의	-9.9242
▁영화냐	-9.92444
▁인물들	-9.92481
▁생각하고	-9.9251
▁쇼	-9.92684
잤	-9.92689
▁로봇	-9.92723
영화임	-9.92738
▁치밀	-9.9275
스러워	-9.92757
봅니다	-9.92782
▁진지	-9.92801
마리	-9.92822
쉽	-9.92825
▁잊지	-9.92833
▁코난	-9.9284
있었	-9.92845
님이	-9.92918
▁부르	-9.93019
줘서	-9.93039
▁철학	-9.93062
다는게	-9.93131
▁우와	-9.93136
점수	-9.93137
따라	-9.93177
아까워	-9.93304
.......	-9.93354
▁개연성이	-9.93459
내용도	-9.93462
▁덕분에	-9.93503
OOO	-9.93539
▁007	-9.93551
▁에피소드	-9.93551
▁good	-9.93551
듣	-9.93554
해야지	-9.93643
▁모르겠고	-9.93643
▁못할	-9.93658
▁울었	-9.9367
그리	-9.93681
보는내내	-9.93759
▁아줌마	-9.93805
........	-9.93809
▁이쁘고	-9.9386
받는	-9.93874
▁있네요	-9.93879
기억	-9.93915
▁착한	-9.93967
▁부모	-9.94008
엔딩	-9.94033
▁미모	-9.94056
공포	-9.94065
▁줌	-9.94069
▁갔	-9.94083
▁하는지	-9.94123
냈다	-9.94138
지말고	-9.94207
▁흥	-9.94257
▁대사가	-9.94297
▁멋있다	-9.94323
▁아역	-9.94342
▁멍청	-9.94366
뛰	-9.94372
이였다	-9.94386
칙	-9.94391
▁즐거운	-9.94391
▁뭉클	-9.94392
례	-9.94392
▁울고	-9.94412
씬은	-9.94447
▁출	-9.94451
▁세월	-9.94471
지도않고	-9.94509
스릴러	-9.94535
젤	-9.94556
였고	-9.9459
▁무척	-9.94603
▁울었다	-9.9462
▁와우	-9.94627
메이	-9.94651
▁하네요	-9.94787
연기도	-9.94803
▁망한	-9.94849
▁암튼	-9.95051
▁보인다	-9.95056
이었	-9.95092
늘	-9.95104
▁당시에	-9.95136
▁대부분	-9.95168
거면	-9.95188
뭔	-9.95189
춰	-9.95215
▁슬펐	-9.9524
와는	-9.95252
▁의외로	-9.95261
▁음악과	-9.95267
▁달달	-9.95313
▁제로	-9.95333
▁한데	-9.95352
편을	-9.95359
형님	-9.95464
▁옛	-9.95516
▁받았	-9.95521
▁진부	-9.95571
▁빼고	-9.95677
▁여행	-9.95709
▁잔	-9.95718
▁결	-9.95754
▁살고	-9.95887
▁헤어	-9.95951
▁영화였어요	-9.96054
낀	-9.96082
멸	-9.96093
▁초등학생	-9.96094
탓	-9.96094
▁짝퉁	-9.96094
▁떨어지	-9.96098
▁왜케	-9.96106
▁경험	-9.96113
해진다	-9.96115
▁긴장감도	-9.96137
▁전투	-9.96148
부작	-9.96156
▁없는데	-9.96159
▁최강	-9.96194
아쉬웠	-9.96225
▁무리	-9.96241
▁진리	-9.96268
▁힘이	-9.96293
▁논	-9.96305
▁있어야	-9.96314
▁이미지	-9.96333
▁지루했다	-9.96366
▁신파	-9.96383
▁아쉽네요	-9.96417
주기	-9.96479
보인다	-9.96503
▁자살	-9.96582
▁재미없어요	-9.96604
간의	-9.96633
ᄃᄃᄃ	-9.96648
▁이쁘다	-9.96658
▁시청자	-9.96673
▁노답	-9.96733
있나	-9.96845
잇는	-9.96854
▁볼게	-9.96901
▁봤더니	-9.96956
ᅵ	-9.96956
▁마이너스	-9.96956
▁외계인	-9.96956
▁the	-9.96956
▁더불어	-9.9696
▁좋게	-9.96971
▁복잡	-9.96989
대사	-9.97021
▁재미있었어요	-9.97056
▁거슬	-9.97108
▁친구들	-9.97133
▁설마	-9.97136
잠	-9.97163
▁D	-9.97179
▁낳	-9.97181
▁학교에서	-9.97181
았습니다	-9.97226
맥	-9.97245
째	-9.97245
▁받을	-9.97369
▁자식	-9.97415
▁속에	-9.97424
▁쩐다	-9.97459
식으로	-9.97473
▁죽은	-9.97594
▁어렵	-9.97615
▁인생의	-9.97647
계속	-9.97669
▁착	-9.97717
했을까	-9.97741
▁신선하고	-9.97751
쌍	-9.97769
나오네	-9.97781
뮤	-9.97825
뽕	-9.97825
▁어처구니	-9.97825
▁혼	-9.9785
▁빼고는	-9.97865
▁본인	-9.97945
▁조합	-9.97957
됐다	-9.98001
빼곤	-9.98018
▁모르겠지만	-9.98055
▁작품을	-9.98093
까요	-9.98106
했었	-9.98109
▁기술	-9.98171
11	-9.9819
▁웃음이	-9.98219
만큼은	-9.98364
▁좋아할	-9.98371
▁좋지만	-9.98439
해준	-9.98456
▁운	-9.98466
it	-9.98524
웃음	-9.98525
▁적당	-9.98546
설정	-9.9858
▁작은	-9.98651
▁손발이	-9.98677
▁카리스마	-9.98702
▁흥미로운	-9.98703
▁이기	-9.98745
▁방법	-9.98751
제작	-9.98753
▁기다리	-9.98796
▁양심	-9.98826
버릴	-9.98879
▁게다가	-9.98892
▁극치	-9.99015
▁작품이다	-9.99023
▁없었던	-9.99028
쁜	-9.99035
하지마라	-9.99049
▁침	-9.99076
기로	-9.9915
했었는데	-9.99171
부족	-9.99176
상황	-9.99186
.........	-9.99189
▁무비	-9.99236
▁18	-9.99298
극장	-9.99312
▁학교	-9.99384
▁a	-9.99438
댄	-9.99559
▁동안	-9.99563
컬	-9.99584
▁더러운	-9.99589
▁주성치	-9.9959
▁직접	-9.99594
▁살려	-9.99615
▁f	-9.99633
▁어휴	-9.99705
스럽게	-9.99711
내내	-9.99775
▁안나	-9.99792
▁좋았지만	-9.99795
밥	-9.99904
원작	-9.99928
▁피해자	-10.0002
켜	-10.0003
▁최고입니다	-10.0003
▁뭐라	-10.0007
▁ᄋᄋ	-10.0018
▁삶에	-10.0018
하기엔	-10.0019
▁오바	-10.0032
끼리	-10.0034
문화	-10.0035
▁아이가	-10.0036
▁도전	-10.0039
▁재미있었	-10.004
▁굿굿	-10.0041
▁ᄋ	-10.0044
칭	-10.0048
렁	-10.0048
퀴	-10.0048
▁싸이코	-10.0048
▁영혼	-10.0051
▁즐기	-10.0052
▁말하고	-10.0052
▁평론가들	-10.0061
▁일품	-10.0061
가슴	-10.0069
것같	-10.007
▁박수를	-10.0076
▁국가	-10.0077
▁엄	-10.0077
▁보러	-10.0078
▁연기자들	-10.008
▁부족하다	-10.0081
▁뇌	-10.0087
차라리	-10.009
...........	-10.0092
점정도	-10.0094
▁아침	-10.01
▁의리	-10.0104
씨의	-10.0105
▁완전히	-10.011
▁영화인듯	-10.0117
▁실제로	-10.0121
▁주말	-10.0128
흡	-10.0136
▁포르노	-10.0138
▁크리스마스	-10.0138
▁고양이	-10.0139
인건	-10.0139
▁좋았으나	-10.014
▁따뜻해지는	-10.0142
아니다	-10.0142
몰라	-10.0142
▁지루하게	-10.0143
▁좋겠어요	-10.0144
▁역대급	-10.0147
재밌음	-10.0149
▁사랑의	-10.0153
▁썼	-10.0154
▁잼나	-10.0159
▁해석	-10.0165
▁감정을	-10.0166
였어	-10.0172
문제	-10.0183
아쉽	-10.0202
▁조용	-10.0205
▁케이블	-10.0207
▁본다면	-10.0209
▁사랑은	-10.0211
잡고	-10.0214
텐	-10.0219
▁인상적이	-10.0222
동생	-10.0222
티비	-10.0227
▁그럴	-10.0227
뉴	-10.0228
벅	-10.0229
▁아름다웠	-10.0229
랫	-10.0229
▁패러디	-10.0229
▁용기	-10.0232
짜증나	-10.0233
▁이래	-10.0233
▁크리스	-10.0233
▁다룬	-10.0238
▁한번쯤	-10.0239
▁밤	-10.0245
상태	-10.0263
기까지	-10.0264
ᄋᄋ	-10.0264
▁챙겨	-10.0272
▁비판	-10.0273
▁의미를	-10.0275
우스	-10.0276
▁잊을	-10.0283
▁보자	-10.0286
슬프	-10.0294
엇다	-10.0295
▁어른들	-10.0295
▁쓰레기같은	-10.0304
안되는	-10.0306
▁원작의	-10.0308
수없는	-10.031
al	-10.0311
ᄇ	-10.0319
둔	-10.0321
▁지나치게	-10.0321
▁앞으로도	-10.0322
없어서	-10.0324
▁웃기지도	-10.0326
일본	-10.033
▁뛰어	-10.0331
▁아프	-10.0334
이었음	-10.0337
감동적	-10.0341
▁평점보고	-10.0346
▁잊	-10.035
럴	-10.0351
▁기대했는데	-10.0354
▁넘치는	-10.0357
▁교육	-10.0358
▁폴	-10.0359
쳤다	-10.0367
읽	-10.0368
쟁이	-10.0373
▁무협	-10.0374
쥐	-10.0375
I	-10.0375
▁있던	-10.0377
장난	-10.0381
봐야지	-10.0385
▁올려	-10.0386
▁대중	-10.0388
새끼들	-10.0391
저리	-10.0396
▁원작이	-10.0396
▁밝	-10.0396
▁한명	-10.0399
▁들어가	-10.0404
▁느껴진다	-10.0416
▁일어나	-10.042
었네요	-10.0423
▁이유를	-10.0427
▁답답한	-10.043
▁웃김	-10.0434
▁연기력도	-10.0437
▁개성	-10.0444
있을	-10.0451
년만에	-10.0458
시길	-10.046
▁알려	-10.0463
같네	-10.0467
▁행복한	-10.0472
시즌	-10.0478
겠어요	-10.0479
야한다	-10.0485
좋아하는	-10.0489
▁십	-10.0493
▁보며	-10.0493
▁찬	-10.0496
헌	-10.0504
좌	-10.0507
K	-10.0507
층	-10.0507
룩	-10.0507
▁잠깐	-10.0508
▁몇몇	-10.0509
▁훈훈한	-10.0509
▁반개도	-10.0511
▁좋아해서	-10.0512
▁똑같은	-10.0522
▁중에서	-10.0526
지네요	-10.0535
▁전설의	-10.0535
▁없지	-10.0536
▁괜찮다	-10.054
▁꿈을	-10.0541
▁이해하기	-10.0546
▁모르게	-10.0551
▁않을까	-10.0555
할만한	-10.056
▁그거	-10.0562
▁지루하기	-10.0564
샤	-10.057
▁한마디	-10.0572
명의	-10.0573
▁안맞	-10.0574
▁뿐이다	-10.0576
왔습니다	-10.0577
▁진부하고	-10.0581
▁홍콩영화	-10.0581
▁남자의	-10.0588
▁보여준다	-10.0592
끝까지	-10.0594
▁블랙	-10.0601
▁봤을때	-10.0601
▁디테일	-10.0601
▁아까울	-10.0601
히어로	-10.0603
▁응원	-10.0608
ᅮᅮᅮ	-10.0608
▁하는거	-10.0609
▁더럽	-10.061
힘	-10.0614
▁사랑이야기	-10.0616
억지	-10.0617
▁무섭지도	-10.0621
▁깔끔	-10.0623
▁신경	-10.0625
▁많고	-10.0631
보네	-10.0635
치곤	-10.0638
고싶어	-10.0642
쟁	-10.0642
▁에이	-10.065
이런영화	-10.0651
▁모를	-10.0659
▁할까	-10.0666
꼴	-10.0669
스럽고	-10.0671
G	-10.0672
몰입	-10.0672
것인가	-10.0682
개도	-10.0686
껴	-10.0694
줬다	-10.0696
켓	-10.0696
롤	-10.0696
▁스트레스	-10.0696
냄새	-10.0697
하고싶은	-10.07
▁레알	-10.0704
▁가능	-10.0705
▁가슴에	-10.0715
▁재밌다고	-10.0715
매력	-10.0724
▁개봉한	-10.0725
머니	-10.0729
▁악마	-10.0733
▁이럴	-10.074
▁필름	-10.0749
▁탑	-10.0765
▁잭	-10.0773
버림	-10.0779
요소	-10.0784
▁그녀의	-10.0786
▁최대	-10.0789
..........	-10.079
▁싶은데	-10.0791
▁들었다	-10.0792
땡	-10.0793
칸	-10.0793
핑	-10.0793
딴	-10.0793
▁따로	-10.0796
▁관한	-10.0796
▁보려고	-10.0799
▁결정	-10.0805
▁11	-10.0807
▁해결	-10.081
▁욕망	-10.0816
하기만	-10.0828
▁막판에	-10.0835
▁빠진	-10.0841
▁오랜만	-10.0842
▁작가님	-10.0842
재밋음	-10.0862
나올때	-10.0863
맹	-10.087
▁얼마	-10.0873
▁대해서	-10.0873
붕	-10.0889
넹	-10.089
▁왠만하면	-10.089
▁이제서야	-10.089
▁비현실적	-10.0891
▁감흥	-10.0892
모양	-10.0893
▁개뿔	-10.0893
싶다	-10.0894
▁풍경	-10.0895
▁할머니	-10.0895
때부터	-10.0898
▁개막장	-10.0902
나오고	-10.0902
속의	-10.0907
▁감동적	-10.0908
▁갖	-10.0916
▁감히	-10.0921
▁밑	-10.0924
▁빠져들	-10.0935
▁낚시	-10.0936
▁옥	-10.0941
▁그렇지	-10.0945
▁먹고	-10.0953
▁커플	-10.0955
▁좋아하는데	-10.0959
신분들	-10.0965
▁선생님	-10.0966
스크	-10.0969
▁이용	-10.0979
겠습니다	-10.0979
▁실력	-10.098
안타깝	-10.0982
▁보여줬	-10.0985
▁DVD	-10.0988
럭	-10.0988
▁젠장	-10.0988
▁소중한	-10.0988
▁점수가	-10.099
▁빈약	-10.099
▁기다려	-10.0991
▁변태	-10.0998
▁존경	-10.1
사람들은	-10.1
하기도	-10.1001
▁간다	-10.1004
▁애기	-10.1008
▁야동	-10.101
랄까	-10.101
자를	-10.1015
하겠다	-10.1021
▁미쳤	-10.1025
으니까	-10.1025
▁재미잇	-10.1025
감독님	-10.1028
▁결론	-10.103
▁사람들의	-10.1045
▁생각하면	-10.1055
▁관점	-10.1058
▁꽝	-10.1058
▁본방사수	-10.1062
▁재미와	-10.1073
얼굴	-10.1074
멍	-10.1075
붙	-10.1076
콘	-10.1077
드립니다	-10.108
더빙	-10.1083
점줌	-10.1084
▁흑인	-10.1089
▁말아먹	-10.1091
▁겨우	-10.1091
▁보내	-10.1092
▁잼있다	-10.1095
▁콩	-10.11
했다고	-10.1101
▁자주	-10.1126
야할	-10.1126
▁읽어	-10.113
느니	-10.1131
▁마이	-10.1136
사람들이	-10.1137
▁기자	-10.1137
▁괜찮은데	-10.1138
▁있었지만	-10.1139
장애	-10.114
▁한국영화는	-10.114
▁있으	-10.1142
자나	-10.1147
▁한심한	-10.1148
▁죽이는	-10.1159
었을	-10.1166
분은	-10.1169
▁졸리	-10.1173
바닥	-10.1174
겠네요	-10.1178
푸	-10.1179
▁맞아	-10.118
▁망치	-10.118
▁어릴	-10.118
▁우리의	-10.1186
▁추억이	-10.1187
폼	-10.1187
▁스크린	-10.1187
납니다	-10.1188
휘	-10.1189
▁웬	-10.1189
▁말도안되는	-10.119
▁거짓말	-10.1192
▁멍	-10.1197
▁남아있	-10.12
▁없어요	-10.1202
▁하나의	-10.1204
배경	-10.1205
랜드	-10.1205
못보겠	-10.1207
우리	-10.1211
▁둘이	-10.1216
▁척	-10.122
입장	-10.1232
▁긴장감이	-10.1232
연기력	-10.1238
제발	-10.124
편에	-10.1247
편도	-10.1254
▁감동적이다	-10.1258
▁쓰레기다	-10.1259
▁현실이	-10.126
틱	-10.1262
▁주기	-10.1262
▁심하게	-10.1263
▁장르가	-10.1266
▁인해	-10.1267
▁전개도	-10.1268
공주	-10.127
▁속에서	-10.1273
주면	-10.1273
▁웃고	-10.128
냐고	-10.1281
있냐	-10.1282
략	-10.1286
H	-10.1288
핀	-10.1288
▁동성애	-10.1288
거같은데	-10.129
▁어린시절	-10.129
▁보여주고	-10.1293
▁짜증난다	-10.1293
▁하늘	-10.1296
▁생각함	-10.1297
볼려고	-10.1299
▁깨닫게	-10.1301
초반	-10.1302
▁우리는	-10.1304
▁그당시	-10.1305
▁무술	-10.1306
▁영화보면서	-10.1307
▁있구나	-10.131
▁참으로	-10.1313
▁보기에	-10.132
살아	-10.1321
▁이때	-10.1324
▁못함	-10.1325
▁웃기다	-10.1329
▁시리즈중	-10.1337
▁왜이래	-10.1338
것같아요	-10.134
했더니	-10.1341
당한	-10.1342
쩌	-10.1343
닌	-10.135
▁보긴	-10.135
▁헛	-10.135
하기에	-10.1355
나왔	-10.1358
▁대본	-10.1358
거리는	-10.1359
적이다	-10.1368
▁정의	-10.1374
▁형사	-10.1379
▁농	-10.1383
쓸	-10.1387
빛	-10.1388
몸	-10.1391
보구	-10.1391
▁2014	-10.1392
▁본거	-10.1394
▁모험	-10.1394
14	-10.1397
요즘	-10.1398
▁비디오로	-10.1399
▁훈훈하	-10.1403
▁전율	-10.1403
▁몇년	-10.1406
▁과장	-10.1406
▁맹	-10.141
▁자신이	-10.1411
▁빵점	-10.1412
▁내면	-10.1415
점이다	-10.1416
다운받	-10.1417
▁부모님	-10.1419
st	-10.1421
어진	-10.1428
▁아픈	-10.1429
▁보통	-10.1437
출연	-10.1441
▁오락	-10.1448
젠	-10.1448
▁관객을	-10.1452
▁야구	-10.1453
▁p	-10.1461
▁모두가	-10.1461
공포영화	-10.1464
감독의	-10.1466
▁됨	-10.1466
둥	-10.1472
다니는	-10.1476
했지	-10.1477
스키	-10.148
▁심각	-10.1491
삐	-10.1493
▁줬	-10.1493
무서움	-10.1494
년도에	-10.1497
▁영원히	-10.1497
▁떨어진다	-10.1498
논	-10.1498
밤	-10.1499
▁비밀	-10.1502
▁이것이	-10.1503
▁재미없게	-10.1505
도아니고	-10.1511
▁영화보는	-10.1515
▁참신한	-10.1523
▁아내	-10.1529
▁기회	-10.1531
임에도	-10.1536
▁죽는줄	-10.1536
▁L	-10.1538
▁그건	-10.1541
▁어쩔수	-10.1544
되나	-10.1548
▁쓰는	-10.1548
▁소름이	-10.1553
▁전쟁영화	-10.1556
▁세상을	-10.1569
받았	-10.157
▁다루	-10.1579
▁않네요	-10.1583
섭	-10.1584
▁위로	-10.1586
▁단편	-10.1586
륜	-10.1594
셀	-10.1597
곰	-10.1597
콧	-10.1597
▁시간가는줄	-10.1597
겠음	-10.16
▁색감	-10.1602
생활	-10.1606
▁등등	-10.1606
▁방영	-10.1613
▁대표	-10.1613
부분이	-10.1617
▁위해서	-10.162
▁술	-10.1629
▁인디	-10.163
보지말	-10.1637
▁형님	-10.1638
▁만들면	-10.1638
그만	-10.164
▁잊을수	-10.1642
▁사진	-10.1643
새롭	-10.1651
이즈	-10.1654
▁녹	-10.1666
▁본영화	-10.1672
▁재난영화	-10.1684
▁조화	-10.1686
▁쩝	-10.1687
▁캐릭터가	-10.1689
버전	-10.1689
▁낮다	-10.1697
▁특별한	-10.1698
▁알려주	-10.1699
묵	-10.1702
쿨	-10.1702
▁제임스	-10.1703
트리	-10.1706
▁바꾸	-10.1707
꿀잼	-10.171
▁화려하	-10.1715
▁아예	-10.1716
▁있는지	-10.1718
▁액션씬	-10.1722
싸움	-10.1722
▁이래서	-10.1723
▁분들은	-10.1725
보내	-10.1725
▁대놓고	-10.1726
옴	-10.1726
▁깎	-10.1734
▁만든영화	-10.1737
그래서	-10.1741
▁자신을	-10.1741
보이는	-10.1745
▁감안	-10.1746
▁못하다	-10.1748
▁생각나서	-10.1754
안됨	-10.1755
영화인데	-10.1762
▁충격적이	-10.1767
좋앗	-10.1768
▁조작	-10.177
▁보지마라	-10.1775
쓰는	-10.1776
감정	-10.1786
▁199	-10.1786
▁이런영화를	-10.1788
▁명작입니다	-10.179
▁돼	-10.1793
▁옷	-10.1803
옹	-10.1807
▁안타까운	-10.1809
▁잔뜩	-10.1809
▁여러가지	-10.1811
돋	-10.1811
▁하나하나	-10.1812
▁테러	-10.1814
▁남자주인공	-10.1817
시오	-10.1817
야겠다	-10.1823
▁여름	-10.1824
▁재밌던데	-10.1824
▁알겠는데	-10.1824
꽃	-10.1825
학년	-10.1829
큰	-10.1829
떨어지	-10.1832
때문	-10.1832
▁단어	-10.1835
는거야	-10.1837
▁도망	-10.184
▁훌륭하다	-10.1841
관람	-10.1841
싶어서	-10.1847
▁받는	-10.1849
▁재미있어	-10.1852
▁쥐	-10.1853
하길	-10.1861
▁최고였다	-10.1864
▁불러	-10.187
좋음	-10.1876
▁촌스럽	-10.1885
▁정도의	-10.1887
▁60	-10.1887
었네	-10.1888
▁조잡	-10.1894
▁잔인	-10.19
아주	-10.1901
건가요	-10.1902
▁가치가	-10.1902
액	-10.1915
좋겠	-10.1915
▁아이디어	-10.1916
▁신고	-10.1917
▁극장가서	-10.1919
▁집에	-10.1919
▁sf	-10.1919
as	-10.1924
빠지	-10.1927
몇	-10.1931
▁배역	-10.1933
▁보았습니다	-10.1935
▁만들다니	-10.1937
▁노래도	-10.1937
▁사고	-10.1939
▁느꼈다	-10.194
▁배우를	-10.1943
궁	-10.1945
▁다르다	-10.1953
았어요	-10.1953
▁명화	-10.1954
▁톰	-10.1955
▁따뜻	-10.1956
▁멋지	-10.1958
있습니다	-10.1958
▁없습니다	-10.1961
▁심오	-10.1962
ᄏᄏᄏᄏᄏᄏᄏᄏᄏᄏᄏᄏᄏ	-10.1968
▁효과	-10.197
▁21	-10.1977
뭔가	-10.198
▁끈	-10.1991
▁있었는데	-10.1994
아까운	-10.2007
▁작품은	-10.2008
▁싸움	-10.2016
놈이	-10.2022
▁분위기가	-10.2025
▁짜임새	-10.2025
닉	-10.2025
렷	-10.2025
▁무엇인지	-10.2025
▁색다른	-10.2025
▁억지스러운	-10.2032
▁가족영화	-10.2036
배우들의	-10.2042
▁갖고	-10.2043
만듬	-10.2045
싸우	-10.2048
▁돌리	-10.205
▁기대이상	-10.2051
▁모르겠음	-10.2054
라곤	-10.2054
▁에로영화	-10.2057
▁싸우는	-10.2059
▁살아가는	-10.2059
▁낙	-10.2063
▁최근에	-10.2065
▁답답하고	-10.2076
빠르	-10.209
▁응	-10.2096
▁빵	-10.2098
▁뭐하나	-10.2099
▁진부하	-10.2107
쓰레기영화	-10.2111
닐	-10.2117
거같아요	-10.2118
▁감정이	-10.2121
ᄏᄏᄏᄏᄏᄏᄏᄏᄏ	-10.2128
닿	-10.213
숭	-10.2135
z	-10.2135
ᅥ	-10.2135
▁블록버스터	-10.2135
▁아닙니다	-10.2135
쪼	-10.2135
찔	-10.2135
ᄎ	-10.2135
큐	-10.2135
▁잔혹	-10.2136
▁감정이입	-10.2137
▁ᄏᄏᄏᄏᄏᄏ	-10.2138
▁결코	-10.2138
▁듣고	-10.2139
▁어쩜	-10.214
▁드립니다	-10.2148
기에는	-10.2151
쳐서	-10.2153
브라	-10.2154
▁성격	-10.2154
▁오래된	-10.2154
▁하나같이	-10.2155
똥	-10.2159
▁영상이	-10.2164
절대	-10.2164
F	-10.2168
▁높게	-10.2169
어떻게	-10.217
허접	-10.2171
지않아	-10.2174
▁출연한	-10.2176
하진	-10.2181
때매	-10.2182
▁비하면	-10.2183
▁다운	-10.2193
▁재미없었다	-10.2202
사건	-10.2204
럼	-10.2211
▁거기에	-10.2212
빨리	-10.2223
▁지나도	-10.2223
▁뛰어나	-10.2229
마지막에	-10.2231
▁문제가	-10.2233
▁수준의	-10.2241
섹	-10.2245
▁소소한	-10.2246
▁후속작	-10.2246
▁그저그런	-10.2251
▁낚였다	-10.2252
▁푸	-10.2252
같았	-10.2253
▁데리고	-10.2255
것들이	-10.2257
▁끝났	-10.2258
▁또다른	-10.2259
▁연극	-10.2263
▁부실	-10.2273
▁맡	-10.2275
▁싶을	-10.2276
짱짱	-10.2277
뭐야	-10.228
해준다	-10.2285
덜	-10.2286
▁개연성도	-10.229
모두	-10.2291
커플	-10.2291
▁엉성하고	-10.2295
▁길게	-10.2303
▁기준	-10.2306
못하는	-10.2306
때까지	-10.2307
▁죽이고	-10.2311
▁여운을	-10.2315
본영화	-10.2316
▁O	-10.232
소설	-10.232
▁가정	-10.2321
쓰고	-10.2328
잖	-10.2336
▁정말이지	-10.234
▁탄탄	-10.2346
객	-10.235
▁기가	-10.2351
▁죽인	-10.2352
▁울컥	-10.2359
▁충실	-10.2359
▁작위적	-10.2361
▁가슴을	-10.2364
▁감각	-10.2365
▁혹은	-10.2366
▁승리	-10.2373
▁열연	-10.2381
▁연출과	-10.2381
▁G	-10.2386
▁선동	-10.2387
뻔한	-10.2392
보니까	-10.2392
▁ᄀ	-10.2395
▁막장드라마	-10.2396
본사람	-10.2397
▁낮아	-10.2398
였으면	-10.2398
▁낮네	-10.2399
▁안볼	-10.2412
갈수록	-10.2413
▁공포물	-10.2421
햇다	-10.2422
▁추리	-10.2423
긴하지만	-10.2423
▁촌	-10.2425
▁찾아보	-10.2427
▁노래가	-10.243
▁먼가	-10.2431
▁예쁘고	-10.2433
▁뻔하	-10.2437
▁마지막장면	-10.2445
▁아래	-10.2447
덕에	-10.245
▁내가본	-10.2454
마냥	-10.2463
했을때	-10.2465
하하하	-10.247
대단	-10.247
균	-10.247
▁잘봤어요	-10.2472
▁사운드	-10.2472
▁탄생	-10.2473
▁적당히	-10.2482
후에	-10.2483
▁의미가	-10.2484
▁넌	-10.2487
▁엿	-10.2488
▁좋겠	-10.2492
▁사상	-10.2495
▁만남	-10.2498
▁변화	-10.2505
인물	-10.2515
▁잼나게	-10.2515
었나	-10.2517
▁매력을	-10.2527
▁여러분	-10.2528
▁남은	-10.253
되었다	-10.2532
▁풍자	-10.2535
받아	-10.2538
▁오빠	-10.2544
▁아니야	-10.2548
▁식상한	-10.2559
왓	-10.2559
▁반전은	-10.2569
기전에	-10.2569
▁다운받아	-10.257
훈훈	-10.2573
▁많은데	-10.2576
▁만들어도	-10.2584
▁볼수있는	-10.2587
▁살다살다	-10.2587
뽀	-10.2587
▁다양한	-10.2587
스럽지	-10.2588
▁보려	-10.2591
▁흔들	-10.2593
배우가	-10.26
해주고	-10.2604
▁등장인물	-10.261
둥이	-10.261
겠죠	-10.262
▁살면서	-10.262
▁집중해서	-10.2628
▁여주가	-10.2637
▁요리	-10.2637
부러	-10.2641
솔직히	-10.2643
공감	-10.2644
▁결말을	-10.2656
▁방식	-10.2659
리스트	-10.2659
년작	-10.2659
점이상	-10.2665
▁구성이	-10.2666
▁궁	-10.267
▁주인공은	-10.2674
든지	-10.2676
▁헬	-10.2684
▁두고	-10.2684
▁봤네	-10.2686
▁의문	-10.2691
▁봅니다	-10.2694
▁맞지	-10.27
찐	-10.2703
J	-10.2703
▁로버트	-10.2703
▁심형래	-10.2703
▁스티븐	-10.2703
▁즐거웠	-10.2703
컴	-10.2703
▁플롯	-10.2703
▁아류작	-10.2703
▁끔찍	-10.2703
▁전기세가	-10.2704
않다	-10.2707
▁아무런	-10.2709
▁책을	-10.2714
▁만들었는지	-10.2715
▁그만큼	-10.2715
▁남자들	-10.2724
없는영화	-10.2725
장르	-10.2726
▁운명	-10.273
▁빼면	-10.2735
받아서	-10.2736
▁수많은	-10.2738
▁그자체	-10.2739
▁주기도	-10.2741
bb	-10.2742
했다면	-10.2744
▁북	-10.2749
▁생각했는데	-10.2753
빌	-10.2755
뇌	-10.2757
▁코미디영화	-10.2762
벗	-10.2765
앤	-10.2766
게임	-10.2768
▁애들은	-10.2768
▁내용인지	-10.2769
▁잘하는	-10.2772
▁안습	-10.2775
▁가면	-10.2778
▁잘만들었	-10.2784
스카	-10.2787
오늘	-10.2788
조금	-10.2794
▁낮게	-10.2795
재미없음	-10.2806
보셈	-10.2807
렵	-10.2815
번은	-10.2816
어이없	-10.2817
들끼리	-10.282
갱	-10.2821
▁앞뒤	-10.2821
▁특수효과	-10.2821
▁러시아	-10.2821
▁심지어	-10.2822
오글	-10.2822
▁핵노잼	-10.2822
▁집착	-10.2822
▁바랍니다	-10.2823
거죠	-10.283
▁놀라운	-10.2831
▁그야말로	-10.2832
▁첨엔	-10.2835
▁샘	-10.2839
▁한국에서	-10.284
오래	-10.2842
것같은	-10.2844
▁열받	-10.2847
▁시청률이	-10.285
두고	-10.285
▁재미도없고	-10.2852
이름	-10.2858
▁소장	-10.2859
긴다	-10.286
▁조카	-10.2861
▁축	-10.2863
le	-10.2865
▁폐	-10.2865
▁원작에	-10.2867
만드네	-10.2869
▁남네요	-10.2875
99	-10.2875
200	-10.2879
▁생긴	-10.2881
▁놀랍다	-10.2881
▁형편없	-10.2882
▁밋밋	-10.2886
L	-10.2888
▁손에	-10.2893
▁살린	-10.2896
▁냉	-10.2905
▁몽	-10.2908
▁몰입도가	-10.2911
같아서	-10.2925
혼자	-10.2925
ut	-10.2928
▁뭘까	-10.2933
▁잼잇	-10.2935
픽	-10.2936
벼	-10.294
▁주윤발	-10.294
▁언니	-10.2941
es	-10.2941
▁짧은	-10.2943
것만으로도	-10.2946
모든	-10.2946
▁보기에는	-10.2947
법한	-10.2948
▁영향	-10.2949
여행	-10.295
▁캬	-10.2956
!!!!!!	-10.2959
▁한숨	-10.2962
▁짜증만	-10.2963
▁재미있습니다	-10.297
볼까	-10.2972
▁몰랐다	-10.2976
▁궁금하다	-10.2979
막히	-10.2981
▁느껴지	-10.2982
▁마지막까지	-10.2996
떨어진	-10.2996
자신	-10.2997
▁별로임	-10.2997
될듯	-10.2998
거든	-10.3013
찡	-10.3013
비디오	-10.3014
▁망친	-10.3014
개그	-10.3015
어린	-10.3016
점대는	-10.3021
씬이	-10.3025
당시	-10.3035
▁새로	-10.3042
▁이상하게	-10.3053
찮	-10.3059
뚱	-10.306
싹	-10.306
▁장국영	-10.306
▁교과서	-10.306
▁반드시	-10.306
▁위험	-10.3063
▁생활	-10.3064
이었습니다	-10.3066
▁첫사랑	-10.3066
▁여자친구	-10.3069
▁어느정도	-10.3073
▁W	-10.3076
▁좋겠네요	-10.3079
▁안본	-10.3085
▁예쁘다	-10.3087
▁잼있어요	-10.3088
▁꽤나	-10.309
▁아쉽지만	-10.3098
▁욕심	-10.31
▁낮지	-10.3101
▁주제를	-10.3103
▁약간의	-10.3103
▁않아서	-10.3104
▁좀비영화	-10.3105
▁호구	-10.3114
▁철학적	-10.3118
해야할	-10.3118
▁안맞는	-10.3124
▁배신	-10.3137
▁정작	-10.3144
▁F	-10.3145
거같음	-10.3146
▁만들수	-10.315
▁대단하	-10.3151
따구	-10.3152
▁부분도	-10.3153
보여주	-10.3158
▁불쌍하다	-10.3163
▁일반	-10.3168
▁소설을	-10.317
줘도	-10.3175
삭	-10.3182
▁가벼운	-10.3182
▁봤을까	-10.3182
▁임팩트	-10.3182
▁당연히	-10.3188
▁태어나서	-10.3191
▁친구가	-10.3191
▁교훈을	-10.3192
▁매력적	-10.3194
▁때려	-10.3196
▁내용과	-10.3197
려다가	-10.3198
라는걸	-10.3199
▁따분	-10.3206
▁처음에는	-10.3208
▁무료	-10.3211
있었다	-10.3212
▁순수함	-10.3213
할것	-10.3214
▁역사를	-10.3216
▁어른이	-10.3216
▁책임	-10.3216
▁포스	-10.3217
지마세요	-10.3218
▁바다	-10.3223
같지	-10.3223
평가	-10.3227
▁연기력은	-10.3233
▁당신은	-10.3236
▁뭐니	-10.3237
▁확인	-10.3242
▁있다니	-10.3243
▁여전	-10.3244
▁엉망이	-10.3245
▁그립다	-10.3245
같은영화	-10.325
▁반대	-10.3254
▁상업	-10.3258
▁매일	-10.3259
▁잠시	-10.326
촌	-10.3268
하지마	-10.3268
깝	-10.3268
주연	-10.3269
것처럼	-10.327
▁떨어지고	-10.3271
▁떨	-10.3271
낭비	-10.3272
지말자	-10.3272
▁소년	-10.3273
치고는	-10.3286
▁목적	-10.3286
후회	-10.3295
▁알수있	-10.3301
▁아닐	-10.3303
30	-10.3304
긋	-10.3306
랩	-10.3306
▁쓸데없이	-10.3306
▁인내심	-10.3306
▁짜집기	-10.3306
▁유일하게	-10.3306
▁어설프고	-10.3307
▁한편의	-10.3307
▁모른다	-10.331
았지만	-10.3312
▁특별	-10.3314
ᄏᄏᄏᄏᄏᄏᄏᄏᄏᄏᄏ	-10.3317
▁신선하	-10.3317
▁여자주인공	-10.3318
달아	-10.3325
른다	-10.3327
▁어울리는	-10.3329
▁꼬마	-10.333
질질끌	-10.3332
▁이딴걸	-10.3334
▁조절	-10.3335
▁아름답게	-10.3337
▁자체는	-10.3337
레스	-10.3351
▁선물	-10.3352
▁짜증나서	-10.3354
▁강렬한	-10.3355
생김	-10.3358
▁다시보니	-10.3367
▁폐지	-10.337
▁넘게	-10.3373
방식	-10.3381
▁포스터가	-10.3382
▁아까웠	-10.3383
▁모르겟	-10.3388
▁아까운영화	-10.3391
▁적절	-10.3398
도대체	-10.34
아저씨	-10.34
뿐이다	-10.3415
오르	-10.3423
옆	-10.3425
▁휘	-10.3428
▁볼때	-10.3429
퓨	-10.3431
▁클레멘타인	-10.3431
랭	-10.3431
탱	-10.3431
▁유일한	-10.3432
재밌어	-10.3434
▁할아버지	-10.3435
▁답이	-10.3436
▁불편한	-10.3436
좋았다	-10.3437
▁웃으면서	-10.3437
▁끼워	-10.3439
▁연기자	-10.3442
▁일부러	-10.3442
▁나름대로	-10.3447
▁재밌지	-10.3452
애들이	-10.3452
▁마약	-10.3453
▁따뜻하고	-10.3457
▁귀여워	-10.3469
▁만든거	-10.347
▁멋졌	-10.3471
▁벤	-10.3472
▁최고임	-10.3476
500	-10.3477
▁명장면	-10.3489
▁생각으로	-10.3499
▁아름답	-10.3501
▁조선	-10.3501
먹은	-10.3502
웨이	-10.3508
▁피해	-10.351
려요	-10.3511
▁수작이다	-10.3515
▁타고	-10.3517
적이지	-10.3519
▁삶이	-10.3519
또한	-10.352
▁포인트	-10.3521
▁없으면	-10.3522
▁줄수	-10.3522
▁보던	-10.3525
▁ᄍᄍᄍ	-10.3537
▁시리즈는	-10.3537
100	-10.3546
이랄까	-10.3551
en	-10.3553
▁죽었	-10.3554
즐겁	-10.3555
▁조니뎁	-10.3557
및	-10.3557
▁dvd	-10.3557
▁배트맨	-10.3557
▁설득력	-10.3557
▁해리포터	-10.3557
▁늑대	-10.3558
▁근래	-10.3569
▁로코	-10.3569
▁재능	-10.3577
▁희망을	-10.3578
▁엄마가	-10.3579
▁이런건	-10.3583
였나	-10.3585
▁나에겐	-10.3586
▁생각할	-10.359
▁어렵다	-10.3595
▁우연	-10.3597
▁키스	-10.3615
듯하다	-10.3616
▁모든걸	-10.3618
▁많은걸	-10.3623
보는게	-10.3625
▁하나로	-10.3628
▁인상적	-10.3629
▁재미없어서	-10.3631
본영화중	-10.3638
▁ᄏᄏᄏᄏᄏᄏᄏ	-10.364
▁음식	-10.3642
할거	-10.365
▁소재도	-10.3651
▁수입	-10.3653
썼	-10.3662
꾼	-10.3681
엑	-10.3685
▁고등학교	-10.3685
▁뱀파이어	-10.3685
ᄁ	-10.3685
▁이소룡	-10.3686
▁이끌어	-10.3686
▁소재와	-10.3686
▁of	-10.3686
좋은영화	-10.3686
▁배경음악	-10.3689
▁이해할수	-10.3689
배우들이	-10.3691
▁두번째	-10.3696
보긴	-10.3697
▁괜찮았다	-10.3701
보게되	-10.3713
보고싶다	-10.3715
▁케이블에서	-10.3716
▁틀어	-10.3718
▁엔딩이	-10.3719
▁애매	-10.3719
있지	-10.3719
▁독일	-10.3722
▁많아서	-10.3723
▁동심	-10.3724
▁기억나는	-10.3734
져요	-10.3734
▁새벽에	-10.3735
맘	-10.3737
지루함	-10.3742
▁배우들은	-10.3746
▁풋풋	-10.376
▁그것도	-10.376
▁잠이	-10.3762
스토	-10.3763
▁영상과	-10.3763
▁곧	-10.3766
▁보다니	-10.3771
▁쓰고	-10.3777
씀	-10.378
▁혹시	-10.3786
▁흐르는	-10.3794
▁이상하고	-10.3794
흠	-10.3798
느껴	-10.38
에대해	-10.3801
▁오락영화	-10.3801
웃김	-10.3804
▁짜증이	-10.3805
관객	-10.3805
▁나랑	-10.3806
▁상대	-10.3809
닫	-10.3814
딘	-10.3815
셋	-10.3815
▁터미네이터	-10.3815
▁할리우드	-10.3815
뗄	-10.3815
▁you	-10.3815
▁대통령	-10.3815
깃	-10.3815
▁제니퍼	-10.3815
▁홍상수	-10.3815
▁내생에	-10.3816
▁착각	-10.3818
줄알았	-10.3824
▁어째	-10.3824
▁다섯	-10.3825
할뿐	-10.3825
▁강한	-10.3826
받을	-10.3827
ᅮᅲ	-10.3833
▁동양	-10.3834
▁울리는	-10.3838
▁연인	-10.3848
▁정상	-10.3849
▁이해를	-10.386
▁아쉬움이	-10.3863
▁봐야하는	-10.3863
!!!!!!!!!!!!!!!!	-10.3871
알아	-10.3883
톤	-10.3887
▁불쌍한	-10.3889
▁재밌어서	-10.3892
보시길	-10.3898
▁신비	-10.3908
th	-10.3908
▁부부	-10.391
굳	-10.3929
▁난해하	-10.3933
삶	-10.3935
싫어	-10.3936
▁밀려	-10.3938
램	-10.3947
▁숨겨진	-10.3947
▁박진감	-10.3947
▁사투리	-10.3947
▁제이슨	-10.3947
▁영환데	-10.3948
▁아깝고	-10.3949
▁맞춰	-10.3951
▁과학	-10.3954
▁사라지	-10.3955
▁언제봐도	-10.3956
일듯	-10.3961
▁시간아깝다	-10.3964
▁단순히	-10.3964
▁잘못된	-10.3965
여주	-10.3966
▁검색	-10.3968
▁혹시나	-10.3979
하는건지	-10.3992
▁제목만	-10.3992
▁난잡	-10.3996
었는지	-10.4002
▁돋보이는	-10.4002
▁현실과	-10.4004
▁않으	-10.4005
▁없었음	-10.4006
하러	-10.4008
놀이	-10.4009
▁싶어요	-10.4011
▁의사	-10.4015
▁정보	-10.4022
장면은	-10.4022
못하고	-10.4023
▁망가	-10.4029
▁초딩때	-10.4033
높은	-10.4038
하니까	-10.4044
▁발상	-10.4044
▁삼류영화	-10.4057
▁주연배우	-10.4058
수밖에	-10.406
▁주제가	-10.4064
▁마음으로	-10.4065
▁살리	-10.4066
아빠	-10.4066
▁거장	-10.4072
헐	-10.4074
추억	-10.4078
▁자랑	-10.4079
짤	-10.408
U	-10.408
▁줍니다	-10.408
▁됩니다	-10.408
젖	-10.408
▁아놀드	-10.408
▁깜짝	-10.408
▁2000	-10.408
▁즐겨	-10.4081
▁재미있을	-10.4082
▁빠른	-10.4084
▁처절	-10.4086
▁여러번	-10.4088
▁충분	-10.4088
▁디워	-10.4096
▁예능	-10.4099
▁만들기	-10.4104
기도하고	-10.4107
으려고	-10.4107
▁실화를	-10.411
▁어디에	-10.4112
볼수	-10.4114
테러	-10.412
▁그동안	-10.4122
▁하길래	-10.4127
▁보이지	-10.4133
▁후에	-10.4155
▁중심	-10.4158
▁안간다	-10.4162
▁어색하고	-10.4172
▁좋네	-10.4176
▁남았	-10.4177
것보다	-10.4177
놨네	-10.418
▁잘만들	-10.4183
▁머리가	-10.4185
▁가수	-10.4192
웠던	-10.4195
▁아이들과	-10.4197
▁아냐	-10.4206
▁실수	-10.421
눌	-10.4215
곱	-10.4215
뎅	-10.4215
밴	-10.4215
부끄럽	-10.4215
▁희대의	-10.4215
▁흑백	-10.4215
▁익숙	-10.4216
▁사랑해	-10.4216
▁떠오르	-10.4217
▁뭐하자는	-10.4217
▁실험	-10.4218
▁떨어짐	-10.422
않음	-10.422
느끼	-10.4221
목소리	-10.4223
▁상영관	-10.4226
졸작	-10.4228
▁안봐도	-10.423
▁이런영화는	-10.4235
▁짜증남	-10.4236
▁세상이	-10.4237
▁서양	-10.4237
▁개노잼	-10.4242
▁봐도봐도	-10.4243
할수가	-10.4243
맞는	-10.4246
▁진수	-10.4251
▁모르겠네요	-10.427
ᄍ	-10.4282
▁아까웠다	-10.4284
▁지겹다	-10.4284
▁다르게	-10.4285
▁멋지고	-10.4291
▁기타	-10.4294
역사	-10.4295
▁논리	-10.4311
▁공감할	-10.4318
있으면	-10.4322
▁재미없을	-10.4324
..............	-10.4331
▁사용	-10.4332
▁점수는	-10.4337
▁장면들	-10.4341
낭	-10.4344
쩜	-10.4346
랍	-10.4349
ᄡ	-10.4352
펜	-10.4352
뢰	-10.4352
▁나레이션	-10.4352
▁유덕화	-10.4352
▁이토록	-10.4352
▁이뻐서	-10.4353
▁빅	-10.4353
▁명대사	-10.4356
▁잤다	-10.4357
분만에	-10.436
▁저평가	-10.4361
줄알았는데	-10.4363
ᄏᄏᄏᄏᄏᄏᄏᄏᄏᄏᄏᄏ	-10.4365
▁내용전개	-10.437
베리	-10.4374
▁매니아	-10.4377
▁현실감	-10.4379
▁최고봉	-10.4379
▁하품	-10.4379
▁벌어	-10.438
▁하지원	-10.4389
▁높아서	-10.4391
▁재밋어요	-10.4395
▁괜찮음	-10.4399
모르고	-10.4399
하시길	-10.44
▁없나요	-10.4401
▁봤다면	-10.4406
▁잊고	-10.4408
▁사랑해요	-10.4411
▁쭉	-10.4412
▁이상해	-10.4414
▁내일	-10.4418
갔는데	-10.4421
▁결론은	-10.4435
▁하아	-10.4436
▁달려	-10.4437
▁생겼	-10.444
올라	-10.4441
능력	-10.4448
갈때	-10.445
▁시대에	-10.4471
▁나네요	-10.4481
▁굉장	-10.4484
▁어디가	-10.4488
괜	-10.4489
▁뒤에	-10.449
쿵	-10.4491
▁네티즌	-10.4491
넬	-10.4491
앨	-10.4491
켄	-10.4491
▁왤케	-10.4491
▁공짜로	-10.4491
▁하정우	-10.4491
▁도무지	-10.4492
말이필요없	-10.4492
▁폭풍	-10.4493
▁탈출	-10.4494
있지만	-10.4497
▁만화책	-10.4498
꿈	-10.4499
▁알겠다	-10.4501
▁판단	-10.4502
긴장감	-10.4503
분위기	-10.4504
잊	-10.4505
재미있게	-10.451
빠져	-10.4517
▁짜증나고	-10.4518
▁인형	-10.4519
▁맛이	-10.4522
▁그럴듯	-10.4524
▁궁금해서	-10.4527
▁박수	-10.4528
▁정신병자	-10.4535
선생	-10.4543
류영화	-10.4545
표정	-10.4549
▁쉽지	-10.4549
▁공간	-10.455
▁마지막회	-10.455
하지말고	-10.456
▁으리	-10.4561
▁배경이	-10.4586
뭐냐	-10.459
▁남긴	-10.4597
보소	-10.4598
▁김치	-10.4615
▁그지같	-10.4617
▁망쳐	-10.4618
자들이	-10.4627
젊	-10.4629
납	-10.463
뷰	-10.463
멈	-10.4632
▁오랫만에	-10.4632
▁우뢰매	-10.4632
닷	-10.4632
텝	-10.4632
툭	-10.4632
▁컨셉	-10.4632
▁갠적으로	-10.4632
▁걱정	-10.4632
0000	-10.4633
▁달콤	-10.4633
▁이루	-10.4635
▁평균	-10.4635
▁재개봉	-10.4637
▁각색	-10.4638
▁루즈	-10.4639
▁압도	-10.464
▁폭발	-10.464
▁극복	-10.464
하거나	-10.464
▁만약	-10.4641
▁적어도	-10.4641
▁믿고보는	-10.4641
▁거북	-10.4644
춤	-10.4649
▁담겨	-10.465
▁유럽	-10.465
▁괜찮았는데	-10.4652
▁말하고자	-10.4653
엄청	-10.4653
▁반담	-10.4657
▁유쾌하게	-10.4662
같아	-10.4663
▁절정	-10.4666
나왓	-10.4666
낮은	-10.467
차별	-10.4674
어색	-10.4681
▁뭣	-10.4684
▁to	-10.4685
언제	-10.4693
▁볼만했다	-10.4696
곳이	-10.4696
스톤	-10.4697
드립	-10.4713
없나	-10.4714
▁가족들	-10.4715
▁죽고	-10.4718
▁담배	-10.4721
▁가능한	-10.4724
!!!!!!!!!	-10.4732
▁정신없	-10.4736
▁없냐	-10.4742
▁불안	-10.4745
▁없게	-10.475
▁이루어	-10.4754
▁보게된	-10.4759
만큼이나	-10.4762
▁부정	-10.4764
깍	-10.4771
웠음	-10.4774
맙	-10.4775
닼	-10.4775
▁케릭터	-10.4775
▁송강호	-10.4775
▁쓸데없는	-10.4775
▁무엇인가	-10.4775
덩어리	-10.4775
▁뭥미	-10.4775
소름돋	-10.4775
▁잔잔하게	-10.4776
▁말자	-10.4776
▁잡아	-10.4777
▁꿈꾸	-10.4777
▁작품입니다	-10.4781
▁파괴	-10.4782
▁만들어주	-10.4783
▁환경	-10.4784
▁흘리	-10.4785
▁돈내고	-10.4785
▁세번	-10.4787
▁자극적인	-10.4788
▁부럽	-10.4789
▁의상	-10.4792
아버지	-10.4796
▁소중함을	-10.4799
화이팅	-10.4799
걍	-10.4799
▁부담	-10.4801
▁대신	-10.4801
뻔했다	-10.4803
포스터	-10.4805
▁한방	-10.4806
▁어거지	-10.4814
햇는데	-10.4818
▁평소	-10.482
시키지	-10.4821
▁원조	-10.4824
▁일본인	-10.4827
▁찾아볼	-10.4836
▁포스터에	-10.4842
▁기대없이	-10.4844
있던	-10.4846
▁한국판	-10.4848
▁이름이	-10.4853
▁빵빵	-10.4862
▁강렬	-10.4866
▁유치해	-10.4867
글자	-10.4867
▁사랑한다	-10.4871
▁가득한	-10.4888
발랄	-10.489
▁따라가	-10.4891
▁여자애	-10.4901
없네요	-10.4903
▁귀엽다	-10.4906
▁영상미가	-10.4916
▁찍고	-10.4918
뻥	-10.492
웟	-10.492
▁오프닝	-10.492
옳	-10.492
▁리얼리티	-10.492
▁자동차	-10.492
▁정도면	-10.4922
▁보시면	-10.4925
마디	-10.4931
자마자	-10.4936
▁천국	-10.4937
▁멋있는	-10.4939
ᄏᄏᄏᄏᄏᄏ	-10.4943
▁찾는	-10.4944
▁살인마	-10.4946
▁손발	-10.4947
▁빛을	-10.4948
엇는데	-10.4949
▁유행	-10.4955
▁끌고	-10.4957
빠진	-10.4958
잖아요	-10.4959
▁액션신	-10.496
웃겨	-10.497
▁평화	-10.497
할줄	-10.4978
▁서울	-10.498
▁않았지만	-10.4982
▁본건데	-10.4986
해지고	-10.4987
▁놀랍	-10.4993
▁잼있음	-10.4993
곳에서	-10.5
모자	-10.5005
▁좋을듯	-10.5005
▁좋지	-10.5007
제대로	-10.5009
등록	-10.5011
▁소화	-10.5016
있어요	-10.5017
▁갖다	-10.5025
출신	-10.5032
▁어쩌면	-10.5036
빼	-10.5046
▁황당한	-10.5051
▁만난	-10.5056
앉	-10.5058
▁담은	-10.5061
녀석	-10.5061
덩	-10.5067
랙	-10.5067
▁인터넷	-10.5067
껀	-10.5067
▁우려먹	-10.5067
▁정우성	-10.5067
▁동시에	-10.5068
▁괜찮아	-10.5069
▁민폐	-10.5069
▁개똥	-10.5079
▁억지감동	-10.508
▁ᄏᄏᄏᄏᄏᄏᄏᄏ	-10.5084
ve	-10.5084
▁놓치	-10.5085
▁거품	-10.5087
씁쓸	-10.5092
▁명배우	-10.5096
왔어요	-10.5096
▁아깝네	-10.5097
▁허술한	-10.51
▁생기	-10.5101
▁적당한	-10.5101
▁보았는데	-10.5103
스틱	-10.5104
▁스토리전개	-10.5107
비슷	-10.5107
불쌍	-10.5108
하자면	-10.5114
▁시작부터	-10.5115
▁넣어	-10.512
▁쫓	-10.5121
▁그것을	-10.5125
하군	-10.5136
▁보는거	-10.5137
▁녹아	-10.5138
멜로	-10.5139
극장에서	-10.5143
▁의지	-10.5147
▁만들어서	-10.5149
▁추천하고	-10.515
▁아니었다	-10.5151
▁분들이	-10.5151
▁어울리지	-10.5151
줬으면	-10.5153
같지만	-10.5155
▁그것이	-10.5155
▁쩔어	-10.5158
▁자아	-10.5161
▁파리	-10.5163
멜	-10.5178
12	-10.5183
▁재미있는데	-10.5185
▁장진	-10.5203
▁따뜻해	-10.5208
▁러브	-10.5215
빗	-10.5216
뚝	-10.5216
▁명불허전	-10.5216
▁짐캐리	-10.5216
걷	-10.5216
똘	-10.5216
릇	-10.5216
▁깡패	-10.5216
▁전반적으로	-10.5216
▁내생애	-10.5216
▁가까운	-10.5216
▁제시카	-10.5216
▁스포츠	-10.5217
▁블랙코미디	-10.5217
마누라	-10.5217
▁이런류의	-10.5219
▁역량	-10.522
▁장난하냐	-10.5223
▁은근히	-10.5223
▁만들었나	-10.5223
▁목소리가	-10.5226
▁최소	-10.5227
것같은데	-10.523
보고있어요	-10.5232
분동안	-10.5233
▁믿기지	-10.5235
▁마지막엔	-10.5237
▁눈물나	-10.5239
▁화나	-10.5241
▁기적	-10.5241
▁파격	-10.5242
추격	-10.5242
▁안될	-10.5242
▁기존	-10.5245
▁축구	-10.5247
▁탄탄하고	-10.5247
꼽	-10.5253
▁영원한	-10.5258
포인트	-10.526
탑	-10.526
칼	-10.526
상영	-10.5261
시나리오	-10.5261
범죄	-10.5264
▁아깝네요	-10.5275
▁아파	-10.5277
ᄏᄏᄏᄏᄏᄏᄏᄏᄏᄏ	-10.5279
▁돼지	-10.5283
기억이	-10.5293
▁이번에	-10.5294
▁왜곡	-10.5298
겐	-10.5298
▁답답함	-10.5299
점주기도	-10.5302
▁명연기	-10.5307
▁일부	-10.5314
델	-10.5316
80	-10.5322
렬	-10.5329
여운이	-10.5331
▁등장인물들	-10.5339
힘들	-10.534
▁포스터만	-10.5342
▁초등학교	-10.5344
윈	-10.5357
▁그립	-10.5358
▁무섭고	-10.5363
▁짝이	-10.5366
갠	-10.5368
썸	-10.5368
윌	-10.5368
몫	-10.5368
▁아무생각없이	-10.5368
▁역겨운	-10.5368
읍	-10.5368
▁양아치	-10.5368
▁이해불가	-10.5368
▁불가능	-10.5368
▁첩보	-10.5368
▁상관없	-10.5369
▁좋았을텐데	-10.5371
▁잔잔하면서	-10.5372
▁상징	-10.5375
교회	-10.5377
▁조아	-10.538
▁전체적인	-10.538
▁다시보고	-10.5383
▁만들어낸	-10.5384
▁한개도	-10.5392
▁읽고	-10.5396
었을까	-10.5397
▁사람이라면	-10.54
▁볼만합니다	-10.5401
▁치유	-10.5407
▁친구랑	-10.5409
▁생각난다	-10.5414
▁비중	-10.542
▁각자	-10.542
▁전개와	-10.5421
▁표현할	-10.5422
▁적절한	-10.5424
▁생명	-10.5426
▁사람들에게	-10.543
▁강간	-10.5432
am	-10.5433
▁알았네	-10.5433
노답	-10.5434
▁사랑합니다	-10.5436
▁나무	-10.5438
멋있	-10.5443
께요	-10.5453
▁지겹	-10.5461
게만드는	-10.5465
였지	-10.5471
▁시점	-10.5484
편에서	-10.5485
▁싶었다	-10.5499
꺼면	-10.5505
▁모아	-10.5505
광고	-10.5519
▁류승범	-10.5522
▁웰메이드	-10.5522
▁브루스	-10.5522
▁어두운	-10.5522
▁탁월	-10.5522
▁누군지	-10.5522
▁헛웃음	-10.5522
괜찬	-10.5523
▁죄송	-10.5523
▁귀여움	-10.5524
▁센스	-10.5525
▁왠만한	-10.5525
▁빛나는	-10.5526
찾아	-10.5528
▁이것보단	-10.5528
▁거기다	-10.5529
▁라스트	-10.5529
▁요새	-10.5532
하실	-10.5533
천원	-10.5533
습니까	-10.5534
▁말아야	-10.5537
▁여친	-10.5538
▁여태	-10.5541
▁담긴	-10.5548
▁안보는게	-10.5558
아쉬워요	-10.5563
▁인류	-10.5563
▁고독	-10.5564
▁최소한	-10.5569
▁아진짜	-10.5572
봣다	-10.5583
▁재난	-10.5589
낚	-10.5593
19	-10.5597
▁나오는데	-10.5601
자식	-10.5602
ed	-10.5608
셔야	-10.5628
▁무난	-10.5629
이딴	-10.5631
▁찾아서	-10.5631
▁보기싫	-10.5638
▁아프다	-10.5646
▁답답해	-10.5647
▁진지한	-10.5647
안된다	-10.5648
조연	-10.5649
할수있는	-10.5651
▁하나하나가	-10.5654
브리	-10.5664
활	-10.567
뭉	-10.5678
뱀	-10.5678
▁movie	-10.5678
퀄	-10.5678
▁이병헌	-10.5678
스파이더맨	-10.5678
▁호기심	-10.5678
▁혐오	-10.5678
▁즐길	-10.5678
▁라이언	-10.5678
시간동안	-10.5678
▁못보겠다	-10.5682
▁극단적	-10.5682
▁초반부	-10.5686
▁고뇌	-10.5687
곳에	-10.5691
▁예술영화	-10.5699
ck	-10.5699
▁놀란	-10.5699
선수	-10.5701
▁아만다	-10.5702
▁강력	-10.5707
▁첨부터	-10.5709
답게	-10.5709
▁백인	-10.572
▁울면서	-10.5723
▁분장	-10.5726
sh	-10.573
▁알았음	-10.573
▁내돈	-10.573
같아요	-10.5737
특집	-10.5739
▁뜬금없는	-10.5739
았으면	-10.5741
▁동네	-10.5743
▁극중	-10.5744
캐스팅	-10.5745
CG	-10.5746
▁따지	-10.5746
▁비슷하	-10.5749
존나	-10.5749
되요	-10.5751
▁반영	-10.5753
▁유치해서	-10.5755
▁마니	-10.5761
쩐다	-10.5768
el	-10.5768
에비해	-10.5768
▁남성	-10.5771
▁책으로	-10.5777
러스	-10.5778
재미있어요	-10.5779
▁보고싶어	-10.5784
달라	-10.5788
▁부족함	-10.5789
었지	-10.5789
외로	-10.579
▁배경으로	-10.5799
▁밤에	-10.58
▁정신병	-10.5801
순위	-10.5804
▁사랑하고	-10.5806
▁여배우들	-10.5817
▁허무한	-10.5828
엽	-10.5833
▁찍는	-10.5835
쯔	-10.5836
덴	-10.5837
랴	-10.5837
▁러브라인	-10.5837
▁배급사	-10.5837
▁벗어나	-10.5837
▁2012	-10.5839
▁장애인	-10.5843
▁옆에	-10.5844
▁로빈	-10.5845
▁그림체	-10.5845
시장	-10.5846
▁앉아	-10.5846
▁신인	-10.5848
답니다	-10.5848
▁절망	-10.5849
애들은	-10.5854
하시고	-10.5856
▁거지같은	-10.5864
였네요	-10.5865
▁괜찮았음	-10.5866
▁싶었던	-10.5869
▁전화	-10.5876
▁빠져서	-10.5898
▁실감	-10.5901
장난치	-10.5903
▁풋풋한	-10.5905
▁그렇지만	-10.5906
▁대사들	-10.5908
왠	-10.5911
평론가	-10.5911
그렇게	-10.5911
뭘	-10.5911
▁무섭지	-10.5912
아무리	-10.5913
▁별하나	-10.5913
선택	-10.5921
것같아	-10.5922
▁만났	-10.5926
▁매미	-10.593
해놓고	-10.5933
보고싶어요	-10.5937
▁끝나서	-10.5938
없구	-10.5952
▁심한	-10.5952
▁않은데	-10.5953
15	-10.5953
▁잘만들었다	-10.5967
먹었	-10.597
재미없어	-10.5973
▁장난아니	-10.5987
발연기	-10.5988
으시	-10.5994
여운	-10.5994
좋네요	-10.5994
콤	-10.5996
렀	-10.5998
젼	-10.5998
퉁	-10.5998
▁EBS	-10.5998
▁인상깊었	-10.5998
▁놀랐다	-10.5998
닭	-10.5998
쟈	-10.5998
룰	-10.5998
뺏	-10.5998
▁빨갱이	-10.5998
▁임창정	-10.5998
▁화장실	-10.5998
▁베드신	-10.5998
▁드디어	-10.5998
▁쓸쓸	-10.5999
▁짜릿	-10.6
▁언젠가	-10.6001
▁향수	-10.6005
▁깨알	-10.6007
▁개콘	-10.6013
너무너무	-10.6013
아니면	-10.6016
굿굿굿	-10.602
▁던져	-10.6021
▁장면들이	-10.6023
▁다행이다	-10.6029
▁모르지만	-10.6029
▁있었으면	-10.603
처리	-10.6033
▁나을듯	-10.6044
꺼야	-10.6051
작이라	-10.6055
▁군인	-10.6067
갖	-10.6079
귀엽	-10.6081
코믹	-10.6082
그럼	-10.6091
▁보고나니	-10.6097
▁선사	-10.6101
▁여신	-10.6103
▁볼것	-10.6106
▁소개	-10.6114
터짐	-10.6116
▁하나님	-10.612
▁그리워	-10.6123
▁괜찮게	-10.6127
▁인상적인	-10.6136
생기고	-10.6157
측	-10.6159
앵	-10.616
아까운영화	-10.6161
▁빠졌	-10.6162
ᅢ	-10.6162
▁컴퓨터	-10.6162
쉐	-10.6162
욤	-10.6162
▁무거운	-10.6162
▁하이틴	-10.6162
▁비행기	-10.6162
▁삭제	-10.6162
▁블루	-10.6163
▁낭만	-10.6164
▁도둑	-10.6165
▁배꼽	-10.6165
▁동영상	-10.617
▁은근	-10.6171
▁창피	-10.6172
아아아	-10.6174
그러나	-10.6174
▁만들었을까	-10.6175
▁재미있었습니다	-10.6177
▁꼭보세요	-10.6179
▁드림	-10.6184
▁말하려는	-10.6185
▁진지하게	-10.6186
▁잘한다	-10.6188
해줄	-10.6188
효과	-10.6189
▁미안하다	-10.619
월드	-10.619
▁ᄒᄃᄃ	-10.6191
것같네요	-10.6192
▁가족애	-10.6197
un	-10.6201
▁보았던	-10.6203
▁안본다	-10.6204
▁재밌었던	-10.6206
▁신선함	-10.6211
▁언제까지	-10.6211
▁미녀	-10.6215
▁도시	-10.6216
▁소장하고	-10.6231
▁괜찮고	-10.6235
외엔	-10.6236
▁되는데	-10.6239
▁때리	-10.6247
밑	-10.6252
섬	-10.6253
코메디	-10.6253
개인적으로	-10.6254
TV	-10.6255
폴	-10.6258
바람	-10.6265
▁가히	-10.6278
겠는데	-10.6278
▁깔끔한	-10.6289
싶은데	-10.6291
▁씁쓸하	-10.6298
편까지	-10.6305
있네요	-10.6315
▁기대하지	-10.632
싼	-10.6323
확실	-10.6324
해줘서	-10.6326
밖	-10.6328
헉	-10.6328
띠	-10.6328
홈	-10.6328
▁신하균	-10.6328
▁박보영	-10.6328
쯧쯧	-10.6329
▁몽환적	-10.6329
▁거부감	-10.6329
▁무간도	-10.633
▁스파이	-10.633
펙트	-10.6331
시키고	-10.6331
▁생각해보게	-10.6333
▁분량	-10.6334
▁말그대로	-10.6335
▁개그맨	-10.6335
▁고딩	-10.6345
합시다	-10.6346
▁영원	-10.6348
미친	-10.6351
싫다	-10.6355
▁조연들	-10.6355
▁미스터리	-10.6362
▁와닿는	-10.6368
였다면	-10.6369
▁보라고	-10.6374
▁ᄒᄒᄒᄒ	-10.6375
▁순수하고	-10.6383
▁넘넘	-10.6392
▁사랑스럽다	-10.6397
▁들어간	-10.6406
▁넘어가	-10.6407
ch	-10.6408
으러	-10.6413
▁이거보다	-10.6421
간만에	-10.6422
▁뜬금없이	-10.6426
도좋고	-10.6427
▁못본	-10.6428
▁여인	-10.6428
▁화끈	-10.643
재밋엇	-10.6433
줄알았다	-10.6437
▁날아	-10.6451
▁미국식	-10.6455
역할	-10.6455
▁막판	-10.646
▁맞나	-10.6463
▁잊혀	-10.6471
스코	-10.6474
▁빠지는	-10.6475
▁계기	-10.6476
▁않았던	-10.6479
픔	-10.648
하나하나	-10.648
▁당연	-10.6483
▁전문	-10.6483
▁대부	-10.6485
▁다시보기	-10.6486
곽	-10.6498
뤄	-10.6498
▁비쥬얼	-10.6498
▁흡입력	-10.6498
덮	-10.6498
듦	-10.6498
렐	-10.6498
밉	-10.6498
버렸네	-10.6498
쉴	-10.6498
▁박중훈	-10.6498
▁칭찬	-10.6498
광구	-10.6498
▁일주일	-10.6498
▁케빈	-10.6498
▁오글오글	-10.6499
▁둘째치고	-10.6499
▁대학	-10.65
▁어설프다	-10.65
▁예측	-10.65
▁역겹다	-10.6501
▁니콜	-10.6501
▁픽사	-10.6501
▁잃은	-10.6503
줘야지	-10.6506
▁혼란	-10.6509
▁같았다	-10.6512
!!!!!!!!!!!!	-10.6518
▁흘러가는	-10.652
▁살았	-10.6538
▁답답하다	-10.6542
▁부산	-10.6544
역겹	-10.6544
었구나	-10.6546
더군	-10.6547
는것을	-10.6555
▁망할	-10.6562
▁첨이다	-10.6568
소녀	-10.6571
▁있기	-10.6574
▁한번더	-10.6576
미국	-10.6577
▁시작해서	-10.6587
▁기대이하	-10.6593
▁뛰어넘는	-10.6593
하겠습니다	-10.6598
▁보겠다	-10.6608
아직도	-10.6609
하고싶다	-10.661
▁짜증나게	-10.6611
▁극장에	-10.6626
▁나와야	-10.6629
▁17	-10.6638
▁마음속	-10.6638
▁어이없다	-10.6641
보고나서	-10.6654
▁절로	-10.6655
돈주고	-10.6659
겠어	-10.666
40	-10.666
▁몰아	-10.6667
▁뒤죽박죽	-10.667
▁스타워즈	-10.667
▁알파치노	-10.667
▁타란티노	-10.667
츄	-10.667
▁왕조현	-10.667
맴	-10.667
킴	-10.667
▁클래식	-10.667
▁도데체	-10.667
▁아쉬울	-10.667
▁명복을	-10.667
▁워낙	-10.667
▁비호감	-10.667
▁Good	-10.6671
잊지못할	-10.6671
▁격투	-10.6671
▁향연	-10.6671
▁엽기	-10.6671
▁감명깊게	-10.6671
▁그려낸	-10.6674
어수선	-10.6674
▁부활	-10.6675
▁개봉당시	-10.6675
▁두시간	-10.6678
▁낫겠다	-10.6679
▁엄청나게	-10.6679
▁따름	-10.6679
▁마시길	-10.668
▁에효	-10.6682
▁좋겠습니다	-10.6682
맘에	-10.6688
립니다	-10.6689
▁기괴	-10.6689
거라고	-10.6692
실력	-10.6695
▁한순간	-10.6701
보임	-10.6702
▁재미있었음	-10.6706
▁최후	-10.6706
▁소통	-10.6706
못함	-10.6718
▁멋지게	-10.6722
싫	-10.6722
▁잃었	-10.6726
▁실망스럽	-10.6727
셨으면	-10.674
까봐	-10.6741
▁감동적이네요	-10.6745
다큐	-10.6756
▁형편없는	-10.6756
▁재미없었	-10.676
▁이딴영화	-10.6761
▁맡은	-10.6763
▁코믹영화	-10.6769
▁새벽	-10.678
▁귀여	-10.6781
벤	-10.6788
▁연상	-10.6791
▁가능성	-10.6811
▁의문이	-10.6811
뜬금	-10.683
챙	-10.6842
▁디카프리오	-10.6846
밧	-10.6846
맺	-10.6846
얄	-10.6846
▁섬세한	-10.6846
▁상어	-10.6846
▁스타뎀	-10.6846
사실	-10.6847
▁소름끼치는	-10.6849
▁나타나	-10.685
▁케미	-10.685
맞아	-10.6852
▁묘한	-10.6853
▁중학생	-10.6858
▁슬픈영화	-10.6866
▁속았다	-10.6867
▁귀여워요	-10.687
▁어디로	-10.687
▁다운받아서	-10.6874
잭슨	-10.6883
▁충격적인	-10.6883
않는다	-10.6883
▁재미있었는데	-10.6885
▁작화	-10.6886
▁아이들에게	-10.6887
▁시기	-10.6892
점만점에	-10.6893
▁독특하고	-10.6896
▁믿음	-10.6901
▁어이없음	-10.6901
▁공유	-10.6905
점주고	-10.691
▁말투	-10.691
▁위트	-10.6911
지루하고	-10.6912
시킬	-10.6914
▁있으나	-10.6916
▁다시금	-10.6923
▁당황	-10.6929
▁구분	-10.6963
▁한시간	-10.6971
아이들	-10.6972
핵	-10.6973
프로그램	-10.6974
훌륭	-10.6974
▁살리지	-10.6976
나왔으면	-10.6981
▁16	-10.6984
스티	-10.6989
▁뭐라고	-10.6991
▁충분한	-10.6991
50	-10.6991
▁흉내	-10.6994
▁원하는	-10.6998
▁프랑스영화	-10.7008
▁불쌍하	-10.701
▁이상하다	-10.701
▁정체	-10.7019
전혀	-10.7021
▁알게되	-10.7024
▁살렸다	-10.7024
▁시종일관	-10.7024
쌓	-10.7024
퉤	-10.7024
혔	-10.7024
▁미스캐스팅	-10.7024
팩	-10.7024
▁아기자기	-10.7024
▁객관적	-10.7024
▁여러모로	-10.7024
▁한효주	-10.7025
▁닥치고	-10.7025
▁킬러	-10.7025
▁총체적	-10.7025
졌으면	-10.7026
▁레옹	-10.7027
▁입장에서	-10.7027
com	-10.7029
▁소름돋는	-10.703
▁오로지	-10.7031
났음	-10.7041
멋잇	-10.7043
ay	-10.7044
▁살아야	-10.7046
▁로망	-10.7046
▁장난하나	-10.7048
▁돋보였	-10.7054
▁감명	-10.7058
▁아련하	-10.7062
▁범죄자	-10.7063
▁완벽하다	-10.7069
▁만화영화	-10.7073
▁연기잘하	-10.7073
▁있긴	-10.708
▁옛날영화	-10.708
▁말인가	-10.7081
▁우린	-10.7089
▁가짜	-10.709
▁우선	-10.7094
기술	-10.7094
느냐	-10.71
▁말밖에	-10.7105
거같아	-10.7112
▁싫어하는	-10.712
▁사람에게	-10.712
▁건질	-10.7124
▁방해	-10.7126
▁삶과	-10.7127
▁전편보다	-10.7132
▁사회적	-10.7134
▁별로였다	-10.714
▁지키	-10.714
▁천사	-10.714
하하하하	-10.7142
하더니	-10.7155
거에요	-10.7157
▁세상에서	-10.7169
맞음	-10.7174
허무	-10.7187
외에는	-10.7193
해야하나	-10.7204
▁단점	-10.7205
▁펼쳐	-10.7206
튜	-10.7206
▁아마추어	-10.7206
됫	-10.7206
렛	-10.7206
▁바탕으로	-10.7206
▁강동원	-10.7206
▁되돌아	-10.7206
▁떡밥	-10.7206
▁김수현	-10.7206
▁섬뜩	-10.7206
▁혁명	-10.7208
귀신	-10.7209
▁승부	-10.7209
▁억지스럽고	-10.721
▁난해한	-10.7211
▁오래전에	-10.7212
▁직업	-10.7212
▁말씀	-10.7217
▁충분하다	-10.7222
▁애잔	-10.7224
▁모욕	-10.7225
▁보여줄	-10.7227
▁조낸	-10.7236
ic	-10.7238
지루하다	-10.7241
▁매번	-10.7244
복수	-10.7248
▁재방	-10.7252
였구나	-10.7252
▁사랑스럽고	-10.7253
긴했지만	-10.7253
▁역사상	-10.7254
▁산만하고	-10.7254
▁아이유	-10.7258
▁학생들	-10.726
▁준비	-10.7266
▁아니잖아	-10.7274
▁당장	-10.7275
있었던	-10.7284
▁느껴지지	-10.7286
있었는데	-10.7288
비추	-10.7301
▁스릴러물	-10.7302
▁모르겠네	-10.7302
▁처음이네	-10.7303
▁중년	-10.7308
▁잼있네요	-10.731
▁받았다	-10.731
▁또보고싶	-10.7319
▁멋져	-10.7331
▁되야	-10.7335
잇엇	-10.7338
▁재미없네요	-10.7364
▁발음	-10.7365
경찰	-10.7367
이후로	-10.7367
▁이도저도	-10.7383
행위	-10.7386
ᅩ	-10.739
▁빕니다	-10.7391
캠	-10.7391
덧	-10.7391
▁원숭이	-10.7391
▁두고두고	-10.7392
▁무엇이	-10.7394
▁풀어낸	-10.7396
클라라	-10.7397
행복	-10.7398
되길	-10.7398
▁감동적이에요	-10.7398
▁권력	-10.7407
▁못하겠다	-10.7411
▁욕먹	-10.7412
▁한심하다	-10.7418
▁자극적이	-10.7421
▁흥분	-10.7422
▁울었어요	-10.7424
▁좋으나	-10.7427
▁재치	-10.7427
영활	-10.7432
살때	-10.744
▁비교해	-10.7457
▁예수	-10.7474
▁좋아하지만	-10.7475
만드나	-10.7485
속으로	-10.7487
▁잔인함	-10.7504
▁잘생겼	-10.7508
후반	-10.7509
투성이	-10.7518
▁심하다	-10.7532
샘	-10.755
판타지	-10.7552
tv	-10.7556
결국	-10.7576
소름끼치	-10.7577
▁캐릭	-10.7579
븐	-10.758
솜	-10.758
▁유치찬란	-10.758
▁즐거움	-10.758
▁엔딩크레딧	-10.758
쏴	-10.758
퀸	-10.758
톡	-10.758
▁마찬가지	-10.758
▁납득	-10.758
▁김혜수	-10.758
▁ᄌᄂ	-10.758
옵니다	-10.7581
▁온갖	-10.7581
▁쉬운	-10.7581
▁극혐	-10.7582
▁그럴싸	-10.7582
▁이것보다	-10.7583
▁민족	-10.7586
▁부탁	-10.7586
▁방향	-10.7587
▁시험	-10.7589
▁재앙	-10.7591
▁개꿀잼	-10.7597
▁모자라	-10.7598
▁세계관	-10.7599
▁비록	-10.7609
자꾸	-10.761
▁뻔하다	-10.7614
돌려	-10.7618
▁한동안	-10.7619
▁실사	-10.7622
하길래	-10.7624
▁웃었다	-10.7626
▁커서	-10.763
엇음	-10.7637
▁팬들	-10.7638
▁아까워서	-10.7646
▁화질	-10.7649
▁망쳐놓	-10.7655
▁나열	-10.7656
▁조잡한	-10.7662
▁고문	-10.7667
▁소유	-10.7671
▁무섭게	-10.7681
▁한가지	-10.7681
▁행복하게	-10.7683
▁완성	-10.7684
▁귀여웠	-10.7689
us	-10.7711
▁신화	-10.772
▁넘어서	-10.7725
▁미쳐	-10.7733
▁뻔뻔	-10.7739
▁캐리	-10.7747
감동받	-10.7749
얼마나	-10.7751
▁198	-10.7765
둑	-10.7769
뜬	-10.777
▁킬링	-10.7772
풋	-10.7772
숀	-10.7772
▁안타까움	-10.7772
왈	-10.7772
팽	-10.7772
뜸	-10.7772
렘	-10.7772
핫	-10.7772
▁감성팔이	-10.7772
▁기발한	-10.7773
▁로맨틱코미디	-10.7775
▁슈퍼맨	-10.7777
누님	-10.7777
▁4.44	-10.7777
▁돌아보게	-10.7778
▁잔잔함	-10.7779
페이스	-10.7781
▁언어	-10.7783
▁에라이	-10.779
분짜리	-10.7796
▁지옥	-10.7796
▁괜찮았던	-10.7798
▁믿어	-10.78
▁자연스럽게	-10.7804
▁싶습니다	-10.7806
▁살아남	-10.7809
▁스포	-10.7816
달라고	-10.7817
될까	-10.7819
▁완벽하게	-10.7821
▁웃겼다	-10.7828
▁주온	-10.7829
줘요	-10.7831
▁고증	-10.7834
▁보게되는	-10.7835
진행	-10.7843
졌음	-10.7853
▁이거보단	-10.7857
▁일반인	-10.7872
죽이고	-10.7878
봣어요	-10.789
▁끝날	-10.791
그대로	-10.7913
▁제작자	-10.794
닮	-10.7948
▁배우분들	-10.7959
딜	-10.7962
병맛	-10.7964
감명깊	-10.7967
짙	-10.7968
▁미스테리	-10.7968
▁오랫동안	-10.7968
뼈	-10.7968
잣	-10.7968
▁머릿속	-10.7968
▁피아노	-10.7969
▁애초에	-10.7969
▁명성에	-10.7969
▁상큼	-10.797
▁크리스찬	-10.7971
▁전성기	-10.7971
▁방황	-10.7973
▁닮았	-10.7974
무서울	-10.7974
저런	-10.7976
▁no	-10.7977
▁사이코	-10.7979
▁감동적입니다	-10.7982
ᄀᄀ	-10.7984
▁태국	-10.7987
▁얻어	-10.7991
▁느껴질	-10.7995
더라고요	-10.8009
잼씀	-10.8011
좋은데	-10.8011
▁극본	-10.8013
편집	-10.8015
▁못봐주겠	-10.8017
▁또라이	-10.8022
▁오그라들	-10.8022
물론	-10.8024
▁비참	-10.8026
▁느껴졌다	-10.8028
▁빠져들게	-10.8033
구역	-10.8037
▁채워	-10.8041
ri	-10.8046
▁괜찮네요	-10.8046
▁뛰어넘	-10.8062
▁짜증났	-10.8064
빠짐	-10.8069
▁나왔던	-10.8081
▁있었음	-10.8087
▁매주	-10.8088
▁외국인	-10.8089
▁해외	-10.8112
피디	-10.8114
et	-10.8124
▁두명	-10.8124
하였다	-10.8129
▁낚인	-10.8132
▁자연스럽	-10.8154
할수없는	-10.8155
멀	-10.8163
분정도	-10.8165
댓글	-10.8165
▁허허	-10.8167
낯	-10.8168
랏	-10.8168
팝	-10.8168
▁고등학생	-10.8168
▁뒤늦게	-10.8168
얀	-10.8168
▁세련된	-10.8168
▁어정쩡	-10.8168
꽁	-10.8168
뻑	-10.8168
쭈	-10.8168
▁엄정화	-10.8168
▁한석규	-10.8168
▁데이빗	-10.8168
▁김희선	-10.8168
▁원피스	-10.8168
▁눈치	-10.8169
▁오그라드는	-10.8169
▁바란다	-10.817
흑흑	-10.817
▁자연스러운	-10.8173
vs	-10.8174
▁멋짐	-10.8174
▁봐줄만	-10.8177
▁억지스런	-10.8177
▁내취향	-10.818
넘치는	-10.8181
▁음향	-10.8182
▁복선	-10.8188
▁안녕	-10.8189
▁알아야	-10.819
om	-10.8191
▁처음본다	-10.8195
보지마라	-10.8197
▁의미있는	-10.8204
학년때	-10.8205
▁마법	-10.8213
▁보고싶은데	-10.8214
▁독립	-10.8215
▁웃겨서	-10.8228
▁안나옴	-10.8229
▁모든것이	-10.8234
올린	-10.8236
학원	-10.8243
▁쓰러	-10.8253
▁화끈한	-10.8256
스탈	-10.8257
▁밋밋한	-10.826
▁역작	-10.8261
▁막상	-10.8263
ne	-10.8265
▁웃겼	-10.8274
▁무협영화	-10.8278
▁편하게	-10.8279
부리	-10.8298
분들께	-10.8302
릴때	-10.8308
왔던	-10.831
▁봐주	-10.8345
야말로	-10.8356
av	-10.8366
하지않고	-10.8366
혐	-10.837
뎀	-10.8372
▁런닝타임	-10.8372
▁테이큰	-10.8372
▁크레딧	-10.8372
▁호불호가	-10.8372
뚫	-10.8372
좆	-10.8372
쩍	-10.8372
템	-10.8372
푼	-10.8372
▁짬뽕	-10.8372
▁스페인	-10.8373
▁설경구	-10.8373
▁완젼	-10.8373
할려고	-10.8373
▁후속편	-10.8373
▁히어로물	-10.8373
▁수면제	-10.8373
▁2015	-10.8376
▁찬양	-10.8378
같애	-10.8379
농	-10.8382
▁재탕	-10.8384
▁시골	-10.8385
▁있겠지만	-10.8386
어떤	-10.8387
▁빠질	-10.8394
▁환장	-10.84
▁재밌었습니다	-10.8401
▁거짓	-10.8403
▁채우	-10.8406
▁성형	-10.8415
그런데	-10.8421
어쩌	-10.8423
▁최고에요	-10.8424
▁당연한	-10.8425
여주인공	-10.8427
▁브레	-10.843
▁시체	-10.8431
▁있어보이	-10.8436
▁커버	-10.8438
소름	-10.8438
▁모방	-10.8439
▁않습니다	-10.8441
올려	-10.8445
▁제대로된	-10.8448
▁불쌍해	-10.8449
할정도로	-10.8462
▁다가오	-10.8462
▁정체성	-10.8463
하겠지만	-10.8466
▁상업영화	-10.8478
구먼	-10.8478
▁구조	-10.8479
▁최고최고	-10.848
▁낮네요	-10.8484
im	-10.8491
▁출연자	-10.8512
ter	-10.8513
▁못만들	-10.8534
실화	-10.8545
녕	-10.8559
▁오랜	-10.8561
어설프	-10.8575
▁일깨워	-10.8579
냄	-10.8579
썰	-10.8581
ᄊ	-10.8581
▁박찬욱	-10.8581
▁흘렸	-10.8581
곁	-10.8581
륵	-10.8581
믄	-10.8581
ᄐ	-10.8581
▁겨울왕국	-10.8581
뜯	-10.8581
▁그냥저냥	-10.8581
▁손예진	-10.8581
▁나루토	-10.8581
▁어딘가	-10.8581
▁가슴아프	-10.8581
▁픽션	-10.8581
▁드니로	-10.8581
▁색채	-10.8581
▁귀찮	-10.8583
것같음	-10.8583
▁가까이	-10.8584
어지럽	-10.8585
▁새삼	-10.8585
▁호흡	-10.8585
▁생존	-10.8592
옷	-10.8593
덕분에	-10.8593
▁상식	-10.8594
그나마	-10.8595
▁간직	-10.8598
▁초반엔	-10.8599
ost	-10.86
▁개인적인	-10.86
▁게스트	-10.8605
줄알고	-10.8609
▁감정선	-10.8612
▁되었습니다	-10.8614
▁회상	-10.8618
▁시청자들	-10.8621
▁이런식으로	-10.8622
▁대결	-10.8624
▁마블	-10.8627
됬는데	-10.8628
질질끄	-10.863
좋아하는데	-10.8632
▁기대된다	-10.8633
▁미학	-10.8638
▁않아요	-10.864
??????	-10.8641
말도안되	-10.8641
아닌데	-10.8648
▁갖게	-10.8651
졌던	-10.8653
볼때	-10.866
회부터	-10.8663
▁회사	-10.8672
ma	-10.8679
▁재수없	-10.8689
▁점에서	-10.869
겠는가	-10.8691
▁흔하	-10.8696
▁만들었으면	-10.8714
높아	-10.872
삼류	-10.8723
▁스릴감	-10.8738
룬	-10.8774
댓	-10.8792
랍니다	-10.8793
Y	-10.8794
▁송승헌	-10.8794
▁아이언맨	-10.8794
▁영웅본색	-10.8794
쇄	-10.8794
숲	-10.8794
칫	-10.8794
턱	-10.8794
▁2.22	-10.8794
▁에드워드	-10.8794
▁흥미롭게	-10.8794
넷	-10.8794
▁팝콘	-10.8794
▁권상우	-10.8794
▁정주행	-10.8794
▁엉뚱	-10.8794
▁오페라	-10.8794
▁아바타	-10.8794
▁외로움	-10.8794
▁왕가위	-10.8794
▁엠마	-10.8794
▁거기서	-10.8795
▁지겨워	-10.8795
▁공룡	-10.8802
▁연습	-10.881
▁역사적	-10.8811
▁반갑	-10.8811
▁경악	-10.8814
▁멋져요	-10.8814
하려면	-10.8815
시청률	-10.8816
▁동화같은	-10.8816
▁심각하게	-10.8818
▁감동적이었다	-10.8821
초딩	-10.8823
▁귀여워서	-10.8825
▁좋더라	-10.8827
▁흉내내	-10.883
예술	-10.883
보지마세요	-10.8834
▁강추합니다	-10.8837
▁어린아이	-10.8839
▁만들었냐	-10.8845
▁레오	-10.8845
끝내	-10.885
▁대역	-10.8855
▁편인데	-10.8862
었을텐데	-10.8867
▁몰입하게	-10.8873
▁피식	-10.8873
▁구경	-10.8876
▁싶음	-10.8878
▁봐야한다	-10.89
충격	-10.8905
▁좋으	-10.8912
국민	-10.8918
▁확실하	-10.8936
누구	-10.8948
▁go	-10.8959
▁검색해	-10.8982
남기는데	-10.8995
팬이라	-10.8995
▁어울리	-10.8999
릅	-10.9011
▁군더더기	-10.9011
▁스필버그	-10.9011
▁점수준것들	-10.9011
룸	-10.9011
훔	-10.9011
▁구혜선	-10.9011
▁도라에몽	-10.9011
▁심리묘사	-10.9011
▁엉망진창	-10.9011
늬	-10.9011
즉	-10.9011
▁다이하드	-10.9011
▁어차피	-10.9011
▁나머진	-10.9011
▁최민수	-10.9011
▁흠잡을	-10.9011
▁보낸다	-10.9011
점준것중	-10.9011
▁다니엘	-10.9012
op	-10.9012
▁어설프게	-10.9012
▁택시	-10.9013
▁느껴졌	-10.9015
땜시	-10.9015
▁람보	-10.9015
▁커피	-10.9021
▁과장된	-10.9022
▁웃으며	-10.9022
▁치료	-10.9026
▁번역	-10.9026
▁반응	-10.9026
▁아깝습니다	-10.9034
▁뜬금없	-10.9041
쩝	-10.9042
▁힘들었다	-10.9044
▁결국엔	-10.9048
▁알바생	-10.9051
▁일찍	-10.9052
철학	-10.9056
▁웃다가	-10.9058
▁만드냐	-10.9064
▁공연	-10.9075
▁인연	-10.9075
평생	-10.9075
▁십점	-10.9077
▁말았다	-10.9078
▁오직	-10.9078
▁정석	-10.9086
▁인식	-10.9091
▁여유	-10.9092
큼	-10.9115
웃긴	-10.9151
잘못	-10.9175
▁미안해	-10.9184
깐	-10.9184
보기엔	-10.9186
▁나올까	-10.9187
밋	-10.9227
봇	-10.9232
▁싸이코패스	-10.9233
▁카메론	-10.9233
넓	-10.9233
녁	-10.9233
셜	-10.9233
▁가볍지	-10.9233
▁깨달음	-10.9233
▁예뻐서	-10.9233
▁김명민	-10.9233
▁지극히	-10.9233
▁멘탈	-10.9233
▁빠순이	-10.9233
스러울	-10.9234
▁흥미롭지	-10.9234
▁커녕	-10.9234
▁컬트	-10.9234
▁절묘	-10.9237
▁낮추	-10.924
할게요	-10.9242
▁오로라	-10.9243
▁패션	-10.9243
궁금해	-10.9245
▁산만하	-10.9246
▁욕나온다	-10.9246
▁국산	-10.9247
▁공허	-10.9249
▁300	-10.9251
▁졸잼	-10.9255
보신분	-10.9256
▁소품	-10.9257
▁못따라	-10.9261
▁향한	-10.9262
▁보는동안	-10.9263
▁기억난다	-10.9265
▁모순	-10.9265
취향	-10.9267
김구라	-10.9268
▁경계	-10.9268
▁우승	-10.9273
첫	-10.9273
갑자기	-10.9276
애니메이션	-10.9276
더럽게	-10.9276
않았다	-10.9281
결혼	-10.9281
▁불쌍해서	-10.9282
▁네이버평점	-10.9286
▁로마	-10.9296
▁꼭봐야	-10.9307
모델	-10.9309
입니까	-10.9326
▁바라보는	-10.9329
▁청년	-10.9333
원주고	-10.9336
▁환상적	-10.9358
▁풀어내	-10.9375
작가님	-10.9391
▁없으니	-10.9397
▁머리속	-10.941
으세요	-10.9442
남매	-10.9449
다시보고싶	-10.9451
보니깐	-10.9457
킥	-10.946
▁어쨌든	-10.946
▁학창시절	-10.946
삘	-10.946
쇠	-10.946
졋	-10.946
썬	-10.946
▁소피마르소	-10.946
▁힙합	-10.946
▁간간히	-10.9461
▁웬만하면	-10.9461
▁드래곤볼	-10.9461
▁데뷔작	-10.9461
▁지저분	-10.9461
▁손색이	-10.9461
▁이정재	-10.9461
▁쏘우	-10.9462
거같네요	-10.9462
▁가져다	-10.9463
▁흔적	-10.947
ᄒᄒᄒᄒᄒ	-10.947
▁밝혀	-10.9471
▁황금	-10.9472
▁열광	-10.9473
▁여태까지	-10.9475
▁빨간	-10.9477
▁지루했음	-10.9478
▁냉정	-10.948
▁에로물	-10.9484
▁중반부터	-10.9484
▁인권	-10.9485
▁감동적임	-10.9485
▁의견	-10.9488
▁당시엔	-10.9489
▁식상하다	-10.9497
▁시대적	-10.9503
▁향기	-10.9507
▁인간적으로	-10.951
옛날	-10.9514
마무리	-10.9515
▁있었습니다	-10.9522
▁이은주	-10.9523
실패	-10.9527
폭력	-10.9528
선생님	-10.9542
▁법정	-10.9545
취급	-10.9573
▁형식	-10.9595
▁돋보이	-10.9607
▁OOOO	-10.964
노출	-10.9641
▁알게된	-10.9654
▁좋구	-10.9662
것도아니고	-10.9662
▁보게되었	-10.9675
▁중학교	-10.9683
헨	-10.9693
밍	-10.9693
긍	-10.9693
▁엑스맨	-10.9693
쩡	-10.9693
▁기다렸	-10.9693
▁다크나이트	-10.9693
▁안타까웠	-10.9693
꾹	-10.9693
떳	-10.9693
▁국어책	-10.9693
▁미장센	-10.9693
▁김민종	-10.9693
▁초중반	-10.9693
▁최민식	-10.9693
▁콜린	-10.9694
▁전지현	-10.9694
▁틀림없	-10.9694
▁아련한	-10.9694
▁미친듯이	-10.9694
▁8.5	-10.9695
▁관람객	-10.9695
▁뉴스	-10.9695
▁강아지	-10.9696
▁말이필요없다	-10.9697
▁부끄러운	-10.9697
▁러브스토리	-10.9698
▁문득	-10.9698
▁안성기	-10.9699
▁출발	-10.9704
▁에릭	-10.9704
▁재방송	-10.9707
▁몰락	-10.9707
▁좋아하시는	-10.9708
▁신세계	-10.9709
▁시간아까워	-10.9711
▁뭐랄까	-10.9712
▁운동	-10.9713
▁이기적인	-10.9714
ly	-10.9715
▁신경쓰	-10.9723
▁적극	-10.9724
씩이나	-10.9725
▁더욱더	-10.9725
▁미술	-10.9726
▁소중하	-10.9733
▁없애	-10.9745
▁당당	-10.9752
▁성경	-10.9753
킬링타임	-10.9757
썩	-10.9757
무서운	-10.9758
오랜만에	-10.9758
꽝	-10.976
무서워	-10.9761
암튼	-10.9764
힘든	-10.9767
볼때마다	-10.9768
몇번	-10.9774
▁야하지도	-10.9792
천재	-10.9795
▁흐르	-10.984
▁데려다	-10.9847
끝날때까지	-10.9848
보였다	-10.9869
▁남자배우	-10.9888
▁깨닫	-10.9901
▁태어나	-10.9914
삽	-10.9931
뚜	-10.9931
▁MBC	-10.9931
▁새록새록	-10.9931
▁트랜스포머	-10.9931
▁흐지부지	-10.9931
겸	-10.9931
묶	-10.9931
봤을땐	-10.9931
헝	-10.9931
훗	-10.9931
▁오글거려서	-10.9931
▁차태현	-10.9931
▁박평식	-10.9931
▁황정민	-10.9931
끓	-10.9931
▁애국심	-10.9931
▁사무라이	-10.9931
▁신세경	-10.9931
▁멈추	-10.9931
▁임청하	-10.9931
▁엽문	-10.9931
▁함부로	-10.9931
▁이따구로	-10.9931
▁모자란	-10.9932
▁납치	-10.9932
▁증명	-10.9933
▁갖춘	-10.9933
파이팅	-10.9934
▁사라진	-10.9934
▁첫번째	-10.9935
▁농담	-10.9936
▁각각	-10.9938
▁중후반	-10.9938
▁197	-10.9939
▁꺼져	-10.9943
▁태양	-10.9944
▁아침드라마	-10.9945
▁허탈	-10.9946
▁피곤	-10.9946
▁돈아깝다	-10.9957
▁대학생	-10.9962
▁적당하다	-10.9963
▁모독	-10.9963
▁재미없었음	-10.9964
▁부각	-10.9964
▁초반부터	-10.997
▁의미없는	-10.9973
▁다시보게	-10.9983
웃겼음	-10.9986
▁호감	-10.9987
▁울림	-10.9988
중간에	-10.9995
스러웠다	-10.9998
짧	-11.0003
어울리는	-11.0007
특유의	-11.0008
우리나라	-11.0012
로맨스	-11.0012
▁환상적인	-11.0028
▁돌아오	-11.0045
▁없을까	-11.0056
억울	-11.0084
▁싶으면	-11.009
만들엇	-11.0094
만들지	-11.0132
년동안	-11.0141
▁따뜻함	-11.0143
즌	-11.0158
롯	-11.017
흉	-11.0175
펠	-11.0175
http	-11.0175
▁시끄럽	-11.0175
▁신데렐라	-11.0175
▁아카데미	-11.0175
▁톰크루즈	-11.0175
갇	-11.0175
뎌	-11.0175
줫	-11.0175
▁어설퍼	-11.0175
▁정확히	-11.0175
▁이탈리아	-11.0175
▁공중파	-11.0175
▁더더욱	-11.0175
▁오우삼	-11.0175
▁완죤	-11.0175
▁흑역사	-11.0175
찜찜	-11.0175
그나저나	-11.0175
▁장동건	-11.0175
▁어떠한	-11.0175
▁색다르	-11.0175
▁깜놀	-11.0175
▁2005	-11.0175
▁색깔	-11.0175
▁이연희	-11.0175
▁스킵	-11.0176
▁아쉬웠지만	-11.0177
깁니다	-11.0177
▁전도연	-11.0177
▁학살	-11.0177
밖엔	-11.018
▁감옥	-11.0181
ood	-11.0181
▁담담하	-11.0182
▁이민기	-11.0182
▁퇴보	-11.0183
▁댄스	-11.0183
▁돈낭비	-11.0185
▁히트	-11.0189
▁지브리	-11.019
▁복수극	-11.0191
▁많은것을	-11.0193
▁마틴	-11.0196
▁유령	-11.0199
▁단역	-11.02
▁백배	-11.0204
▁남친	-11.0208
역활	-11.0209
▁제왕	-11.021
▁만날	-11.021
▁틀어주	-11.0212
타령	-11.0239
모르겠다	-11.0256
수가없다	-11.0256
잘봤습니다	-11.0264
그래픽	-11.0265
ᄉᄇ	-11.0266
▁힘내	-11.027
▁낚였네	-11.0327
▁미스터	-11.0397
믹	-11.0421
▁이해되	-11.0424
끗	-11.0425
▁니콜라스	-11.0425
▁다세포소녀	-11.0425
▁매끄럽지	-11.0425
▁엉터리	-11.0425
▁윌리엄	-11.0425
▁인상깊게	-11.0425
딕	-11.0425
탠	-11.0425
펴	-11.0425
▁키아누	-11.0425
겄	-11.0425
▁아프리카	-11.0425
쉣	-11.0425
▁김태희	-11.0425
▁레이첼	-11.0425
▁소지섭	-11.0425
습니당	-11.0425
▁긴박감	-11.0425
▁윌리스	-11.0425
▁평점조절	-11.0425
▁ᄇᄉ	-11.0425
▁일어날	-11.0425
▁클라스	-11.0425
▁2003	-11.0425
▁솔까	-11.0426
▁잔잔하지만	-11.0426
▁젊음	-11.0426
▁강력추천	-11.0426
▁슬퍼요	-11.0427
▁보여줌	-11.0429
▁죽기전에	-11.0429
▁비교하면	-11.0429
▁경의를	-11.043
▁낚여서	-11.0431
할텐데	-11.0432
헌터	-11.0433
▁극찬	-11.0437
십니다	-11.0438
▁우롱	-11.0438
중딩	-11.0442
점도아깝다	-11.0442
▁영광	-11.0443
▁실패작	-11.0444
▁존잼	-11.0446
▁한번씩	-11.0447
▁재밌기만	-11.0448
▁질문	-11.0449
▁집단	-11.0451
▁드문	-11.0452
▁노튼	-11.0452
▁사람마다	-11.0452
▁직장	-11.0453
▁카피	-11.0457
▁무슨말이	-11.0457
ᄃᄃᄃᄃ	-11.0458
▁보러갔	-11.0459
▁유치하기	-11.0468
▁실화라는	-11.0478
생겼	-11.0507
60	-11.0514
가아니라	-11.0517
쫌	-11.0527
페이지	-11.056
스럽네	-11.0584
▁다음편	-11.0603
▁아쉬워	-11.0614
ᄍᄍᄍ	-11.0622
점만점	-11.0623
셉	-11.0681
뉘	-11.0681
앜	-11.0681
▁The	-11.0681
▁과대평가	-11.0681
깡	-11.0681
벙	-11.0681
윽	-11.0681
▁끝판왕	-11.0681
밨	-11.0681
▁가슴아픈	-11.0681
▁여기저기	-11.0682
▁다운로드	-11.0682
▁정당화	-11.0682
▁찬사를	-11.0682
▁고마운	-11.0682
▁2004	-11.0682
▁징징	-11.0682
▁의외의	-11.0682
▁사기꾼	-11.0683
▁안타깝네요	-11.0683
▁7.5	-11.0683
▁사라져	-11.0683
▁노골적	-11.0684
징그러	-11.0686
▁초능력	-11.0686
PD	-11.0686
▁담백하	-11.0686
▁원작소설	-11.0687
▁상당한	-11.0688
▁존경합니다	-11.0692
▁장혁	-11.0695
노동자	-11.0697
것같습니다	-11.0699
▁울었습니다	-11.0713
▁재미나게	-11.0715
클럽	-11.0738
작렬	-11.0741
▁하던가	-11.0742
갔으면	-11.0791
이아니라	-11.0796
귀여워	-11.0796
▁꺼내	-11.0797
촬영	-11.08
ᅲᅲᅲᅲᅲᅲᅲ	-11.0801
영웅	-11.0818
볼껄	-11.0901
▁부끄러	-11.094
▁굳굳	-11.0942
낌	-11.0942
쎄	-11.0943
뱅	-11.0944
뷔	-11.0944
띵	-11.0945
드래곤	-11.0945
▁미야자키	-11.0945
▁인종차별	-11.0945
▁팀버튼	-11.0945
뎁	-11.0945
럿	-11.0945
릉	-11.0945
빤	-11.0945
쏙	-11.0945
코스프레	-11.0945
▁송지효	-11.0945
▁2013	-11.0945
▁모성애	-11.0945
▁뉴욕	-11.0945
▁타이틀	-11.0945
▁아이러니	-11.0945
▁성유리	-11.0945
▁혹평	-11.0945
▁짐승	-11.0946
▁눈요기	-11.0948
▁스토리라인	-11.0949
▁억지설정	-11.0951
▁바꾼	-11.0952
▁어딜	-11.0953
창있네	-11.0953
▁지나친	-11.0955
▁성찰	-11.0958
였으나	-11.0959
▁제정신	-11.0959
▁대표적인	-11.0961
겁니까	-11.0961
▁요약	-11.0962
▁절반	-11.0964
▁몇번이나	-11.0964
▁어린이들	-11.0964
▁주관적	-11.0971
▁우왕	-11.0973
▁알려준	-11.0979
▁초등학교때	-11.0986
합니까	-11.1018
떨어졌	-11.102
지마시길	-11.1028
아름다운	-11.1076
필름	-11.1086
▁광팬	-11.1089
123	-11.1102
활동	-11.1103
90	-11.1113
▁표정연기	-11.1144
▁끝날때	-11.1189
별반개도	-11.1191
섯	-11.1195
둡	-11.1215
▁송혜교	-11.1215
욬	-11.1215
▁드림웍스	-11.1215
▁똑바로	-11.1215
▁모티브	-11.1215
둬	-11.1215
맷	-11.1215
웰	-11.1215
켈	-11.1215
핏	-11.1215
▁클린트	-11.1215
펀	-11.1215
▁뚝뚝	-11.1215
▁절제된	-11.1215
▁자본주의	-11.1215
▁어둡고	-11.1215
▁조승우	-11.1215
▁태어난	-11.1215
▁오인혜	-11.1215
▁정신나간	-11.1215
▁강지환	-11.1215
▁임수정	-11.1215
▁사로잡	-11.1215
▁닥터	-11.1215
▁감수성	-11.1216
▁힘내세요	-11.1216
▁best	-11.1216
ᄂᄂ	-11.1218
▁춤추	-11.122
▁휴먼	-11.1222
▁접근	-11.1222
▁잃어	-11.1224
▁가해자	-11.1225
▁못생겼	-11.1226
▁출현	-11.1226
▁토끼	-11.1234
따윈	-11.1235
라이브	-11.1236
▁확실한	-11.1237
일수도	-11.1245
▁향해	-11.1354
왜이래	-11.1361
한마디로	-11.1361
챙겨	-11.1366
낚였	-11.1368
짓거리	-11.1415
뿔	-11.1483
첩	-11.149
뜩	-11.1492
펑	-11.1492
▁ebs	-11.1493
툰	-11.1493
▁고스란히	-11.1493
▁뮤직비디오	-11.1493
▁파워레인저	-11.1493
탭	-11.1493
▁양동근	-11.1493
mbc	-11.1493
▁원주율	-11.1493
▁뜨거운	-11.1493
▁주상욱	-11.1493
▁헷갈	-11.1493
▁홍금보	-11.1493
▁나쁘진	-11.1493
▁두려움	-11.1493
▁한쿡영화	-11.1493
떄문에	-11.1493
▁환타지	-11.1493
▁비정상	-11.1493
▁깨달았	-11.1493
▁유지태	-11.1493
▁담아내	-11.1493
▁신민아	-11.1493
▁웅장	-11.1494
▁잃어버린	-11.1495
▁무너지	-11.1495
앵글	-11.1496
▁가끔씩	-11.1497
배속으로	-11.1497
▁즐겁고	-11.1498
▁놀랬	-11.1498
▁비롯	-11.1498
▁비싼	-11.1501
▁사라졌	-11.1502
▁그럼에도	-11.1502
왜이럼	-11.1502
▁넘어선	-11.1509
▁틈이	-11.1511
▁선정적	-11.1515
▁중학교때	-11.1523
영화관에서	-11.1543
▁몰입되	-11.1567
▁다시보고싶은	-11.1596
▁사랑스럽	-11.1597
쭉	-11.1653
저예산	-11.1655
개연성	-11.1655
라기보다	-11.1659
네이버	-11.1662
흐름	-11.1664
est	-11.1694
▁첨이네	-11.173
▁어이가없	-11.1733
낄	-11.1777
쯧	-11.1778
▁어마어마	-11.1778
▁어우러진	-11.1778
▁인터뷰	-11.1778
▁임권택	-11.1778
▁컨저링	-11.1778
▁클리셰	-11.1778
꺄	-11.1778
쌩뚱맞	-11.1778
▁서프라이즈	-11.1778
▁엉덩이	-11.1778
꼇	-11.1778
넼	-11.1778
▁일베충	-11.1778
꿨	-11.1778
▁말았어야	-11.1778
▁흥미롭고	-11.1778
▁김강우	-11.1778
▁스티브	-11.1778
▁구역질	-11.1779
▁불후의	-11.1779
▁암걸리	-11.1779
▁언론	-11.178
▁이범수	-11.178
▁아동용	-11.178
XX	-11.1781
▁퍼즐	-11.1781
▁증말	-11.1781
▁알게해준	-11.1782
▁특징	-11.1783
up	-11.1784
▁움직이는	-11.1787
ul	-11.1787
▁친절	-11.1788
▁은퇴	-11.1789
▁이나영	-11.1791
마인드	-11.1794
점대라니	-11.1795
▁전투씬	-11.1858
고싶지	-11.1909
볼걸	-11.1942
완벽	-11.1964
교육	-11.1968
▁던지는	-11.198
언젠	-11.2072
▁서스펜스	-11.2072
▁에일리언	-11.2072
▁용두사미	-11.2072
▁웹툰	-11.2072
▁펭귄	-11.2072
▁허무맹랑	-11.2072
텀	-11.2072
▁놀래키	-11.2072
▁줄리엣	-11.2072
▁베트남	-11.2073
▁멘붕	-11.2073
▁지났지만	-11.2073
▁큐브	-11.2073
▁자세히	-11.2073
▁세련되	-11.2073
▁No	-11.2073
▁일요일	-11.2073
씨리즈	-11.2073
▁러셀	-11.2073
귀요미	-11.2075
▁어울려	-11.2075
▁일깨워주는	-11.2076
▁영화자체는	-11.2077
▁이해안가	-11.2077
▁푸른	-11.2078
▁알았더니	-11.2081
재밋게봣	-11.2081
▁빠져드는	-11.2081
싶을때	-11.2085
▁지루했어요	-11.2086
▁역쉬	-11.2087
ap	-11.209
▁닮아	-11.2091
▁산만한	-11.2092
▁돌려줘	-11.2095
ᅲᅲᅲᅲᅲᅲ	-11.2097
▁소름돋았	-11.2101
있을때	-11.2142
▁볼거없	-11.2152
▁사나이	-11.2157
야되는데	-11.2167
톰	-11.2265
낙	-11.2269
느와르	-11.227
이쁘고	-11.2276
왜이리	-11.2276
이쁘다	-11.2281
쿡	-11.2375
렴	-11.2375
캡	-11.2375
뱉	-11.2375
엎	-11.2375
▁ocn	-11.2376
▁기대됩니다	-11.2376
▁내러티브	-11.2376
▁보냅니다	-11.2376
▁오리지널	-11.2376
▁인터스텔라	-11.2376
▁크리스토퍼	-11.2376
긔	-11.2376
뒀	-11.2376
뺨	-11.2376
쉰	-11.2376
쌩	-11.2376
재밌게봤습니다	-11.2376
짬	-11.2376
췄	-11.2376
톨	-11.2376
▁장근석	-11.2376
▁재발견	-11.2376
▁오타쿠	-11.2376
▁어울린다	-11.2376
▁박신양	-11.2376
▁삽입	-11.2376
▁관람불가	-11.2376
▁하이킥	-11.2376
▁엉엉	-11.2376
▁ᄅᄋ	-11.2376
▁빅뱅	-11.2376
▁저절로	-11.2376
▁가르쳐	-11.2376
깎	-11.2592
률	-11.2687
댐	-11.2688
핳	-11.2688
쌈	-11.2688
쏠	-11.2688
흙	-11.2688
Z	-11.2688
눠	-11.2688
댕	-11.2688
륙	-11.2688
샷	-11.2688
웩	-11.2688
콕	-11.2688
q	-11.2688
낳	-11.2926
씁	-11.3008
ᅦ	-11.3011
샹	-11.3011
숫	-11.3011
쿄	-11.3011
댈	-11.3011
됌	-11.3011
쌀	-11.3011
엌	-11.3011
팡	-11.3011
펄	-11.3011
샀	-11.3011
뽑	-11.3262
끊	-11.3265
꽂	-11.3344
냅	-11.3344
됴	-11.3344
샬	-11.3344
칩	-11.3344
횽	-11.3344
깁	-11.3687
훼	-11.3689
듀	-11.3689
킷	-11.3689
탔	-11.3689
햄	-11.3689
샌	-11.3689
촉	-11.3689
W	-11.3997
캬	-11.3997
녹	-11.3997
넌	-11.3998
뀌	-11.4042
쵝	-11.4046
죤	-11.4046
ᄑ	-11.4046
뺀	-11.4046
솟	-11.4046
슐	-11.4046
젓	-11.4046
쫙	-11.4046
쬐	-11.4046
멕	-11.4046
씌	-11.4046
엣	-11.4046
욜	-11.4046
뻘	-11.4046
귓	-11.4416
쑤	-11.4416
욧	-11.4416
췌	-11.4416
힛	-11.4416
괘	-11.4416
뇨	-11.4416
돕	-11.4416
쌔	-11.4416
궈	-11.4416
웬	-11.4782
짠	-11.4783
꽤	-11.4784
펐	-11.48
갸	-11.4801
좁	-11.4801
짖	-11.4801
롬	-11.4801
썽	-11.4801
쨩	-11.4801
쪄	-11.4801
덥	-11.4801
잭	-11.5198
빅	-11.5198
훌	-11.5201
꿋	-11.5201
밭	-11.5201
쌤	-11.5201
퍽	-11.5201
ᅭ	-11.5201
씽	-11.5201
얹	-11.5201
훅	-11.5201
륭	-11.5617
엥	-11.5618
댔	-11.5618
윙	-11.5618
갤	-11.5618
꼼	-11.5618
햐	-11.5618
밌	-11.6046
뛴	-11.6052
셰	-11.6052
얕	-11.6052
쵸	-11.6052
캅	-11.6052
핍	-11.6052
깬	-11.6052
늠	-11.6052
뤽	-11.6052
몹	-11.6052
붓	-11.6052
횡	-11.6052
옵	-11.6505
뭥	-11.6506
뎈	-11.6507
Q	-11.6507
깽	-11.6507
뜰	-11.6507
붐	-11.6507
썅	-11.6507
윗	-11.6507
낰	-11.6507
낱	-11.6507
얌	-11.6507
쟝	-11.6507
퀼	-11.6507
힝	-11.6507
걱	-11.6982
캔	-11.6983
ᅧ	-11.6983
겜	-11.6983
밸	-11.6983
곸	-11.6983
굼	-11.6983
됀	-11.6983
웁	-11.6983
짭	-11.6983
앳	-11.6983
팜	-11.6983
휼	-11.6983
헬	-11.7064
밝	-11.7065
떤	-11.7452
펙	-11.7476
찜	-11.7483
ᅣ	-11.7483
힙	-11.7483
꿉	-11.7483
뚤	-11.7483
꾀	-11.7483
뱃	-11.7483
쑈	-11.7483
젬	-11.7483
텍	-11.7483
싯	-11.7483
융	-11.7483
뵈	-11.7483
냉	-11.759
맡	-11.7591
푹	-11.7591
촬	-11.8004
얔	-11.8009
빔	-11.8009
댜	-11.8009
돠	-11.8009
샴	-11.8009
섰	-11.8009
빽	-11.8009
늑	-11.8564
첼	-11.8565
쿤	-11.8565
땟	-11.8565
떴	-11.8565
쁠	-11.8565
쉘	-11.8565
욘	-11.8565
읎	-11.8565
쟤	-11.8565
짚	-11.8565
쾅	-11.8565
퀘	-11.8565
욯	-11.8565
캣	-11.8565
갚	-11.9153
넉	-11.9153
뇬	-11.9153
댁	-11.9153
뭍	-11.9153
웡	-11.9153
웹	-11.9153
퉷	-11.9153
훤	-11.9153
걔	-11.9153
룻	-11.9153
맬	-11.9153
숴	-11.9153
귄	-11.9153
뺐	-11.9153
훨	-11.9359
됏	-11.9778
젝	-11.9778
괄	-11.9778
뤠	-11.9778
죵	-11.9778
챔	-11.9778
핰	-11.9778
뮬	-11.9778
좃	-11.9778
쨔	-11.9778
꿰	-11.9778
곧	-12.0026
헛	-12.0026
쩐	-12.0344
헷	-12.0445
쏜	-12.0445
넥	-12.0445
뿍	-12.0445
슥	-12.0445
쪙	-12.0445
겅	-12.0445
겔	-12.0445
믓	-12.0445
벡	-12.0445
뿅	-12.0445
첸	-12.0445
풉	-12.0445
킁	-12.0445
땜	-12.1047
홉	-12.1159
껌	-12.1159
끽	-12.1159
넴	-12.1159
잌	-12.1159
굽	-12.1159
륨	-12.1159
뷁	-12.1159
뺑	-12.1159
쒯	-12.1159
잰	-12.1159
찼	-12.1159
쳇	-12.1159
칵	-12.1159
텨	-12.1159
툴	-12.1159
퐁	-12.1159
휙	-12.1159
흣	-12.1159
눅	-12.1159
얍	-12.1159
썹	-12.1159
넝	-12.1928
꼐	-12.1928
꽈	-12.1928
돔	-12.1928
뒹	-12.1928
렜	-12.1928
섀	-12.1928
쫑	-12.1928
챈	-12.1928
굶	-12.1928
넛	-12.1928
볶	-12.1928
샵	-12.1928
춥	-12.1928
깼	-12.1928
멱	-12.2762
괸	-12.2762
냔	-12.2762
넨	-12.2762
눕	-12.2762
왁	-12.2762
헿	-12.2762
갯	-12.2762
뎃	-12.2762
뻗	-12.2762
뿡	-12.2762
욥	-12.2762
졷	-12.2762
캄	-12.2762
콱	-12.2762
팰	-12.2762
햅	-12.2762
끙	-12.2762
컥	-12.3668
혓	-12.3671
컵	-12.3671
곀	-12.3671
궤	-12.3671
랖	-12.3671
벳	-12.3671
읭	-12.3671
줏	-12.3671
꺠	-12.3671
밓	-12.3671
쑥	-12.3671
뒈	-12.3671
뒷	-12.4253
봅	-12.4668
잎	-12.4669
잦	-12.4671
갘	-12.4671
닛	-12.4671
앰	-12.4671
ᆪ	-12.4671
깟	-12.4671
놉	-12.4671
딛	-12.4671
딥	-12.4671
떵	-12.4671
짰	-12.4671
쨰	-12.4671
쫘	-12.4671
펭	-12.4671
ᄈ	-12.4671
쒸	-12.4671
롹	-12.4671
눔	-12.4671
옛	-12.536
쫓	-12.5362
뭣	-12.5363
킵	-12.7028
웍	-12.7032
밈	-12.846
퀀	-12.846
굉	-13.2127
챤	-13.4482
쥑	-13.4483
잴	-13.4484
윅	-13.4485
땔	-13.4486
닠	-13.4487
놧	-13.4488
뀜	-13.4489
껑	-13.449
홥	-13.4491
헴	-13.4492
촛	-13.4493
앍	-13.4494
쎈	-13.4495
뉜	-13.4496
훑	-13.4497
샛	-13.4498
덱	-13.4499
낍	-13.45
괞	-13.4501
휠	-13.4502
헠	-13.4503
츤	-13.4504
좔	-13.4505
꺾	-13.4506
횟	-13.4507
핥	-13.4508
폄	-13.4509
큽	-13.451
옜	-13.4511
샐	-13.4512
쁩	-13.4513
멧	-13.4514
뀔	-13.4515
휩	-13.4516
큘	-13.4517
콥	-13.4518
촘	-13.4519
뺴	-13.452
멎	-13.4521
핡	-13.4522
뵙	-13.4523
꺽	-13.4524
긁	-13.4525
딪	-13.4526
릎	-13.4527
낡	-13.4528
펏	-13.4529
슌	-13.453
씻	-13.4531
녔	-13.4532
꺅	-13.4533
굵	-13.4534
뤘	-13.4535
쿼	-13.4536
셸	-13.4537
닳	-13.4538
켠	-13.4539
쥔	-13.454
왼	-13.4541
닦	-13.4542
픕	-13.4543
탤	-13.4544
딨	-13.4545
흰	-13.4546
넋	-13.4547
빚	-13.4548
꽥	-13.4549
룹	-13.455
뀐	-13.4551
뭡	-13.4552
얽	-13.4553
앓	-13.4554
썻	-13.4555
쫒	-13.4556
쨋	-13.4557
껍	-13.4558
텅	-13.4559
꽉	-13.456
붉	-13.4561
땠	-13.4562
멤	-13.4563
둠	-13.4564
홧	-13.4565
밟	-13.4566
겻	-13.4567
틋	-13.4568
뿜	-13.4569
빕	-13.457
컸	-13.4571
뻣	-13.4572
옮	-13.4573
셧	-13.4574
핸	-13.4575
맑	-13.4576
뭇	-13.4577
찢	-13.4578
켰	-13.4579
엮	-13.458
팠	-13.4581
땀	-13.4582
쨌	-13.4583
쫄	-13.4584
틸	-13.4585
펼	-13.4586
띄	-13.4587
겪	-13.4588
껐	-13.4589
왤	-13.459
뻤	-13.4591
쏟	-13.4592
닙	-13.4593
딧	-13.4594
듭	-13.4595
꿔	-13.4596
섞	-13.4597
획	-13.4598
겉	-13.4599
줍	-13.46
쁨	-13.4601
늙	-13.4602
됩	-13.4603
늦	-13.4604
볍	-13.4605
찝	-13.4606
꼈	-13.4607
묻	-13.4608
똑	-13.4609
랐	-13.461
앞	-13.4611
깊	-13.4612
떻	-13.4613
렸	-13.4614
렇	-13.4615
봤	-13.4616
슷	-13.4616
