<pad>	0
<unk>	0
<s>	0
</s>	0
..	-0
영화	-1
▁영화	-2
▁이	-3
▁아	-4
...	-5
ᄏᄏ	-6
▁그	-7
▁보	-8
▁재	-9
!!	-10
▁정	-11
니다	-12
▁나	-13
는데	-14
너무	-15
▁다	-16
▁하	-17
▁좋	-18
▁없	-19
▁어	-20
▁너무	-21
▁사	-22
▁내	-23
▁감	-24
▁진	-25
▁연	-26
....	-27
▁있	-28
▁재미	-29
▁지	-30
으로	-31
지만	-32
하고	-33
▁한	-34
▁시	-35
▁1	-36
네요	-37
▁최	-38
▁안	-39
▁스	-40
▁정말	-41
▁만	-42
▁가	-43
에서	-44
▁기	-45
▁재밌	-46
▁봤	-47
▁평	-48
▁대	-49
▁전	-50
▁진짜	-51
▁연기	-52
▁마	-53
하는	-54
▁무	-55
▁모	-56
▁수	-57
▁여	-58
▁생	-59
▁잘	-60
▁주	-61
어요	-62
▁않	-63
▁더	-64
▁최고	-65
▁평점	-66
▁오	-67
드라	-68
토리	-69
▁제	-70
▁개	-71
▁이런	-72
▁인	-73
ᄏᄏᄏᄏ	-74
이다	-75
습니다	-76
▁배	-77
▁말	-78
하다	-79
드라마	-80
▁생각	-81
▁왜	-82
▁자	-83
들이	-84
▁같	-85
▁스토리	-86
▁소	-87
▁못	-88
▁남	-89
▁알	-90
▁본	-91
▁유	-92
▁느	-93
까지	-94
▁미	-95
ᅲᅲ	-96
▁감동	-97
▁보고	-98
▁볼	-99
▁일	-100
하게	-101
▁비	-102
▁것	-103
▁장	-104
이라	-105
▁우	-106
▁별	-107
보다	-108
었다	-109
▁쓰	-110
▁드라마	-111
▁지루	-112
▁많	-113
▁2	-114
▁ᄏᄏ	-115
▁작	-116
??	-117
▁중	-118
▁배우	-119
▁부	-120
▁그냥	-121
▁공	-122
▁10	-123
▁사람	-124
▁조	-125
▁뭐	-126
▁아니	-127
▁재미있	-128
해서	-129
면서	-130
▁내용	-131
레기	-132
▁역	-133
▁완	-134
▁감독	-135
▁만들	-136
▁끝	-137
▁저	-138
▁애	-139
▁좀	-140
적인	-141
다는	-142
렇게	-143
▁고	-144
리고	-145
▁해	-146
▁사랑	-147
▁명	-148
▁참	-149
▁반	-150
▁재미없	-151
▁웃	-152
▁되	-153
▁보는	-154
▁쓰레기	-155
▁영	-156
▁예	-157
▁영화를	-158
▁결	-159
▁봐	-160
보고	-161
▁다시	-162
▁신	-163
지막	-164
ᄒᄒ	-165
액션	-166
▁좋은	-167
▁시간	-168
▁거	-169
▁상	-170
▁매	-171
라고	-172
▁싶	-173
▁좋아	-174
▁눈	-175
으면	-176
▁처	-177
▁실	-178
입니다	-179
▁바	-180
▁이거	-181
▁3	-182
▁노	-183
▁불	-184
▁영화가	-185
들의	-186
▁작품	-187
▁영화는	-188
▁원	-189
지는	-190
▁살	-191
▁봤는데	-192
▁없는	-193
▁의	-194
▁마지막	-195
▁이건	-196
하지	-197
▁난	-198
OO	-199
▁내가	-200
인공	-201
▁액션	-202
▁완전	-203
▁기대	-204
다가	-205
▁최고의	-206
▁좋았	-207
▁있는	-208
!!!	-209
▁코	-210
▁도	-211
▁하나	-212
▁넘	-213
▁할	-214
▁성	-215
다고	-216
야기	-217
▁처음	-218
어서	-219
▁죽	-220
▁한국	-221
▁때	-222
▁몰	-223
▁지금	-224
▁추	-225
없는	-226
▁후	-227
적이	-228
세요	-229
▁없다	-230
같은	-231
했다	-232
▁김	-233
▁현	-234
▁나오	-235
인데	-236
들은	-237
▁하는	-238
▁괜	-239
▁이렇게	-240
!!!!	-241
▁강	-242
▁또	-243
▁이게	-244
▁극	-245
▁모르	-246
에게	-247
▁세	-248
라는	-249
▁최악	-250
대로	-251
▁허	-252
합니다	-253
▁연출	-254
적으로	-255
ᅳᅳ	-256
이나	-257
▁이해	-258
▁멋	-259
▁.	-260
부터	-261
▁초	-262
겠다	-263
▁관	-264
▁위	-265
▁돈	-266
▁분	-267
▁로	-268
▁아깝	-269
있는	-270
▁짜	-271
▁화	-272
▁두	-273
▁동	-274
▁느낌	-275
▁심	-276
▁구	-277
▁역시	-278
▁별로	-279
▁명작	-280
한다	-281
▁음	-282
▁우리	-283
▁따	-284
▁이야기	-285
▁뭔	-286
▁했	-287
▁기억	-288
▁캐	-289
연기	-290
▁평점이	-291
▁재밌게	-292
▁잼	-293
되는	-294
▁아이	-295
▁에	-296
▁당	-297
▁많이	-298
▁그래	-299
정도	-300
▁괜찮	-301
▁들	-302
▁이영화	-303
▁그리고	-304
▁여자	-305
▁장면	-306
주는	-307
▁잔	-308
지도	-309
▁요	-310
배우	-311
▁발	-312
▁엄	-313
▁와	-314
▁아름	-315
문에	-316
▁만든	-317
▁그런	-318
▁막	-319
리는	-320
▁아까	-321
▁주인공	-322
▁꼭	-323
▁포	-324
▁차	-325
▁특	-326
▁귀	-327
▁보여	-328
았다	-329
▁단	-330
▁같은	-331
사람	-332
▁공포	-333
▁설	-334
▁마음	-335
▁아닌	-336
▁슬	-337
▁박	-338
만에	-339
▁울	-340
드는	-341
▁일본	-342
▁존	-343
재미	-344
▁졸	-345
것도	-346
▁유치	-347
필요	-348
▁줄	-349
▁표	-350
▁무슨	-351
을까	-352
아서	-353
▁..	-354
▁아무	-355
하나	-356
▁ᄏᄏᄏ	-357
▁망	-358
▁서	-359
가는	-360
▁점	-361
▁현실	-362
없이	-363
▁결말	-364
▁없고	-365
ᄏᄏᄏᄏᄏᄏᄏᄏ	-366
........	-367
▁ᅲᅲ	-368
었는데	-369
▁힘	-370
▁소재	-371
▁몰입	-372
▁가장	-373
하기	-374
▁과	-375
▁누	-376
00	-377
▁다른	-378
였다	-379
▁볼만	-380
진짜	-381
ᄏᄏᄏ	-382
▁이상	-383
▁흥	-384
인가	-385
▁보면	-386
▁보기	-387
시간	-388
▁반전	-389
없다	-390
▁남자	-391
▁속	-392
▁절	-393
나는	-394
니까	-395
▁매력	-396
▁스릴	-397
▁뻔	-398
▁짱	-399
▁얼	-400
하면	-401
▁애니	-402
▁OO	-403
▁ᄒᄒ	-404
▁걸	-405
▁빠	-406
▁가슴	-407
▁원작	-408
구나	-409
▁리	-410
▁선	-411
▁짜증	-412
ᅮᅮ	-413
▁아깝다	-414
인지	-415
▁낮	-416
보는	-417
▁솔	-418
▁눈물	-419
미디	-420
▁말이	-421
▁영화다	-422
▁ᄏ	-423
스럽	-424
▁맞	-425
▁억	-426
이고	-427
하지만	-428
▁방	-429
▁긴	-430
▁정도	-431
▁대한	-432
봐도	-433
▁충	-434
▁계	-435
는다	-436
는지	-437
▁높	-438
▁드	-439
▁음악	-440
▁인생	-441
▁영상	-442
▁있다	-443
▁전개	-444
릭터	-445
▁인간	-446
려고	-447
▁만들어	-448
▁9	-449
었던	-450
▁4	-451
재밌	-452
▁솔직	-453
아요	-454
지않	-455
▁몇	-456
스러	-457
▁많은	-458
더라	-459
▁머	-460
▁집	-461
▁극장	-462
지마	-463
지고	-464
▁순	-465
▁건	-466
에는	-467
▁모든	-468
리즈	-469
▁8	-470
▁한번	-471
▁간	-472
▁적	-473
▁아름다	-474
▁필요	-475
나서	-476
▁게	-477
▁돌	-478
▁아직	-479
▁듯	-480
▁억지	-481
▁피	-482
처럼	-483
▁근	-484
▁끝까지	-485
메이	-486
▁새	-487
▁하고	-488
▁ᅳᅳ	-489
▁7	-490
▁!	-491
▁문	-492
▁...	-493
▁욕	-494
밖에	-495
▁수준	-496
다니	-497
점이	-498
▁찾	-499
▁하지만	-500
▁편	-501
▁올	-502
었음	-503
▁파	-504
나오	-505
▁언	-506
▁5	-507
▁프	-508
▁솔직히	-509
▁봐도	-510
떨어	-511
▁전혀	-512
들을	-513
▁외	-514
▁받	-515
▁행	-516
▁이제	-517
중에	-518
스터	-519
▁뭔가	-520
정말	-521
▁열	-522
▁모두	-523
된다	-524
▁아주	-525
▁찍	-526
떻게	-527
▁추천	-528
는거	-529
했던	-530
▁딱	-531
▁캐릭터	-532
▁경	-533
▁여운	-534
▁코미디	-535
▁연기력	-536
▁재밋	-537
▁호	-538
▁공감	-539
나라	-540
▁엄청	-541
▁ᄏᄏᄏᄏ	-542
이는	-543
▁같다	-544
▁긴장	-545
▁실망	-546
▁치	-547
리가	-548
준다	-549
▁독	-550
▁갈	-551
기도	-552
장면	-553
타임	-554
.....	-555
주고	-556
▁좋다	-557
▁달	-558
▁약	-559
▁버	-560
▁대박	-561
▁봤다	-562
▁배우들	-563
▁출	-564
을때	-565
스트	-566
▁가족	-567
▁놀	-568
▁크	-569
▁개봉	-570
▁나온	-571
▁먹	-572
▁손	-573
건지	-574
▁굿	-575
▁답	-576
▁믿	-577
▁대단	-578
이랑	-579
▁레	-580
▁최악의	-581
에도	-582
이지	-583
▁어떻게	-584
▁교	-585
친구	-586
▁영화의	-587
▁엉	-588
생각	-589
▁이걸	-590
▁재미있게	-591
라도	-592
▁계속	-593
▁함	-594
주인공	-595
▁내내	-596
만들	-597
수록	-598
때문에	-599
▁악	-600
▁흥미	-601
했는데	-602
▁야	-603
▁대사	-604
▁표현	-605
▁잔잔	-606
없고	-607
이가	-608
▁영화에	-609
▁등	-610
▁않고	-611
▁질	-612
영화는	-613
하네요	-614
감독	-615
수가	-616
▁어디	-617
▁20	-618
▁그래도	-619
엔딩	-620
▁제목	-621
던데	-622
▁아니라	-623
▁즐	-624
기는	-625
었어요	-626
있다	-627
점도	-628
어야	-629
▁모습	-630
▁아쉽	-631
▁물	-632
이라는	-633
▁싸	-634
▁카	-635
내내	-636
봤는데	-637
▁삶	-638
▁내용이	-639
▁떨어	-640
▁스릴러	-641
▁않은	-642
▁나오는	-643
▁0	-644
▁재밌다	-645
▁연기가	-646
아니	-647
▁아쉬	-648
▁잊	-649
하네	-650
▁보다	-651
▁그렇	-652
▁베	-653
▁잠	-654
▁조금	-655
보면	-656
전에	-657
기에	-658
라리	-659
한테	-660
▁담	-661
▁기분	-662
▁아니다	-663
성이	-664
▁근데	-665
▁진심	-666
▁막장	-667
▁느껴	-668
▁긴장감	-669
▁봐야	-670
리오	-671
어도	-672
▁개인	-673
▁네	-674
▁요즘	-675
리스	-676
▁제대로	-677
▁메	-678
▁앞	-679
▁자체	-680
영화가	-681
▁시리즈	-682
만큼	-683
최고	-684
스토리	-685
▁연기도	-686
내용	-687
해요	-688
▁아름다운	-689
들도	-690
▁오랜	-691
▁천	-692
하면서	-693
▁제일	-694
▁떠	-695
▁홍	-696
대체	-697
으나	-698
▁부족	-699
이라고	-700
같다	-701
▁알바	-702
▁중간	-703
▁재미도	-704
▁만드는	-705
ᄃᄃ	-706
▁제작	-707
▁웃기	-708
▁내용도	-709
인듯	-710
▁정신	-711
▁미국	-712
▁보다가	-713
훌륭	-714
▁스토리가	-715
▁데	-716
▁노래	-717
▁나는	-718
▁아까운	-719
▁ᅲ	-720
이상	-721
▁나름	-722
기가	-723
▁않는	-724
▁목	-725
▁날	-726
▁이유	-727
치는	-728
▁국	-729
▁형	-730
▁감독이	-731
년대	-732
▁어설	-733
▁잼있	-734
▁디	-735
▁각	-736
▁나왔	-737
▁시작	-738
▁타	-739
만한	-740
이란	-741
난다	-742
▁아니고	-743
▁삼	-744
▁!!	-745
▁6	-746
▁때문에	-747
▁그러	-748
▁로맨	-749
▁보고싶	-750
▁왜이	-751
거리	-752
▁절대	-753
▁복	-754
점은	-755
진다	-756
▁나와	-757
▁싶다	-758
ᄍᄍ	-759
마다	-760
할수	-761
▁훌륭	-762
▁영화라고	-763
군요	-764
해도	-765
▁너무나	-766
라이	-767
▁보게	-768
▁모르겠	-769
▁뒤	-770
▁남는	-771
▁특히	-772
▁시간이	-773
▁통	-774
▁케	-775
▁킬	-776
▁될	-777
▁작가	-778
스팅	-779
▁된	-780
▁살아	-781
▁싶은	-782
▁출연	-783
▁감정	-784
▁재미없다	-785
▁티	-786
▁영화로	-787
▁의미	-788
▁아직도	-789
▁따뜻	-790
이네	-791
▁뻔한	-792
▁글	-793
적이고	-794
▁스토리도	-795
▁느끼	-796
▁세상	-797
▁차라리	-798
나고	-799
▁수작	-800
영화를	-801
▁여운이	-802
에요	-803
았는데	-804
▁나도	-805
나리오	-806
기를	-807
더니	-808
▁그저	-809
▁C	-810
나요	-811
로운	-812
▁신선	-813
▁뭘	-814
으로도	-815
하는데	-816
스러운	-817
▁영화입니다	-818
▁어이	-819
▁황	-820
▁보면서	-821
학교	-822
▁안되	-823
▁도대체	-824
▁?	-825
▁걍	-826
▁무엇	-827
▁얼마	-828
▁주는	-829
▁친구	-830
었습니다	-831
▁괜찮은	-832
▁산	-833
▁어린	-834
▁장난	-835
▁행복	-836
▁희	-837
▁만화	-838
▁니	-839
▁감독의	-840
▁변	-841
소리	-842
▁사실	-843
이야	-844
▁무섭	-845
해야	-846
▁무서	-847
▁싫	-848
▁점수	-849
고싶	-850
▁용	-851
▁판	-852
▁언제	-853
▁B	-854
▁확	-855
▁갑	-856
▁시청	-857
▁영화였	-858
없음	-859
▁되는	-860
▁오랜만에	-861
▁답답	-862
▁훨	-863
메이션	-864
이네요	-865
▁토	-866
점을	-867
▁첨	-868
▁웃음	-869
▁마지막에	-870
▁빨	-871
▁좋았다	-872
▁멋진	-873
▁옛	-874
▁이해가	-875
지가	-876
???	-877
감동	-878
▁관객	-879
이지만	-880
▁우리나라	-881
▁길	-882
▁부분	-883
▁없음	-884
▁전쟁	-885
▁허접	-886
▁자신	-887
▁초반	-888
▁재미가	-889
▁빼	-890
▁양	-891
▁좋아하는	-892
나게	-893
▁좋고	-894
▁강추	-895
▁재밌어요	-896
▁귀여	-897
▁깨	-898
▁청	-899
▁시나리오	-900
▁추억	-901
놓고	-902
▁엔딩	-903
▁t	-904
▁배경	-905
부분	-906
▁봤던	-907
▁완벽	-908
▁인상	-909
▁깊	-910
것이	-911
▁봤습니다	-912
성도	-913
▁어색	-914
▁생각이	-915
한데	-916
▁궁	-917
▁오늘	-918
▁지루하고	-919
▁없이	-920
▁유쾌	-921
▁영화관	-922
▁낚	-923
▁분위	-924
▁소름	-925
▁총	-926
▁헐	-927
▁배우들의	-928
▁다큐	-929
▁힘들	-930
디오	-931
▁식	-932
▁입	-933
인이	-934
치고	-935
▁못한	-936
▁준	-937
▁흐	-938
아깝	-939
이런	-940
10	-941
▁둘	-942
동안	-943
▁스타	-944
▁임	-945
▁안타	-946
▁팬	-947
▁킬링	-948
▁어떤	-949
▁ᄒ	-950
▁시대	-951
▁지루함	-952
▁잡	-953
다면	-954
▁이딴	-955
▁환	-956
▁문제	-957
▁OOO	-958
▁지루한	-959
▁태	-960
▁결국	-961
▁들어	-962
▁진정	-963
▁함께	-964
▁범	-965
구만	-966
▁개인적으로	-967
▁슬프	-968
▁찾아	-969
▁왠	-970
▁만들었	-971
▁보는내내	-972
▁클	-973
아까	-974
텐데	-975
▁있었	-976
▁러	-977
▁큰	-978
사랑	-979
한거	-980
▁졸작	-981
▁뛰	-982
▁어릴	-983
▁당시	-984
▁예술	-985
▁뿐	-986
▁종	-987
리지	-988
▁진부	-989
들에게	-990
▁애니메이션	-991
▁역사	-992
▁최고다	-993
▁책	-994
▁코믹	-995
▁캐스팅	-996
▁포스터	-997
시길	-998
을듯	-999
▁몰입도	-1000
▁재밌는	-1001
▁보세요	-1002
▁얼마나	-1003
▁백	-1004
점대	-1005
▁아무리	-1006
건가	-1007
구요	-1008
보니	-1009
▁설정	-1010
▁암	-1011
▁혼	-1012
보단	-1013
▁민	-1014
나마	-1015
▁주연	-1016
▁사람이	-1017
▁꿈	-1018
▁맘	-1019
낭비	-1020
좋아	-1021
▁은	-1022
▁아름답	-1023
▁기억에	-1024
▁후회	-1025
▁연기는	-1026
럽게	-1027
▁개연	-1028
▁안되는	-1029
▁오래	-1030
쓰레기	-1031
레이	-1032
▁영화도	-1033
▁브	-1034
▁돌아	-1035
▁공포영화	-1036
▁킬링타임	-1037
▁패	-1038
▁제발	-1039
▁영화라	-1040
▁얘	-1041
려는	-1042
하며	-1043
▁몸	-1044
있고	-1045
▁보지	-1046
주의	-1047
▁충격	-1048
▁꽤	-1049
했음	-1050
▁지나	-1051
▁더빙	-1052
▁매우	-1053
▁주제	-1054
▁폭	-1055
▁엄마	-1056
st	-1057
작품	-1058
▁어느	-1059
같이	-1060
▁그렇게	-1061
들과	-1062
▁여러	-1063
그냥	-1064
▁잔인	-1065
▁집중	-1066
당히	-1067
이버	-1068
자기	-1069
▁지루하다	-1070
는게	-1071
지루	-1072
한영화	-1073
▁T	-1074
▁낫	-1075
▁o	-1076
▁충분	-1077
인줄	-1078
▁같이	-1079
▁궁금	-1080
▁보지마	-1081
▁한국영화	-1082
▁않았	-1083
▁옛날	-1084
▁채	-1085
▁있고	-1086
렸다	-1087
▁병	-1088
▁미친	-1089
▁빠져	-1090
▁하나도	-1091
▁순수	-1092
▁너	-1093
그래	-1094
▁먼	-1095
평점	-1096
▁따라	-1097
▁군	-1098
학생	-1099
▁것이	-1100
▁블	-1101
▁터	-1102
▁극장에서	-1103
!!!!!!!!	-1104
말이	-1105
마디	-1106
▁ᅮᅮ	-1107
ᅲᅲᅲᅲ	-1108
르는	-1109
▁광	-1110
▁불쌍	-1111
▁봤어요	-1112
▁풀	-1113
▁커	-1114
▁느낌이	-1115
▁모르겠다	-1116
▁감동적이	-1117
▁뛰어	-1118
▁숨	-1119
▁탄	-1120
것같	-1121
웠다	-1122
▁말도	-1123
▁괴	-1124
가지	-1125
만든	-1126
▁중국	-1127
▁하지	-1128
▁한다	-1129
▁색	-1130
▁투	-1131
길래	-1132
▁나올	-1133
......	-1134
야지	-1135
▁위해	-1136
▁b	-1137
▁좋아요	-1138
거지	-1139
함을	-1140
▁영화네요	-1141
▁흘	-1142
▁왕	-1143
린다	-1144
수있	-1145
▁상상	-1146
▁마음이	-1147
▁여기	-1148
▁알고	-1149
▁약간	-1150
▁s	-1151
▁그만	-1152
▁위한	-1153
????	-1154
▁영화중	-1155
▁엉성	-1156
기만	-1157
▁않는다	-1158
▁끌	-1159
성을	-1160
▁감사	-1161
이라도	-1162
꿀잼	-1163
▁내용은	-1164
자가	-1165
▁이름	-1166
해지는	-1167
▁로맨스	-1168
▁누가	-1169
▁돋	-1170
봤다	-1171
워서	-1172
▁걸작	-1173
▁이쁘	-1174
▁프로	-1175
력이	-1176
▁얼굴	-1177
▁후반	-1178
▁똥	-1179
하시	-1180
▁대체	-1181
▁철	-1182
▁비슷	-1183
▁ᅳ	-1184
▁이정도	-1185
이야기	-1186
▁읽	-1187
했지만	-1188
▁감동도	-1189
▁영상미	-1190
▁훨씬	-1191
▁히	-1192
▁CG	-1193
▁그나마	-1194
▁여주인공	-1195
▁라	-1196
▁가슴이	-1197
전개	-1198
▁존나	-1199
▁눈물이	-1200
▁사람들	-1201
▁첫	-1202
느낌	-1203
▁실화	-1204
▁갈수록	-1205
으니	-1206
이었다	-1207
▁S	-1208
듯한	-1209
굉장	-1210
▁있을	-1211
▁똑	-1212
것을	-1213
겠지만	-1214
▁재밌음	-1215
가서	-1216
리를	-1217
▁번	-1218
자체	-1219
▁비교	-1220
▁그래서	-1221
▁발연기	-1222
▁키	-1223
▁없었다	-1224
▁흔	-1225
함이	-1226
▁19	-1227
▁전체	-1228
▁연기를	-1229
▁....	-1230
좋은	-1231
▁200	-1232
재밋	-1233
편이	-1234
▁죄	-1235
▁맛	-1236
년이	-1237
겠지	-1238
버린	-1239
이거	-1240
▁알았	-1241
▁어렸	-1242
▁장르	-1243
타지	-1244
▁기억이	-1245
대한	-1246
라서	-1247
▁밖에	-1248
▁네이버	-1249
▁재밌고	-1250
▁갖	-1251
▁벌	-1252
멜로	-1253
▁단순	-1254
▁늘	-1255
▁다음	-1256
▁비디오	-1257
▁어설픈	-1258
▁티비	-1259
▁딸	-1260
시절	-1261
▁것도	-1262
▁굉장	-1263
▁없어	-1264
▁사람들이	-1265
▁취	-1266
▁노잼	-1267
스럽다	-1268
년도	-1269
지지	-1270
▁느낄	-1271
▁다들	-1272
▁초딩	-1273
든다	-1274
▁오글	-1275
▁보여주는	-1276
나온	-1277
시키	-1278
▁이미	-1279
▁인물	-1280
이라면	-1281
▁감동이	-1282
보게	-1283
▁섹	-1284
수준	-1285
▁트	-1286
정이	-1287
▁귀엽	-1288
▁결말이	-1289
▁송	-1290
▁테	-1291
▁30	-1292
▁시즌	-1293
▁간만에	-1294
재미있	-1295
▁c	-1296
개도	-1297
보기	-1298
▁것을	-1299
으면서	-1300
스가	-1301
▁한마디	-1302
▁상황	-1303
▁이것	-1304
▁교훈	-1305
▁성룡	-1306
▁알게	-1307
▁굳	-1308
▁꼬	-1309
노잼	-1310
려서	-1311
말고	-1312
인생	-1313
▁주고	-1314
▁영화관에서	-1315
▁등장	-1316
▁온	-1317
▁풍	-1318
▁훈	-1319
▁존재	-1320
▁여배우	-1321
버지	-1322
▁이후	-1323
▁화려	-1324
▁아쉽다	-1325
라면	-1326
머니	-1327
었고	-1328
한번	-1329
▁마이	-1330
▁좋겠	-1331
적이다	-1332
짜리	-1333
편은	-1334
해라	-1335
▁ᄏᄏᄏᄏᄏᄏᄏᄏ	-1336
oo	-1337
땜에	-1338
▁사회	-1339
▁잘봤	-1340
그리고	-1341
▁좋은데	-1342
▁재미없음	-1343
▁멍	-1344
▁독특	-1345
▁맘에	-1346
▁바로	-1347
거같	-1348
이건	-1349
▁애들	-1350
▁생각을	-1351
▁쓸	-1352
▁으	-1353
론가	-1354
▁아님	-1355
▁잔잔한	-1356
▁영화였다	-1357
▁혹	-1358
▁평가	-1359
▁진정한	-1360
▁스토리는	-1361
▁전부	-1362
영화의	-1363
▁감동적인	-1364
ᄋᄋ	-1365
건데	-1366
되고	-1367
▁잘못	-1368
▁같아요	-1369
▁직	-1370
거야	-1371
연히	-1372
인의	-1373
보고싶	-1374
▁있을까	-1375
▁쓰레기영화	-1376
▁틀	-1377
았던	-1378
▁별점	-1379
▁삼류	-1380
▁배우들이	-1381
▁생각보다	-1382
그런	-1383
아이	-1384
▁다운	-1385
▁킬링타임용	-1386
감이	-1387
다른	-1388
▁대해	-1389
▁보니	-1390
▁않다	-1391
주세요	-1392
▁했는데	-1393
들어	-1394
워요	-1395
하하	-1396
▁영화임	-1397
할때	-1398
▁상당히	-1399
▁그리	-1400
▁어울	-1401
이팅	-1402
잖아	-1403
▁소설	-1404
▁그대로	-1405
▁윤	-1406
▁ᄍᄍ	-1407
▁거의	-1408
▁감동을	-1409
er	-1410
정도로	-1411
▁100	-1412
▁재미는	-1413
▁정도로	-1414
아닌	-1415
▁항	-1416
모르	-1417
▁높은	-1418
▁영화인데	-1419
수를	-1420
▁두번	-1421
▁세계	-1422
▁예상	-1423
▁허무	-1424
아깝다	-1425
▁같은데	-1426
본다	-1427
▁다르	-1428
나오는	-1429
▁휴	-1430
▁빵	-1431
였음	-1432
▁90	-1433
▁중간에	-1434
▁재미있는	-1435
▁각본	-1436
▁자연	-1437
▁해서	-1438
다시	-1439
▁당신	-1440
▁뭐야	-1441
▁하다	-1442
▁나와서	-1443
▁어른	-1444
을텐데	-1445
거나	-1446
▁준다	-1447
졌다	-1448
에서도	-1449
▁ᄉ	-1450
스타	-1451
▁구성	-1452
중간	-1453
▁실제	-1454
마지막	-1455
하냐	-1456
▁몇번	-1457
▁있지만	-1458
▁이영화를	-1459
댓글	-1460
리의	-1461
▁멋있	-1462
▁에로	-1463
▁자기	-1464
영화다	-1465
분들	-1466
하자	-1467
▁뭐지	-1468
▁혼자	-1469
간다	-1470
▁멜로	-1471
▁봐서	-1472
................	-1473
▁겁	-1474
▁맨	-1475
▁봣	-1476
▁흑	-1477
▁기다	-1478
▁볼수	-1479
보다는	-1480
▁O	-1481
▁착	-1482
▁이번	-1483
▁봤지만	-1484
▁밑	-1485
어나	-1486
여서	-1487
을수	-1488
▁평점을	-1489
▁잃	-1490
어가	-1491
저히	-1492
▁여주	-1493
▁제가	-1494
▁까	-1495
▁압	-1496
아야	-1497
▁좀비	-1498
▁했다	-1499
었지만	-1500
▁슬픈	-1501
때마다	-1502
에서는	-1503
시대	-1504
▁빨리	-1505
▁장면이	-1506
라니	-1507
▁낮은	-1508
▁질질	-1509
▁평범	-1510
▁굉장히	-1511
▁권	-1512
▁슈	-1513
다는게	-1514
▁묘	-1515
완전	-1516
▁그녀	-1517
▁더욱	-1518
▁갑자기	-1519
에선	-1520
▁어쩌	-1521
▁재밌네요	-1522
예요	-1523
▁머리	-1524
▁방송	-1525
▁어디서	-1526
기대	-1527
시다	-1528
여자	-1529
▁저런	-1530
▁감독님	-1531
▁있어서	-1532
랑스	-1533
이게	-1534
이트	-1535
지를	-1536
▁개그	-1537
▁즐거	-1538
▁확실	-1539
▁극장판	-1540
▁원작을	-1541
▁크리스	-1542
사가	-1543
▁판타지	-1544
고는	-1545
▁누구	-1546
▁예쁘	-1547
▁새로운	-1548
▁회	-1549
▁상영	-1550
▁밀	-1551
았음	-1552
▁의도	-1553
▁시청률	-1554
▁재미없는	-1555
던가	-1556
▁뭐냐	-1557
▁믿고	-1558
▁화면	-1559
▁못하는	-1560
▁볼만한	-1561
▁m	-1562
▁끝나	-1563
▁벗	-1564
▁빛	-1565
일이	-1566
▁불편	-1567
▁성우	-1568
▁있어	-1569
보면서	-1570
▁빈	-1571
▁뭐가	-1572
▁재미있어요	-1573
▁저는	-1574
스럽고	-1575
▁그러나	-1576
▁생각하게	-1577
▁재미있다	-1578
▁듣	-1579
▁흠	-1580
인다	-1581
▁마음에	-1582
▁봄	-1583
에겐	-1584
우드	-1585
▁라는	-1586
▁봐라	-1587
▁항상	-1588
▁훌륭한	-1589
▁M	-1590
▁운	-1591
▁쳐	-1592
유의	-1593
하니	-1594
▁나의	-1595
▁전형	-1596
▁흥행	-1597
▁자체가	-1598
▁너무너무	-1599
와서	-1600
▁가치	-1601
▁살인	-1602
▁역대	-1603
▁놓	-1604
▁필	-1605
지게	-1606
▁꺼	-1607
년전	-1608
도록	-1609
리티	-1610
▁봤음	-1611
▁예고	-1612
▁일단	-1613
▁평론가	-1614
▁만드	-1615
▁탄탄	-1616
▁가지고	-1617
▁감성	-1618
▁있는데	-1619
▁있었다	-1620
▁빌	-1621
▁왔	-1622
▁이런영화	-1623
봐서	-1624
진진	-1625
▁관람	-1626
▁아닐	-1627
▁중요	-1628
▁사람은	-1629
▁써	-1630
▁향	-1631
▁비해	-1632
▁그런지	-1633
▁보여주	-1634
조건	-1635
▁TV	-1636
했어요	-1637
▁프랑스	-1638
▁한심	-1639
▁없어서	-1640
▁영화보다	-1641
▁처음부터	-1642
들아	-1643
메디	-1644
하지않	-1645
▁충분히	-1646
▁주인공이	-1647
▁순간	-1648
▁헐리	-1649
▁생각해	-1650
▁꿀잼	-1651
이라니	-1652
하지도	-1653
▁개연성	-1654
▁금	-1655
기고	-1656
러운	-1657
없어	-1658
▁돋보	-1659
▁것은	-1660
▁댓글	-1661
▁해도	-1662
코미디	-1663
▁아까움	-1664
in	-1665
▁쉽	-1666
거다	-1667
▁점점	-1668
▁합니다	-1669
▁짝	-1670
▁리얼	-1671
▁홍콩	-1672
▁대단한	-1673
▁루	-1674
▁젊	-1675
▁참고	-1676
▁201	-1677
▁g	-1678
▁급	-1679
▁헤	-1680
속에	-1681
▁나이	-1682
▁만족	-1683
▁소리	-1684
▁어려	-1685
▁하게	-1686
▁훈훈	-1687
▁안타깝	-1688
▁됐	-1689
으며	-1690
조차	-1691
▁잘만들	-1692
▁씨	-1693
이코	-1694
현실	-1695
▁식상	-1696
▁한편	-1697
▁몰랐	-1698
▁시절	-1699
▁능	-1700
▁맥	-1701
▁섬	-1702
무리	-1703
▁80	-1704
▁자극	-1705
▁편집	-1706
립니다	-1707
▁분위기	-1708
▁좋네요	-1709
▁승	-1710
별로	-1711
되어	-1712
했고	-1713
히려	-1714
▁소중	-1715
▁수가	-1716
▁참신	-1717
▁케이	-1718
▁황당	-1719
영화중	-1720
만으로도	-1721
사회	-1722
▁어쩔	-1723
▁아닌가	-1724
▁이영화는	-1725
▁창	-1726
남자	-1727
스의	-1728
아도	-1729
▁먹먹	-1730
▁한마디로	-1731
▁a	-1732
가고	-1733
▁엉망	-1734
▁보는데	-1735
▁전개가	-1736
▁검	-1737
만의	-1738
저씨	-1739
한게	-1740
▁과거	-1741
▁그때	-1742
▁불륜	-1743
▁선택	-1744
▁여전	-1745
것같다	-1746
▁짧	-1747
근데	-1748
봐야	-1749
신이	-1750
▁그닥	-1751
▁된다	-1752
▁안타까	-1753
▁놈	-1754
음악	-1755
촬영	-1756
▁진행	-1757
▁카메	-1758
▁도저히	-1759
▁무조건	-1760
▁흥미진진	-1761
▁묻	-1762
▁찌	-1763
▁페	-1764
리게	-1765
일까	-1766
효과	-1767
▁보았	-1768
▁유명	-1769
시리즈	-1770
▁감독은	-1771
했습니다	-1772
▁겨	-1773
▁깔	-1774
▁뮤	-1775
▁망작	-1776
▁!!!	-1777
▁어릴때	-1778
▁다시봐도	-1779
그러	-1780
짜증	-1781
하긴	-1782
▁가는	-1783
▁물론	-1784
었으면	-1785
▁아쉬운	-1786
▁그게	-1787
▁끝내	-1788
▁얘기	-1789
▁엄청난	-1790
민국	-1791
처음	-1792
▁미안	-1793
▁원래	-1794
어지는	-1795
▁사랑을	-1796
▁줄거리	-1797
▁좋은영화	-1798
▁지금까지	-1799
▁d	-1800
▁쓴	-1801
▁범죄	-1802
▁멍청	-1803
▁아빠	-1804
▁안나	-1805
▁없네	-1806
파이	-1807
▁죽음	-1808
▁진지	-1809
▁돈주고	-1810
▁모르고	-1811
▁사람들은	-1812
▁이것도	-1813
▁평점은	-1814
▁재밌는데	-1815
▁재밌었다	-1816
▁결혼	-1817
▁이리	-1818
지마라	-1819
▁견	-1820
▁북	-1821
겠네	-1822
만이	-1823
은데	-1824
이냐	-1825
이면	-1826
▁초등	-1827
하는거	-1828
▁봤네요	-1829
▁좋겠다	-1830
▁있음	-1831
하다고	-1832
▁영화인	-1833
없네	-1834
인물	-1835
▁해야	-1836
보는데	-1837
▁후반부	-1838
내가	-1839
▁설명	-1840
▁자꾸	-1841
▁그래픽	-1842
▁액션도	-1843
▁평점에	-1844
그램	-1845
하여	-1846
▁분명	-1847
▁전설	-1848
▁최근	-1849
▁힘든	-1850
▁로맨틱	-1851
▁유치한	-1852
어로	-1853
▁감상	-1854
▁사라	-1855
▁뜬	-1856
났다	-1857
▁그림	-1858
시는	-1859
추천	-1860
▁괜히	-1861
▁저질	-1862
영화로	-1863
▁더럽게	-1864
▁있다는	-1865
였습니다	-1866
▁갔	-1867
▁넣	-1868
최악	-1869
▁가볍	-1870
▁미화	-1871
▁따뜻한	-1872
▁전형적인	-1873
방송	-1874
스런	-1875
▁느꼈	-1876
▁만점	-1877
▁알려	-1878
▁희망	-1879
▁배우가	-1880
▁아버지	-1881
▁오히려	-1882
▁인간의	-1883
▁법	-1884
내는	-1885
당시	-1886
보세요	-1887
▁무서운	-1888
▁억지로	-1889
▁예전에	-1890
▁입니다	-1891
▁끼	-1892
▁덕	-1893
님의	-1894
막장	-1895
시고	-1896
▁그럴	-1897
▁독립	-1898
▁병맛	-1899
▁웃긴	-1900
▁없네요	-1901
▁연출력	-1902
▁오글거	-1903
▁골	-1904
▁깜	-1905
따위	-1906
▁SF	-1907
▁학교	-1908
내고	-1909
▁가능	-1910
▁나쁜	-1911
▁영웅	-1912
▁완벽한	-1913
.5	-1914
▁나쁘	-1915
▁바보	-1916
메이크	-1917
▁느끼게	-1918
▁완성도	-1919
.......	-1920
대박	-1921
대의	-1922
▁돈이	-1923
▁이야기를	-1924
▁친	-1925
년에	-1926
▁듯한	-1927
▁복수	-1928
였는데	-1929
▁스타일	-1930
▁대한민국	-1931
▁D	-1932
나면	-1933
상을	-1934
자의	-1935
프로	-1936
▁바라	-1937
▁죽는	-1938
▁현재	-1939
▁내인생	-1940
▁우연히	-1941
▁되어	-1942
▁인정	-1943
▁진실	-1944
하는게	-1945
▁기대하고	-1946
ST	-1947
▁팔	-1948
것은	-1949
많은	-1950
봐라	-1951
오는	-1952
움이	-1953
▁동화	-1954
▁하면	-1955
▁흘러	-1956
▁지금도	-1957
▁말고	-1958
▁신기	-1959
▁요소	-1960
▁ᄒᄒᄒ	-1961
▁것이다	-1962
▁모르는	-1963
▁화이팅	-1964
▁아무것도	-1965
▁아이들이	-1966
님이	-1967
랄까	-1968
지금	-1969
한듯	-1970
함과	-1971
▁ost	-1972
▁알았다	-1973
스를	-1974
심이	-1975
이하	-1976
평가	-1977
▁ᄃᄃ	-1978
▁바람	-1979
▁영원	-1980
▁잊혀	-1981
▁적당	-1982
▁좋았어요	-1983
▁관계	-1984
▁대작	-1985
▁메세	-1986
▁서로	-1987
▁유머	-1988
▁좋음	-1989
▁중반	-1990
▁안된다	-1991
웠던	-1992
▁이러	-1993
▁전문	-1994
▁풀어	-1995
▁재미있고	-1996
실망	-1997
예산	-1998
우는	-1999
지다	-2000
▁노력	-2001
▁다행	-2002
▁청춘	-2003
▁촬영	-2004
▁앞으로	-2005
▁처음으로	-2006
네여	-2007
명작	-2008
심을	-2009
▁허술	-2010
▁어설프	-2011
▁지루해	-2012
▁코메디	-2013
애니	-2014
▁낫다	-2015
▁안보	-2016
▁저도	-2017
▁전편	-2018
▁천재	-2019
같은데	-2020
보다가	-2021
안되는	-2022
▁이런거	-2023
▁특유의	-2024
▁핵	-2025
리아	-2026
▁부모	-2027
▁전작	-2028
▁다운받	-2029
▁이런걸	-2030
기엔	-2031
리다	-2032
▁성장	-2033
▁웃겨	-2034
▁즐겁	-2035
더군요	-2036
▁연출이	-2037
▁만들었다	-2038
▁워	-2039
▁놀라	-2040
▁알았는데	-2041
▁멀	-2042
▁촌	-2043
▁탈	-2044
드가	-2045
▁나라	-2046
▁아프	-2047
▁없을	-2048
▁영화에서	-2049
▁ᅮ	-2050
▁류	-2051
작가	-2052
ood	-2053
▁뭔지	-2054
안하고	-2055
▁재미없고	-2056
어울	-2057
▁이연	-2058
▁리메이크	-2059
▁어렸을때	-2060
있게	-2061
▁만큼	-2062
▁여성	-2063
것이다	-2064
▁목소리	-2065
▁장면은	-2066
▁유치하고	-2067
스로	-2068
아먹	-2069
▁싫어	-2070
▁우울	-2071
▁지난	-2072
▁왜이리	-2073
▁플	-2074
영상	-2075
점준	-2076
줄알	-2077
▁tv	-2078
▁못보	-2079
한다는	-2080
▁만들지	-2081
▁비슷한	-2082
▁재밌어	-2083
ᄏᄏᄏᄏᄏᄏᄏᄏᄏᄏᄏᄏᄏᄏᄏᄏ	-2084
하겠	-2085
▁또한	-2086
▁않음	-2087
▁이래	-2088
he	-2089
▁면	-2090
자들	-2091
▁12	-2092
▁그려	-2093
▁그의	-2094
▁노출	-2095
▁아오	-2096
▁말하고	-2097
공포	-2098
그라	-2099
▁거지	-2100
▁정치	-2101
▁졸라	-2102
봅니다	-2103
▁찬	-2104
소한	-2105
한건	-2106
화가	-2107
▁뜬금	-2108
▁귀여운	-2109
▁작품이	-2110
▁응	-2111
▁줘	-2112
▁합	-2113
싶다	-2114
▁15	-2115
▁게임	-2116
▁중에	-2117
▁철학	-2118
▁명작이다	-2119
▁아니지만	-2120
▁짐	-2121
르고	-2122
분이	-2123
식이	-2124
장이	-2125
정을	-2126
치게	-2127
▁누군	-2128
▁사건	-2129
▁이어	-2130
▁해피	-2131
아니고	-2132
▁하는데	-2133
▁재미없어	-2134
려면	-2135
리에	-2136
많이	-2137
ᅲᅲᅲ	-2138
▁가득	-2139
▁왠지	-2140
▁그렇고	-2141
▁모습이	-2142
▁부족한	-2143
▁않았다	-2144
▁진부한	-2145
▁드라마를	-2146
▁스토리에	-2147
▁접	-2148
이의	-2149
인간	-2150
▁경찰	-2151
▁않을	-2152
▁조연	-2153
최고의	-2154
▁아닐까	-2155
▁이상한	-2156
였던	-2157
자는	-2158
▁귀신	-2159
▁어찌	-2160
▁그런데	-2161
▁보여준	-2162
▁화려한	-2163
하면서도	-2164
▁최악이다	-2165
▁샤	-2166
▁학	-2167
분에	-2168
▁비추	-2169
▁스케	-2170
됩니다	-2171
놓은	-2172
인거	-2173
▁나만	-2174
▁돌려	-2175
▁미래	-2176
▁안맞	-2177
▁예전	-2178
▁행동	-2179
▁좋았고	-2180
▁생각한다	-2181
▁시간낭비	-2182
▁좋았습니다	-2183
가요	-2184
개봉	-2185
걸까	-2186
던지	-2187
인은	-2188
지못	-2189
▁남아	-2190
▁눈이	-2191
▁마치	-2192
▁먼저	-2193
▁아는	-2194
▁아마	-2195
영화에	-2196
있는데	-2197
▁여자가	-2198
▁전체적으로	-2199
▁얻	-2200
져서	-2201
▁성공	-2202
그래도	-2203
▁못하고	-2204
▁퍼	-2205
▁별루	-2206
▁삶을	-2207
▁전달	-2208
면서도	-2209
▁반전이	-2210
▁안나오	-2211
▁너무나도	-2212
▁대단하다	-2213
▁드라마가	-2214
▁보고나서	-2215
▁영화였습니다	-2216
▁월	-2217
▁손발	-2218
▁감동적	-2219
▁소재는	-2220
▁같습니다	-2221
▁무엇보다	-2222
▁이야기가	-2223
▁A	-2224
▁논	-2225
수도	-2226
심히	-2227
자를	-2228
좋고	-2229
해주	-2230
..?	-2231
▁대충	-2232
▁본다	-2233
▁어렵	-2234
▁자유	-2235
▁잘생	-2236
점짜리	-2237
▁춤	-2238
감을	-2239
▁러브	-2240
▁알겠	-2241
▁한계	-2242
▁환상	-2243
나온다	-2244
봤어요	-2245
수있는	-2246
점준다	-2247
하는지	-2248
해주는	-2249
▁애들이	-2250
▁지금봐도	-2251
▁w	-2252
▁뒷	-2253
▁웬	-2254
세계	-2255
▁나머	-2256
▁메시	-2257
▁이젠	-2258
만하면	-2259
시간이	-2260
었네요	-2261
▁이영화가	-2262
▁재밌었어요	-2263
▁늙	-2264
▁그랬	-2265
▁짱짱	-2266
지네요	-2267
▁이런게	-2268
▁자신의	-2269
기억	-2270
모습	-2271
무슨	-2272
▁다소	-2273
▁시도	-2274
▁심리	-2275
▁심심	-2276
▁예고편	-2277
▁인상깊	-2278
▁짓	-2279
기다	-2280
해보	-2281
▁깊은	-2282
▁밑에	-2283
재밌게	-2284
▁영화중에	-2285
▁잘봤습니다	-2286
re	-2287
▁힐	-2288
마저	-2289
인을	-2290
▁군대	-2291
▁눈을	-2292
▁마음을	-2293
▁케이블	-2294
▁확실히	-2295
▁어이없는	-2296
▁뜨	-2297
알바	-2298
▁연애	-2299
▁와닿	-2300
고싶다	-2301
▁나온다	-2302
▁있었던	-2303
▁잘만든	-2304
▁했지만	-2305
▁허접한	-2306
▁증	-2307
새끼	-2308
스는	-2309
▁남주	-2310
▁라고	-2311
▁피해	-2312
사람이	-2313
▁그런가	-2314
▁모습을	-2315
순간	-2316
역시	-2317
▁미소	-2318
▁알아	-2319
닝타임	-2320
배우들	-2321
했으면	-2322
▁같네요	-2323
▁내용을	-2324
▁매력적인	-2325
▁좋았는데	-2326
▁감사합니다	-2327
▁씬	-2328
사는	-2329
터리	-2330
▁그럼	-2331
▁나를	-2332
지도않	-2333
▁좋았음	-2334
려다	-2335
번째	-2336
지컬	-2337
▁취향	-2338
스럽게	-2339
퀄리티	-2340
▁OST	-2341
▁역시나	-2342
▁제작비	-2343
▁영화이다	-2344
▁왜이렇게	-2345
▁프로그램	-2346
▁붙	-2347
는가	-2348
들만	-2349
▁cg	-2350
▁가끔	-2351
▁낭비	-2352
▁하루	-2353
이에요	-2354
▁감정이	-2355
▁보이는	-2356
▁짜증나	-2357
겟다	-2358
내요	-2359
다운	-2360
로서	-2361
말로	-2362
아아	-2363
절한	-2364
▁ᄉᄇ	-2365
▁겁나	-2366
▁고민	-2367
▁아놔	-2368
▁젊은	-2369
만으로	-2370
장에서	-2371
▁부분이	-2372
▁아저씨	-2373
▁저예산	-2374
▁카메라	-2375
ᄏᄏᄏᄏᄏ	-2376
▁딴	-2377
성애	-2378
좋다	-2379
▁실패	-2380
▁외국	-2381
▁했던	-2382
도없고	-2383
였어요	-2384
▁나에게	-2385
▁사람을	-2386
▁어색한	-2387
▁스토리와	-2388
▁꾸	-2389
▁끊	-2390
▁엑	-2391
더만	-2392
로는	-2393
어라	-2394
일뿐	-2395
▁다가	-2396
▁찍은	-2397
▁화가	-2398
하기만	-2399
▁연기에	-2400
▁해주는	-2401
▁느껴지는	-2402
▁영화보고	-2403
.2	-2404
과는	-2405
이해	-2406
할듯	-2407
▁사이	-2408
▁의외	-2409
사람들	-2410
없어서	-2411
▁순수한	-2412
▁여전히	-2413
▁떨어지는	-2414
▁영화지만	-2415
▁중간중간	-2416
▁밤	-2417
▁젤	-2418
물이	-2419
시켜	-2420
었나	-2421
▁글쎄	-2422
▁까지	-2423
▁넘어	-2424
▁느낀	-2425
▁드는	-2426
▁라이	-2427
▁호러	-2428
지않는	-2429
▁나오고	-2430
▁사랑이	-2431
▁세상에	-2432
▁아니면	-2433
▁제작진	-2434
▁ᄏᄏᄏᄏᄏ	-2435
▁씁	-2436
소년	-2437
▁감탄	-2438
▁기본	-2439
▁역할	-2440
▁조폭	-2441
▁특별	-2442
▁액션은	-2443
▁처음이다	-2444
되지	-2445
리도	-2446
웃음	-2447
▁오락	-2448
▁해준	-2449
만드는	-2450
▁보는게	-2451
▁아닌데	-2452
▁어린이	-2453
▁드라마는	-2454
소재	-2455
연출	-2456
으론	-2457
쩐다	-2458
▁결론	-2459
▁슈퍼	-2460
▁유일	-2461
▁이하	-2462
하려는	-2463
하세요	-2464
▁소재를	-2465
▁볼때마다	-2466
▁보지마세요	-2467
▁꼴	-2468
구려	-2469
무서	-2470
반전	-2471
보이	-2472
와르	-2473
움을	-2474
▁다만	-2475
▁든다	-2476
▁미스	-2477
▁블랙	-2478
이렇게	-2479
▁있다면	-2480
▁평범한	-2481
▁곳	-2482
▁나서	-2483
▁난다	-2484
▁맞는	-2485
▁섹시	-2486
▁전에	-2487
▁독특한	-2488
▁액션이	-2489
▁어이가	-2490
▁유쾌한	-2491
▁봤었는데	-2492
▁연기력이	-2493
▁폐	-2494
나올	-2495
마음	-2496
티비	-2497
▁슬픔	-2498
▁시선	-2499
하다는	-2500
▁끝나고	-2501
▁안하고	-2502
▁스토리를	-2503
럽다	-2504
었어	-2505
위해	-2506
▁리뷰	-2507
▁마라	-2508
▁모자	-2509
▁사극	-2510
▁귀엽고	-2511
▁그들의	-2512
▁매력이	-2513
▁이유가	-2514
▁저렇게	-2515
▁돼	-2516
▁를	-2517
명이	-2518
아라	-2519
이제	-2520
트가	-2521
했을	-2522
▁가진	-2523
▁악역	-2524
▁평생	-2525
▁기대를	-2526
▁안되고	-2527
▁흥미롭	-2528
▁아름답고	-2529
▁I	-2530
다지	-2531
먹고	-2532
▁내생	-2533
▁스트	-2534
▁예쁜	-2535
▁이기	-2536
▁음악이	-2537
▁감동적이고	-2538
▁G	-2539
▁풋	-2540
레스	-2541
었네	-2542
하던	-2543
▁굳이	-2544
▁연예	-2545
▁종교	-2546
▁해주	-2547
▁연기와	-2548
▁사랑하는	-2549
▁쩔	-2550
었을	-2551
있네	-2552
펑펑	-2553
▁과연	-2554
▁깔끔	-2555
▁분노	-2556
▁살짝	-2557
▁시원	-2558
▁용서	-2559
▁일어	-2560
더라도	-2561
식으로	-2562
이라서	-2563
▁다큐멘	-2564
▁보기엔	-2565
▁밝	-2566
▁칼	-2567
끼리	-2568
니아	-2569
싶은	-2570
씨가	-2571
저럭	-2572
화를	-2573
▁고전	-2574
▁안됨	-2575
▁통해	-2576
▁희생	-2577
영화도	-2578
하지마	-2579
한다면	-2580
▁남는다	-2581
▁몰입이	-2582
▁주인공의	-2583
▁녹	-2584
▁헛	-2585
거냐	-2586
사를	-2587
시아	-2588
즈니	-2589
▁봤다가	-2590
▁어릴적	-2591
▁처음엔	-2592
▁재밌었는데	-2593
들고	-2594
디어	-2595
래기	-2596
▁막판	-2597
▁올라	-2598
▁일상	-2599
버렸다	-2600
았어요	-2601
▁이연걸	-2602
▁정말로	-2603
더라구요	-2604
▁짜증나는	-2605
▁추천합니다	-2606
ou	-2607
▁십	-2608
원이	-2609
편을	-2610
▁불쾌	-2611
▁압권	-2612
▁현대	-2613
있어요	-2614
▁사랑과	-2615
▁사랑에	-2616
▁어렸을	-2617
▁이건뭐	-2618
▁잼있게	-2619
▁겉	-2620
▁밥	-2621
▁톰	-2622
어진	-2623
주얼	-2624
▁그걸	-2625
▁나타	-2626
▁소녀	-2627
▁표절	-2628
▁더이상	-2629
▁뮤지컬	-2630
▁열심히	-2631
▁우리가	-2632
▁작품성	-2633
▁재미를	-2634
▁현실을	-2635
▁하나하나	-2636
▁짠	-2637
같음	-2638
듯이	-2639
한것	-2640
▁같음	-2641
▁난해	-2642
▁재난	-2643
▁좋을	-2644
▁되었다	-2645
▁소름끼	-2646
▁아닌듯	-2647
▁나왔으면	-2648
▁생각합니다	-2649
▁을	-2650
결말	-2651
까진	-2652
나가	-2653
따라	-2654
른다	-2655
서야	-2656
▁70	-2657
▁레이	-2658
▁부터	-2659
▁상처	-2660
▁후속	-2661
구하고	-2662
럭저럭	-2663
▁티비에서	-2664
▁침	-2665
무비	-2666
안되	-2667
있음	-2668
▁무협	-2669
▁자막	-2670
▁포장	-2671
▁신선한	-2672
▁만들어진	-2673
▁격	-2674
▁늦	-2675
▁던	-2676
▁챙	-2677
▁축	-2678
기의	-2679
대는	-2680
이터	-2681
▁개판	-2682
▁무지	-2683
▁보시	-2684
▁포기	-2685
에서의	-2686
으로서	-2687
▁공감이	-2688
▁기분이	-2689
▁배우의	-2690
▁별로다	-2691
▁슬프다	-2692
▁싸이코	-2693
▁아까워	-2694
▁오그라	-2695
▁아름답다	-2696
an	-2697
▁덜	-2698
▁뭉	-2699
스릴	-2700
이를	-2701
줌마	-2702
▁몸매	-2703
▁영환	-2704
▁폭력	-2705
지않은	-2706
▁감동과	-2707
▁보시길	-2708
▁재밋게	-2709
▁이정도면	-2710
▁진심으로	-2711
bb	-2712
▁는	-2713
▁썩	-2714
겹다	-2715
기로	-2716
류의	-2717
버렸	-2718
불가	-2719
유치	-2720
▁굿굿	-2721
▁말로	-2722
▁채널	-2723
▁형편	-2724
▁상상력	-2725
았습니다	-2726
▁재미있음	-2727
들에	-2728
물을	-2729
▁40	-2730
▁감명	-2731
▁고생	-2732
▁보이	-2733
▁아침	-2734
▁어제	-2735
▁그렇다	-2736
▁퀄리티	-2737
가족	-2738
대가	-2739
무섭	-2740
보여	-2741
▁놀랍	-2742
▁동생	-2743
▁되게	-2744
▁보러	-2745
▁부끄	-2746
▁북한	-2747
▁오버	-2748
▁크게	-2749
▁혹시	-2750
점주는	-2751
▁소재가	-2752
▁이유는	-2753
▁등장인물	-2754
▁엘	-2755
▁징	-2756
겼다	-2757
이크	-2758
줘서	-2759
히는	-2760
▁사는	-2761
▁쓸데	-2762
▁있나	-2763
▁전투	-2764
▁표정	-2765
▁흐름	-2766
년전에	-2767
지않고	-2768
했다는	-2769
▁하네요	-2770
▁하면서	-2771
▁해피엔딩	-2772
▁재밌습니다	-2773
▁쩌	-2774
돌아	-2775
시킨	-2776
이유	-2777
할까	-2778
▁같아	-2779
▁그지	-2780
▁떠나	-2781
▁비극	-2782
▁수도	-2783
▁힐링	-2784
좋아요	-2785
▁봤으면	-2786
▁필요한	-2787
99	-2788
or	-2789
▁몽	-2790
▁쇼	-2791
▁퇴	-2792
봤음	-2793
▁가서	-2794
▁강렬	-2795
▁남녀	-2796
▁두고	-2797
▁삶의	-2798
▁쉽게	-2799
▁나중에	-2800
▁볼수록	-2801
▁사람의	-2802
▁수준이	-2803
▁없지만	-2804
▁연출도	-2805
!!!!!	-2806
▁그럭저럭	-2807
▁생각나는	-2808
▁재미없네	-2809
▁지루하지	-2810
▁지루해서	-2811
▁컨	-2812
명의	-2813
안에	-2814
오빠	-2815
와는	-2816
웠음	-2817
해준	-2818
▁00	-2819
▁거짓	-2820
▁국민	-2821
▁드러	-2822
▁말할	-2823
▁설레	-2824
▁신경	-2825
▁가볍게	-2826
▁마무리	-2827
▁소름돋	-2828
▁스케일	-2829
▁추억의	-2830
▁i	-2831
▁꼽	-2832
▁맡	-2833
▁활	-2834
리기	-2835
아님	-2836
었지	-2837
지말	-2838
ᄒᄒᄒ	-2839
▁그립	-2840
▁미치	-2841
▁반성	-2842
▁사기	-2843
▁산만	-2844
▁속편	-2845
▁스티	-2846
▁전기	-2847
▁정서	-2848
▁지구	-2849
▁태어	-2850
▁디즈니	-2851
▁몇번을	-2852
▁반전도	-2853
▁비주얼	-2854
▁음악도	-2855
▁제목이	-2856
▁좋았던	-2857
▁잇	-2858
상이	-2859
수는	-2860
수의	-2861
▁무시	-2862
▁본방	-2863
까지는	-2864
보는게	-2865
속에서	-2866
아까운	-2867
하다가	-2868
▁그다지	-2869
▁보고싶다	-2870
▁보고싶은	-2871
▁끄	-2872
▁찡	-2873
언가	-2874
이며	-2875
지의	-2876
표현	-2877
▁남을	-2878
▁소장	-2879
▁조잡	-2880
▁통쾌	-2881
▁끝나는	-2882
▁몰라도	-2883
▁소재로	-2884
▁말이필요	-2885
▁윌	-2886
독교	-2887
르노	-2888
▁김기	-2889
▁눈빛	-2890
▁능력	-2891
▁선생	-2892
▁아련	-2893
▁올해	-2894
▁의심	-2895
▁이루	-2896
▁일부	-2897
▁있게	-2898
버리고	-2899
연기가	-2900
▁좋아서	-2901
▁뇌	-2902
▁잤	-2903
에만	-2904
의미	-2905
▁받아	-2906
▁스크	-2907
▁심각	-2908
▁역겨	-2909
▁의문	-2910
▁있지	-2911
재미없	-2912
▁아이들	-2913
▁영화냐	-2914
▁재미있네요	-2915
강추	-2916
관계	-2917
대사	-2918
이자	-2919
진심	-2920
▁가까	-2921
▁광고	-2922
▁깊이	-2923
▁동물	-2924
▁악당	-2925
▁오랫	-2926
하기도	-2927
▁봐야할	-2928
▁언제나	-2929
▁점수를	-2930
▁필요없는	-2931
▁헐리우드	-2932
▁l	-2933
▁ᄌ	-2934
▁농	-2935
▁흡	-2936
거운	-2937
밋밋	-2938
이니	-2939
자단	-2940
제목	-2941
중의	-2942
찝찝	-2943
▁건지	-2944
▁말을	-2945
▁없나	-2946
▁이쁜	-2947
봣는데	-2948
영화임	-2949
▁슬프고	-2950
▁시간을	-2951
▁엉성한	-2952
▁인생을	-2953
재밌어요	-2954
▁다시한번	-2955
▁필요없다	-2956
▁쉬	-2957
가능	-2958
그렇	-2959
그인	-2960
봐요	-2961
▁깨닫	-2962
▁인터	-2963
▁존경	-2964
▁죽여	-2965
거리는	-2966
평점이	-2967
▁이제야	-2968
.1	-2969
▁E	-2970
▁끔	-2971
도가	-2972
두고	-2973
라스	-2974
봤던	-2975
▁씁쓸	-2976
▁않게	-2977
▁풋풋	-2978
▁하이	-2979
▁홍보	-2980
했는지	-2981
▁만들고	-2982
▁싸구려	-2983
▁출연진	-2984
▁일본영화	-2985
?!	-2986
▁납	-2987
▁뉴	-2988
▁닥	-2989
구니	-2990
마스	-2991
있어	-2992
쵝오	-2993
트콤	-2994
특히	-2995
▁그린	-2996
▁둘다	-2997
▁방금	-2998
▁섬세	-2999
▁스포	-3000
▁싶어	-3001
▁아픔	-3002
▁에이	-3003
▁이때	-3004
▁펑펑	-3005
▁마세요	-3006
▁시사회	-3007
▁어려운	-3008
▁웃기고	-3009
▁이해할	-3010
재미없다	-3011
▁불구하고	-3012
▁쫌	-3013
▁폴	-3014
걸로	-3015
나이	-3016
드의	-3017
뻐서	-3018
세가	-3019
오글	-3020
하신	-3021
▁그것	-3022
▁딱히	-3023
사람은	-3024
▁결말도	-3025
▁뛰어난	-3026
▁봣는데	-3027
▁산으로	-3028
영화라고	-3029
▁액션영화	-3030
▁영화라는	-3031
▁사랑스러운	-3032
on	-3033
▁꽃	-3034
▁뜻	-3035
느라	-3036
란다	-3037
해진	-3038
▁살다	-3039
하시는	-3040
...?	-3041
▁결말은	-3042
▁낮아서	-3043
▁볼만함	-3044
▁쓰래기	-3045
▁어머니	-3046
친다	-3047
하셨	-3048
▁고등	-3049
▁괴물	-3050
▁생애	-3051
▁싫다	-3052
▁잊을	-3053
▁평이	-3054
장면이	-3055
▁눈물을	-3056
▁마이너	-3057
▁베스트	-3058
▁여기서	-3059
▁지금은	-3060
▁지루할	-3061
▁좋습니다	-3062
▁닮	-3063
▁쌍	-3064
▁좌	-3065
가락	-3066
나왔	-3067
엄마	-3068
정신	-3069
▁50	-3070
▁나가	-3071
▁니콜	-3072
▁되고	-3073
▁때문	-3074
▁발전	-3075
▁새벽	-3076
▁생생	-3077
▁아나	-3078
▁연결	-3079
▁외계	-3080
▁죄다	-3081
▁처럼	-3082
▁느와르	-3083
▁무언가	-3084
▁정신병	-3085
▁재밌었음	-3086
▁익	-3087
▁줬	-3088
로우	-3089
만점	-3090
식을	-3091
아가	-3092
을거	-3093
이션	-3094
이후	-3095
자고	-3096
▁고통	-3097
▁과장	-3098
▁나은	-3099
▁남겨	-3100
▁단연	-3101
▁대표	-3102
▁밋밋	-3103
▁성인	-3104
▁일반	-3105
▁좀더	-3106
아니라	-3107
▁남자가	-3108
▁느낌을	-3109
▁아쉬움	-3110
▁연기자	-3111
▁이따위	-3112
▁체	-3113
▁푹	-3114
남는	-3115
버리	-3116
사의	-3117
전쟁	-3118
학년	-3119
▁묘사	-3120
▁바뀌	-3121
▁시걸	-3122
▁안돼	-3123
▁우주	-3124
수없는	-3125
집니다	-3126
한다고	-3127
▁배우들도	-3128
▁ᄋ	-3129
▁싱	-3130
성에	-3131
아주	-3132
온다	-3133
하라	-3134
한지	-3135
▁나옴	-3136
랍니다	-3137
연기도	-3138
였지만	-3139
▁못했다	-3140
▁뻔하고	-3141
▁스스로	-3142
▁재밌네	-3143
▁몰입해서	-3144
▁있습니다	-3145
▁현실적인	-3146
▁잭	-3147
감도	-3148
만화	-3149
줘야	-3150
피소	-3151
하구	-3152
한국	-3153
▁13	-3154
▁분들	-3155
▁시시	-3156
▁아들	-3157
▁아류	-3158
▁한데	-3159
▁견자단	-3160
▁느끼는	-3161
▁모든게	-3162
▁보니까	-3163
▁전문가	-3164
▁f	-3165
▁끝난	-3166
▁되지	-3167
▁많다	-3168
▁상업	-3169
▁슬퍼	-3170
▁인도	-3171
급영화	-3172
▁단순한	-3173
▁로그인	-3174
▁시대를	-3175
▁헐리웃	-3176
▁아직까지	-3177
▁이거보고	-3178
at	-3179
▁냉	-3180
▁쪽	-3181
나와	-3182
▁단지	-3183
▁벌써	-3184
▁외모	-3185
었는지	-3186
으로써	-3187
자체가	-3188
하려고	-3189
▁기독교	-3190
▁누구나	-3191
▁떠나서	-3192
▁무엇을	-3193
▁없다는	-3194
▁작가가	-3195
▁독립영화	-3196
▁이런영화가	-3197
▁앤	-3198
▁움	-3199
▁푸	-3200
셔서	-3201
영이	-3202
인들	-3203
함에	-3204
▁뒤로	-3205
▁발로	-3206
▁섹스	-3207
▁영국	-3208
▁은근	-3209
▁전반	-3210
▁주변	-3211
▁할말	-3212
겠네요	-3213
아까움	-3214
아니다	-3215
▁같아서	-3216
▁드럽게	-3217
▁마이클	-3218
▁생각없이	-3219
▁영화보는	-3220
▁재미있었다	-3221
▁뽑	-3222
괜찮	-3223
우고	-3224
작이	-3225
점주	-3226
▁레전	-3227
▁찝찝	-3228
▁흔한	-3229
감독이	-3230
줍니다	-3231
▁위대한	-3232
▁있어요	-3233
▁작품을	-3234
▁집에서	-3235
▁러닝타임	-3236
ie	-3237
▁떡	-3238
▁흉	-3239
긴다	-3240
도안	-3241
로도	-3242
인트	-3243
져요	-3244
쳤다	-3245
ing	-3246
▁다니	-3247
▁명품	-3248
▁발견	-3249
▁시각	-3250
▁연속	-3251
▁지켜	-3252
▁만든다	-3253
▁싶네요	-3254
▁안보고	-3255
▁않지만	-3256
▁옛날에	-3257
▁즐겁게	-3258
▁청소년	-3259
▁할말이	-3260
▁잔잔하고	-3261
계의	-3262
과의	-3263
나옴	-3264
답답	-3265
럽고	-3266
만드	-3267
소설	-3268
았고	-3269
▁18	-3270
▁갈등	-3271
▁공부	-3272
▁맨날	-3273
▁반복	-3274
▁보길	-3275
▁안봤	-3276
▁특수	-3277
인가요	-3278
캐릭터	-3279
▁ᅲᅲᅲ	-3280
▁김기덕	-3281
▁대사가	-3282
▁그렇다고	-3283
▁생각하고	-3284
▁영화에요	-3285
▁기대안하고	-3286
BS	-3287
▁줌	-3288
▁쥐	-3289
▁쿠	-3290
러디	-3291
려요	-3292
양이	-3293
여운	-3294
▁놀랐	-3295
▁망쳐	-3296
▁않아	-3297
▁찌질	-3298
▁한참	-3299
겠어요	-3300
더라면	-3301
리스마	-3302
처구니	-3303
▁인생의	-3304
▁유쾌하고	-3305
▁섞	-3306
나도	-3307
냐고	-3308
씬은	-3309
▁못할	-3310
▁문화	-3311
▁믿을	-3312
▁빼고	-3313
▁속에	-3314
▁타임	-3315
▁특이	-3316
▁멋지다	-3317
▁빠져들	-3318
▁생각나	-3319
▁아이돌	-3320
▁있네요	-3321
▁초반에	-3322
▁시간가는	-3323
거임	-3324
시에	-3325
▁ᄋᄋ	-3326
▁검색	-3327
▁국내	-3328
▁다양	-3329
▁에휴	-3330
▁우와	-3331
▁제로	-3332
▁쵝오	-3333
▁편견	-3334
스러움	-3335
시간에	-3336
▁덕분에	-3337
▁시트콤	-3338
▁이쁘고	-3339
▁탄탄한	-3340
▁하는지	-3341
▁힘들다	-3342
▁보고나면	-3343
▁빡	-3344
따구	-3345
불어	-3346
지어	-3347
편의	-3348
호가	-3349
▁가져	-3350
▁고마	-3351
▁로봇	-3352
▁볼게	-3353
▁여행	-3354
▁치밀	-3355
▁코난	-3356
소리가	-3357
아까워	-3358
▁사랑의	-3359
▁아줌마	-3360
▁음악과	-3361
▁있어야	-3362
▁좋아할	-3363
▁모르겠고	-3364
.4	-3365
겠음	-3366
석이	-3367
시작	-3368
정은	-3369
젠장	-3370
쳐서	-3371
키는	-3372
하려	-3373
ver	-3374
▁겨울	-3375
▁결과	-3376
▁높다	-3377
▁떠오	-3378
▁무비	-3379
▁미모	-3380
▁아역	-3381
▁암튼	-3382
▁와우	-3383
▁해리	-3384
시키는	-3385
아버지	-3386
▁007	-3387
▁멍청한	-3388
▁없는데	-3389
▁에피소	-3390
▁울었다	-3391
▁잔인한	-3392
▁히어로	-3393
▁!!!!	-3394
▁good	-3395
▁ᄀ	-3396
▁갠	-3397
▁센	-3398
▁콜	-3399
날때	-3400
되서	-3401
라가	-3402
이로	-3403
편도	-3404
했네	-3405
▁끌어	-3406
▁노답	-3407
▁무척	-3408
▁뭉클	-3409
▁세월	-3410
영화라	-3411
하겠다	-3412
하다니	-3413
▁대부분	-3414
▁말하는	-3415
▁있으면	-3416
▁즐거운	-3417
겠습니다	-3418
▁긴장감도	-3419
▁안타깝다	-3420
▁영화였어요	-3421
▁픽	-3422
간의	-3423
노래	-3424
눈물	-3425
애들	-3426
언니	-3427
트맨	-3428
하진	-3429
▁11	-3430
▁눈에	-3431
▁달달	-3432
▁동안	-3433
▁슬펐	-3434
▁왜케	-3435
▁죽은	-3436
내용도	-3437
야말로	-3438
▁아깝지	-3439
▁의외로	-3440
▁이후로	-3441
봤습니다	-3442
▁영화인듯	-3443
▁낳	-3444
당한	-3445
와의	-3446
▁게이	-3447
▁경험	-3448
▁기술	-3449
▁내려	-3450
▁새롭	-3451
▁신파	-3452
▁인내	-3453
▁자살	-3454
▁좋게	-3455
▁짝퉁	-3456
▁쩐다	-3457
▁최강	-3458
으니까	-3459
캐스팅	-3460
▁비현실	-3461
▁사랑은	-3462
▁아이가	-3463
▁아쉽네요	-3464
▁작품이다	-3465
▁초등학생	-3466
▁재미없어요	-3467
▁업	-3468
▁거기	-3469
▁거슬	-3470
▁관심	-3471
▁높아	-3472
▁늘어	-3473
▁많아	-3474
▁박진	-3475
▁복잡	-3476
▁불러	-3477
▁설마	-3478
▁울고	-3479
▁조선	-3480
▁할까	-3481
비디오	-3482
재밌다	-3483
▁나오면	-3484
▁무섭다	-3485
▁보았다	-3486
▁본영화	-3487
▁봤더니	-3488
▁빼고는	-3489
▁인간이	-3490
▁신선하고	-3491
▁재미있었어요	-3492
ᅲᅲᅲᅲᅲᅲᅲᅲ	-3493
bs	-3494
ov	-3495
▁h	-3496
▁웨	-3497
거라	-3498
사수	-3499
성은	-3500
씨의	-3501
테일	-3502
▁그거	-3503
▁만나	-3504
▁민망	-3505
▁우정	-3506
▁조합	-3507
▁허세	-3508
가지고	-3509
았지만	-3510
▁원작의	-3511
▁좋지만	-3512
▁어처구니	-3513
▁모르겠지만	-3514
▁썼	-3515
▁척	-3516
미가	-3517
버트	-3518
성치	-3519
아프	-3520
엇다	-3521
이스	-3522
장난	-3523
▁가면	-3524
▁극치	-3525
▁방법	-3526
▁작은	-3527
▁힘이	-3528
편보다	-3529
했네요	-3530
▁the	-3531
▁게다가	-3532
▁남자의	-3533
▁더불어	-3534
▁손발이	-3535
▁없었던	-3536
▁영화들	-3537
▁유명한	-3538
▁볼만하다	-3539
▁장면에서	-3540
▁흥미로운	-3541
▁쓰레기같은	-3542
▁최고입니다	-3543
20	-3544
▁p	-3545
▁멘	-3546
관이	-3547
함은	-3548
해지	-3549
▁범인	-3550
▁살고	-3551
▁어휴	-3552
▁오바	-3553
▁직접	-3554
▁틀어	-3555
▁학생	-3556
내용이	-3557
용으로	-3558
▁감정을	-3559
▁누군가	-3560
▁더러운	-3561
▁레전드	-3562
▁멋있다	-3563
▁완전히	-3564
▁하나의	-3565
드립니다	-3566
▁쓰레기다	-3567
▁연기력도	-3568
▁좋았지만	-3569
▁카리스마	-3570
▁학교에서	-3571
▁됨	-3572
▁뱀	-3573
것만	-3574
기분	-3575
대를	-3576
버림	-3577
살다	-3578
였고	-3579
영환	-3580
000	-3581
▁김민	-3582
▁달라	-3583
▁바꿔	-3584
▁삶에	-3585
▁않나	-3586
▁어우	-3587
▁영혼	-3588
▁일품	-3589
▁죽을	-3590
갈수록	-3591
본영화	-3592
점정도	-3593
▁박수를	-3594
▁웃음이	-3595
▁개연성이	-3596
▁지루하게	-3597
▁지루했다	-3598
ll	-3599
om	-3600
▁n	-3601
▁탐	-3602
만을	-3603
▁기가	-3604
▁끝이	-3605
▁도전	-3606
▁웃김	-3607
▁이정	-3608
▁정의	-3609
▁제이	-3610
▁조용	-3611
▁챙겨	-3612
거같다	-3613
버리는	-3614
버스터	-3615
없네요	-3616
▁보인다	-3617
▁본다면	-3618
▁스크린	-3619
▁역대급	-3620
▁의미를	-3621
▁포르노	-3622
▁앞으로도	-3623
▁좋겠어요	-3624
▁좋았으나	-3625
▁평점보고	-3626
▁다큐멘터리	-3627
▁따뜻해지는	-3628
.........	-3629
VD	-3630
▁e	-3631
니깐	-3632
려나	-3633
받은	-3634
▁가벼	-3635
▁교육	-3636
▁깜짝	-3637
▁다룬	-3638
▁못해	-3639
▁비판	-3640
▁빌려	-3641
었을까	-3642
에대한	-3643
▁몰입감	-3644
▁뿐이다	-3645
▁패러디	-3646
▁한번쯤	-3647
▁생각하는	-3648
▁유치하다	-3649
▁잊혀지지	-3650
▁재밌다고	-3651
▁엽	-3652
▁옆	-3653
거면	-3654
계속	-3655
레딧	-3656
부족	-3657
사이	-3658
상황	-3659
어이	-3660
요일	-3661
저도	-3662
적은	-3663
했어	-3664
▁꿈을	-3665
▁똑같	-3666
▁먹고	-3667
▁모를	-3668
▁못생	-3669
▁미드	-3670
▁보긴	-3671
▁여태	-3672
▁투자	-3673
▁화끈	-3674
그대로	-3675
년만에	-3676
▁뛰어넘	-3677
▁이유를	-3678
▁지나치게	-3679
▁기대했는데	-3680
▁런	-3681
▁엠	-3682
▁옥	-3683
▁탁	-3684
갔다	-3685
로만	-3686
성의	-3687
우기	-3688
우리	-3689
▁당연	-3690
▁많고	-3691
▁보며	-3692
▁이용	-3693
▁지겨	-3694
긴한데	-3695
스릴러	-3696
해진다	-3697
▁감동의	-3698
▁볼거리	-3699
▁스파이	-3700
▁알바들	-3701
▁우리의	-3702
▁유치함	-3703
▁이쁘다	-3704
▁재미잇	-3705
▁전설의	-3706
▁표현한	-3707
배우들의	-3708
▁보여주고	-3709
▁좋아해서	-3710
▁빅	-3711
▁탑	-3712
▁팀	-3713
그리	-3714
극장	-3715
는건	-3716
리언	-3717
받고	-3718
운드	-3719
편에	-3720
▁몇몇	-3721
▁이끌	-3722
▁잠깐	-3723
▁타이	-3724
들이랑	-3725
재밌음	-3726
차라리	-3727
▁199	-3728
▁모르게	-3729
▁못한다	-3730
▁반개도	-3731
▁싶은데	-3732
▁않을까	-3733
▁주성치	-3734
▁느껴진다	-3735
▁사람들의	-3736
▁이해하기	-3737
▁진부하고	-3738
▁봉	-3739
▁술	-3740
▁콩	-3741
니당	-3742
동생	-3743
루스	-3744
머리	-3745
명을	-3746
문제	-3747
부작	-3748
세상	-3749
임을	-3750
있나	-3751
▁김수	-3752
▁봤을	-3753
▁영어	-3754
▁인기	-3755
▁커플	-3756
▁필름	-3757
학교때	-3758
▁가슴에	-3759
▁그녀의	-3760
▁들었다	-3761
▁봤을때	-3762
▁아까울	-3763
▁우리는	-3764
▁전개도	-3765
▁좋았을	-3766
▁사랑이야기	-3767
ar	-3768
▁k	-3769
▁쏘	-3770
것들	-3771
냄새	-3772
슬프	-3773
주가	-3774
했나	-3775
▁관한	-3776
▁국가	-3777
▁대중	-3778
▁따로	-3779
▁레알	-3780
▁류승	-3781
▁뭐라	-3782
▁세련	-3783
▁아닙	-3784
▁응원	-3785
▁이럴	-3786
▁정체	-3787
▁착한	-3788
▁할리	-3789
배우가	-3790
하던데	-3791
▁대해서	-3792
▁모두가	-3793
▁보려고	-3794
▁볼수있	-3795
▁점수가	-3796
사람들이	-3797
▁무섭지도	-3798
▁좋아하는데	-3799
▁한국영화는	-3800
놈들	-3801
라인	-3802
로써	-3803
먹는	-3804
분은	-3805
삭제	-3806
아쉽	-3807
왜이	-3808
이기	-3809
임스	-3810
자나	-3811
토록	-3812
▁강력	-3813
▁공짜	-3814
▁대화	-3815
▁못함	-3816
▁아기	-3817
▁악마	-3818
▁욕망	-3819
▁움직	-3820
▁이도	-3821
▁이민	-3822
▁제시	-3823
▁해결	-3824
점이다	-3825
▁넘치는	-3826
▁똑같은	-3827
▁보여줬	-3828
▁재미와	-3829
▁참으로	-3830
▁아름다움	-3831
▁웃기지도	-3832
▁꽝	-3833
▁쏟	-3834
▁찰	-3835
비가	-3836
설정	-3837
속의	-3838
시즌	-3839
제작	-3840
▁감흥	-3841
▁감히	-3842
▁개뿔	-3843
▁담아	-3844
▁어지	-3845
▁오로	-3846
▁올려	-3847
▁짜임	-3848
▁풍경	-3849
보다도	-3850
은영화	-3851
▁개막장	-3852
▁명작이	-3853
▁원작이	-3854
▁재밋다	-3855
▁할머니	-3856
지마세요	-3857
▁스토리의	-3858
▁왠만하면	-3859
▁이제서야	-3860
!!!!!!!!!!!!!!!!	-3861
▁y	-3862
▁맹	-3863
기지	-3864
식의	-3865
씬이	-3866
아나	-3867
일본	-3868
회가	-3869
▁내면	-3870
▁변태	-3871
▁빈약	-3872
▁아동	-3873
▁안본	-3874
▁야동	-3875
▁없지	-3876
▁젠장	-3877
▁주말	-3878
끝까지	-3879
되었다	-3880
▁DVD	-3881
▁작품은	-3882
▁장르가	-3883
▁죽이고	-3884
▁하는거	-3885
▁행복한	-3886
사람들은	-3887
▁부족하다	-3888
느니	-3889
님들	-3890
몰입	-3891
버그	-3892
신은	-3893
..1	-3894
▁간다	-3895
▁겨우	-3896
▁보자	-3897
▁블록	-3898
▁신비	-3899
▁잊지	-3900
▁자주	-3901
되네요	-3902
려다가	-3903
인들이	-3904
▁말아먹	-3905
▁없어요	-3906
▁있는지	-3907
좋아하는	-3908
지도않고	-3909
▁괜찮은데	-3910
▁긴장감이	-3911
▁보여준다	-3912
▁있었지만	-3913
▁캐릭터가	-3914
▁감동적이다	-3915
▁영화보면서	-3916
▁L	-3917
▁됬	-3918
▁육	-3919
만은	-3920
받는	-3921
요소	-3922
우가	-3923
점줌	-3924
포터	-3925
▁그건	-3926
▁받을	-3927
▁수고	-3928
▁싶을	-3929
▁어두	-3930
▁관객을	-3931
▁미스터	-3932
▁생각함	-3933
▁심하게	-3934
▁왜이래	-3935
▁정도의	-3936
▁말도안되는	-3937
무지	-3938
음이	-3939
자연	-3940
▁기발	-3941
▁깨달	-3942
▁대본	-3943
▁무술	-3944
▁이소	-3945
▁인해	-3946
▁작위	-3947
▁하늘	-3948
있어서	-3949
▁그당시	-3950
▁깨닫게	-3951
▁노래도	-3952
▁동성애	-3953
▁있구나	-3954
▁어린시절	-3955
▁끈	-3956
▁멈	-3957
▁컴	-3958
게요	-3959
년의	-3960
루즈	-3961
아직	-3962
았을	-3963
애가	-3964
얘기	-3965
원의	-3966
이들	-3967
▁다루	-3968
▁둘이	-3969
▁드림	-3970
▁모험	-3971
▁보통	-3972
▁신고	-3973
▁아픈	-3974
▁전율	-3975
▁하네	-3976
감독의	-3977
장면은	-3978
했다고	-3979
▁감명깊	-3980
▁막판에	-3981
▁배우를	-3982
▁보다는	-3983
▁세상을	-3984
▁영화네	-3985
▁한심한	-3986
▁2014	-3987
▁재미없게	-3988
▁뿌	-3989
▁쩝	-3990
▁칭	-3991
감은	-3992
더빙	-3993
드로	-3994
드시	-3995
라기	-3996
력을	-3997
리카	-3998
뻔한	-3999
어여	-4000
얼굴	-4001
역사	-4002
인것	-4003
▁떠올	-4004
▁비밀	-4005
▁사진	-4006
▁설득	-4007
▁안볼	-4008
▁조니	-4009
▁짝이	-4010
▁찍어	-4011
▁최초	-4012
▁테러	-4013
▁해라	-4014
스타일	-4015
자들이	-4016
▁내가본	-4017
▁답답한	-4018
▁수준의	-4019
▁않네요	-4020
▁영원히	-4021
▁위해서	-4022
▁자신을	-4023
▁자신이	-4024
▁훈훈한	-4025
▁개연성도	-4026
▁ᄆ	-4027
▁깎	-4028
▁엿	-4029
▁옷	-4030
겨진	-4031
도는	-4032
러워	-4033
배경	-4034
솔직	-4035
연이	-4036
▁등등	-4037
▁만한	-4038
▁무리	-4039
▁방영	-4040
▁볼거	-4041
▁아예	-4042
▁야구	-4043
▁올리	-4044
▁우려	-4045
▁위로	-4046
▁인디	-4047
▁클레	-4048
년도에	-4049
▁디테일	-4050
▁분들은	-4051
▁죽는줄	-4052
것같아요	-4053
▁보지마라	-4054
▁분위기가	-4055
▁생각하면	-4056
▁짜증난다	-4057
ᄏᄏᄏᄏᄏᄏ	-4058
▁시간가는줄	-4059
▁이런영화를	-4060
▁P	-4061
가슴	-4062
냈다	-4063
는대	-4064
억지	-4065
원작	-4066
인과	-4067
제발	-4068
지요	-4069
초반	-4070
▁낚시	-4071
▁바꾸	-4072
▁사고	-4073
▁살려	-4074
▁에서	-4075
▁유지	-4076
▁효과	-4077
▁가치가	-4078
▁그렇지	-4079
▁다시는	-4080
▁대놓고	-4081
▁문제가	-4082
▁연기잘	-4083
▁중요한	-4084
보고싶다	-4085
▁드립니다	-4086
▁생각나서	-4087
▁있었는데	-4088
▁명작입니다	-4089
????????	-4090
▁N	-4091
▁앉	-4092
건만	-4093
관람	-4094
바이	-4095
보자	-4096
분의	-4097
소녀	-4098
왔다	-4099
이걸	-4100
제가	-4101
추기	-4102
통령	-4103
▁21	-4104
▁결정	-4105
▁다이	-4106
▁도망	-4107
▁여름	-4108
▁오빠	-4109
▁잔뜩	-4110
▁최민	-4111
▁해석	-4112
겠다는	-4113
기에는	-4114
다는걸	-4115
분들은	-4116
▁기다려	-4117
▁나오지	-4118
▁오랜만	-4119
▁이래서	-4120
▁현실성	-4121
▁만들어도	-4122
▁비디오로	-4123
▁안타까운	-4124
▁알겠는데	-4125
▁재밌던데	-4126
▁남자주인공	-4127
en	-4128
▁낙	-4129
그만	-4130
데이	-4131
드를	-4132
리네	-4133
부를	-4134
세포	-4135
쓰고	-4136
출연	-4137
취향	-4138
티브	-4139
피스	-4140
후반	-4141
▁sf	-4142
▁남은	-4143
▁돈을	-4144
▁배역	-4145
▁심오	-4146
▁알수	-4147
▁일이	-4148
▁장애	-4149
▁제외	-4150
▁지났	-4151
▁집에	-4152
만큼은	-4153
지말고	-4154
하고자	-4155
▁가슴을	-4156
▁노래가	-4157
▁느낄수	-4158
▁만들면	-4159
▁재밌을	-4160
▁제임스	-4161
▁죽이는	-4162
▁추억이	-4163
영화인데	-4164
▁극장가서	-4165
▁만들다니	-4166
▁없습니다	-4167
▁보았습니다	-4168
▁킬링타임용으로	-4169
▁겪	-4170
▁왤	-4171
겨서	-4172
미네	-4173
번은	-4174
보네	-4175
씨는	-4176
장을	-4177
형래	-4178
▁높게	-4179
▁양심	-4180
▁열정	-4181
▁웃고	-4182
겁니다	-4183
▁결말을	-4184
▁뭐하나	-4185
▁반전은	-4186
▁색다른	-4187
▁소중한	-4188
▁어쩔수	-4189
▁연출과	-4190
▁잘하고	-4191
▁잼있다	-4192
▁지나도	-4193
▁짜임새	-4194
▁기대이상	-4195
▁답답하고	-4196
▁모르겠음	-4197
▁본방사수	-4198
▁여러가지	-4199
▁억지스러운	-4200
11	-4201
▁묵	-4202
만다	-4203
멘타	-4204
빼고	-4205
세기	-4206
였어	-4207
요즘	-4208
종일	-4209
짱짱	-4210
함의	-4211
▁결코	-4212
▁길게	-4213
▁무한	-4214
▁상관	-4215
▁새끼	-4216
▁성격	-4217
▁스페	-4218
▁어쩜	-4219
▁잔혹	-4220
▁정확	-4221
그래서	-4222
만들어	-4223
웠지만	-4224
하는건	-4225
▁매력을	-4226
▁봅니다	-4227
▁비하면	-4228
▁소름이	-4229
▁속에서	-4230
▁애들은	-4231
▁어이없	-4232
▁여운을	-4233
▁오래된	-4234
▁의미가	-4235
배우들이	-4236
생각없이	-4237
▁감정이입	-4238
▁떨어진다	-4239
▁스트레스	-4240
▁아닙니다	-4241
▁인상적이	-4242
▁정말이지	-4243
▁주인공은	-4244
▁하나같이	-4245
▁블록버스터	-4246
▁재미없었다	-4247
▁씹	-4248
▁택	-4249
▁펼	-4250
나다	-4251
낸다	-4252
든지	-4253
생활	-4254
시청	-4255
인도	-4256
좋음	-4257
OOO	-4258
▁기준	-4259
▁데이	-4260
▁둘째	-4261
▁부실	-4262
▁아래	-4263
▁연극	-4264
▁있던	-4265
▁치고	-4266
▁한명	-4267
다는거	-4268
레이션	-4269
줄이야	-4270
파이어	-4271
ᄒᄒᄒᄒ	-4272
▁구성이	-4273
▁나쁘지	-4274
▁느꼈다	-4275
▁데리고	-4276
▁또다른	-4277
▁소소한	-4278
▁영화화	-4279
▁예쁘고	-4280
▁작가님	-4281
▁최근에	-4282
▁한국의	-4283
▁흥미로	-4284
보는내내	-4285
해주세요	-4286
▁그저그런	-4287
▁엉성하고	-4288
▁이야기는	-4289
영화입니다	-4290
▁크리스마스	-4291
▁ᄏᄏᄏᄏᄏᄏ	-4292
▁넌	-4293
과서	-4294
나니	-4295
는듯	-4296
능력	-4297
다큐	-4298
때문	-4299
사건	-4300
신을	-4301
아무	-4302
어리	-4303
장한	-4304
지면	-4305
▁감각	-4306
▁낮네	-4307
▁빠진	-4308
▁선동	-4309
▁언니	-4310
▁울컥	-4311
▁일깨	-4312
▁조작	-4313
▁충실	-4314
▁혹은	-4315
보니까	-4316
부분이	-4317
연기는	-4318
연기력	-4319
웠어요	-4320
▁거기에	-4321
▁아니야	-4322
▁여주가	-4323
▁연예인	-4324
▁이것이	-4325
▁이해안	-4326
▁잘어울	-4327
▁최고로	-4328
▁최고였다	-4329
▁막장드라마	-4330
▁낭	-4331
뭥미	-4332
바로	-4333
잡고	-4334
주연	-4335
▁14	-4336
▁갖고	-4337
▁만남	-4338
▁책을	-4339
▁탄생	-4340
▁할수	-4341
들이나	-4342
봤지만	-4343
이였다	-4344
이영화	-4345
점만점	-4346
해주고	-4347
▁많은데	-4348
▁잼나게	-4349
▁적당히	-4350
▁한국인	-4351
▁몰입도가	-4352
▁무엇인지	-4353
▁잘봤어요	-4354
vd	-4355
▁떨	-4356
▁몬	-4357
▁샘	-4358
▁웰	-4359
▁헬	-4360
대단	-4361
되면	-4362
르게	-4363
스크	-4364
아쉬	-4365
음을	-4366
허접	-4367
▁60	-4368
▁끝났	-4369
▁놓고	-4370
▁단편	-4371
▁달리	-4372
▁먼가	-4373
▁못봐	-4374
▁봐줄	-4375
▁생활	-4376
▁손에	-4377
▁시키	-4378
▁아내	-4379
▁야한	-4380
나오고	-4381
어떻게	-4382
인줄알	-4383
점대는	-4384
▁거짓말	-4385
▁그만큼	-4386
▁느낌의	-4387
▁명작을	-4388
▁식상한	-4389
▁실제로	-4390
▁주기도	-4391
▁참신한	-4392
했었는데	-4393
▁다운받아	-4394
▁시리즈중	-4395
▁집중해서	-4396
it	-4397
▁F	-4398
▁X	-4399
▁ᄇ	-4400
▁낯	-4401
▁홀	-4402
니퍼	-4403
리로	-4404
모두	-4405
뭐야	-4406
어디	-4407
치가	-4408
커플	-4409
팩트	-4410
후의	-4411
▁거부	-4412
▁끔찍	-4413
▁낮게	-4414
▁넘게	-4415
▁담배	-4416
▁명화	-4417
▁본게	-4418
▁빼면	-4419
▁사투	-4420
▁안된	-4421
▁안습	-4422
▁열받	-4423
▁자식	-4424
▁장국	-4425
▁잼잇	-4426
▁플롯	-4427
는거야	-4428
만하다	-4429
점에서	-4430
▁그자체	-4431
▁낚였다	-4432
▁남네요	-4433
▁다양한	-4434
▁살면서	-4435
▁수많은	-4436
▁스티븐	-4437
▁심형래	-4438
▁아무런	-4439
▁약간의	-4440
▁영상이	-4441
▁질리지	-4442
▁하는게	-4443
▁했으면	-4444
미네이터	-4445
없는영화	-4446
▁살다살다	-4447
▁살아가는	-4448
▁시청률이	-4449
▁전기세가	-4450
▁생각했는데	-4451
ad	-4452
▁껐	-4453
▁났	-4454
▁첩	-4455
▁캬	-4456
강호	-4457
다음	-4458
동차	-4459
리면	-4460
묘한	-4461
상은	-4462
형님	-4463
▁기자	-4464
▁다크	-4465
▁듣고	-4466
▁뭘까	-4467
▁앞뒤	-4468
▁애기	-4469
▁유아	-4470
▁조카	-4471
▁주기	-4472
▁집착	-4473
▁첨엔	-4474
것같은	-4475
기전에	-4476
인데도	-4477
▁놀라운	-4478
▁돌아가	-4479
▁로버트	-4480
▁별로임	-4481
▁부분도	-4482
▁심지어	-4483
▁짜증만	-4484
▁친구가	-4485
▁핵노잼	-4486
▁그야말로	-4487
▁바랍니다	-4488
▁보기에는	-4489
▁볼수있는	-4490
▁봤는데도	-4491
▁연기력은	-4492
▁특수효과	-4493
▁훌륭하다	-4494
▁마지막까지	-4495
▁재미도없고	-4496
zz	-4497
▁W	-4498
▁쥬	-4499
▁휘	-4500
년작	-4501
누나	-4502
라의	-4503
버려	-4504
부가	-4505
분을	-4506
아는	-4507
윤발	-4508
이쁘	-4509
이어	-4510
제로	-4511
티즌	-4512
▁??	-4513
▁가지	-4514
▁꽤나	-4515
▁다를	-4516
▁뭐니	-4517
▁본거	-4518
▁볼때	-4519
▁새로	-4520
▁시끄	-4521
▁영향	-4522
▁한숨	-4523
▁헤어	-4524
▁형사	-4525
엇는데	-4526
전개가	-4527
했으나	-4528
▁감동은	-4529
▁교훈을	-4530
▁나머지	-4531
▁브루스	-4532
▁소설을	-4533
▁소재도	-4534
▁아류작	-4535
▁여자의	-4536
▁원작에	-4537
▁자체는	-4538
▁주윤발	-4539
▁주제를	-4540
마지막에	-4541
하는영화	-4542
▁만든영화	-4543
▁시리즈는	-4544
▁에피소드	-4545
▁영화인가	-4546
▁이상하게	-4547
▁재미있습니다	-4548
..........	-4549
▁K	-4550
▁튀	-4551
▁효	-4552
나네	-4553
빨리	-4554
서는	-4555
이에	-4556
치곤	-4557
▁들고	-4558
▁살린	-4559
▁서부	-4560
▁쓰고	-4561
▁안쓰	-4562
▁안에	-4563
▁위험	-4564
갑니다	-4565
는영화	-4566
봤네요	-4567
속으로	-4568
솔직히	-4569
하는것	-4570
▁감독을	-4571
▁교과서	-4572
▁당신은	-4573
▁러시아	-4574
▁반드시	-4575
▁않아서	-4576
▁역사를	-4577
▁웃기다	-4578
▁장면도	-4579
▁첫사랑	-4580
▁한편의	-4581
▁배우들은	-4582
▁생각으로	-4583
▁아쉽지만	-4584
▁어느정도	-4585
▁여자친구	-4586
▁잼있어요	-4587
▁좋겠네요	-4588
▁포스터가	-4589
▁만들었는지	-4590
▁벤	-4591
개는	-4592
구성	-4593
래곤	-4594
뢰매	-4595
리며	-4596
시오	-4597
싫어	-4598
싸움	-4599
오래	-4600
으신	-4601
이여	-4602
절대	-4603
조금	-4604
치노	-4605
트의	-4606
하길	-4607
▁be	-4608
▁가르	-4609
▁김혜	-4610
▁당황	-4611
▁따분	-4612
▁매일	-4613
▁무료	-4614
▁묻어	-4615
▁비행	-4616
▁읽어	-4617
▁잠시	-4618
▁정작	-4619
▁짜집	-4620
▁짧은	-4621
▁타고	-4622
▁호구	-4623
감독님	-4624
으로는	-4625
이었음	-4626
▁가벼운	-4627
▁당연히	-4628
▁무서워	-4629
▁별로고	-4630
▁봤을까	-4631
▁엄마가	-4632
▁영화와	-4633
▁일깨워	-4634
▁있다니	-4635
▁최고임	-4636
▁특별한	-4637
▁하다가	-4638
▁한번도	-4639
재미없음	-4640
▁궁금하다	-4641
▁떨어지고	-4642
▁어울리는	-4643
▁영화인지	-4644
▁주인공들	-4645
▁처음에는	-4646
▁태어나서	-4647
▁객	-4648
같고	-4649
개인	-4650
도를	-4651
매력	-4652
문화	-4653
선을	-4654
스키	-4655
신의	-4656
어린	-4657
여행	-4658
했지	-4659
▁꼬마	-4660
▁낮지	-4661
▁내게	-4662
▁때려	-4663
▁목숨	-4664
▁받은	-4665
▁베드	-4666
▁손색	-4667
▁쓰는	-4668
▁웃겼	-4669
▁조절	-4670
나와서	-4671
심으로	-4672
였으면	-4673
자들의	-4674
적이지	-4675
해지고	-4676
▁귀여워	-4677
▁그것도	-4678
▁부모님	-4679
▁이딴걸	-4680
▁말하고자	-4681
▁쓸데없이	-4682
▁아름답게	-4683
▁어설프고	-4684
▁유일하게	-4685
▁재밌다는	-4686
▁짜증나서	-4687
▁여자주인공	-4688
ut	-4689
▁깡	-4690
▁틈	-4691
▁혐	-4692
가네	-4693
겠죠	-4694
긴장	-4695
대해	-4696
덕화	-4697
로드	-4698
리나	-4699
모든	-4700
박한	-4701
상수	-4702
악한	-4703
오늘	-4704
일을	-4705
적임	-4706
정의	-4707
프닝	-4708
하군	-4709
▁끼워	-4710
▁낮다	-4711
▁마약	-4712
▁미쳤	-4713
▁바다	-4714
▁본지	-4715
▁언젠	-4716
▁있네	-4717
▁적절	-4718
▁정우	-4719
▁주지	-4720
▁추격	-4721
▁팬이	-4722
았으면	-4723
했을때	-4724
▁그립다	-4725
▁내용과	-4726
▁놀랍다	-4727
▁배우도	-4728
▁보지말	-4729
▁시간만	-4730
▁싸우는	-4731
▁여자들	-4732
▁이따구	-4733
▁이런건	-4734
▁이상의	-4735
▁이해를	-4736
▁일부러	-4737
▁처음에	-4738
▁출연한	-4739
▁희망을	-4740
있습니다	-4741
▁나름대로	-4742
▁따뜻하고	-4743
▁수작이다	-4744
▁웃으면서	-4745
▁클레멘타	-4746
12	-4747
▁늑	-4748
▁댄	-4749
▁염	-4750
거든	-4751
리와	-4752
뭔가	-4753
보영	-4754
보지	-4755
복을	-4756
상의	-4757
시면	-4758
야할	-4759
이도	-4760
햇다	-4761
혼자	-4762
▁근래	-4763
▁나랑	-4764
▁로코	-4765
▁수입	-4766
▁싸움	-4767
▁아버	-4768
▁안될	-4769
▁재능	-4770
▁클래	-4771
▁파워	-4772
메이드	-4773
스럽지	-4774
으려고	-4775
하자는	-4776
해야지	-4777
▁dvd	-4778
▁강렬한	-4779
▁괜찮다	-4780
▁나에겐	-4781
▁많은걸	-4782
▁모든걸	-4783
▁반전을	-4784
▁배우는	-4785
▁배트맨	-4786
▁보다니	-4787
▁소재와	-4788
▁엔딩이	-4789
▁영상과	-4790
▁영화만	-4791
▁장면을	-4792
▁조니뎁	-4793
웠습니다	-4794
▁이드라마	-4795
▁이상하고	-4796
▁해리포터	-4797
▁재미없어서	-4798
.0	-4799
▁곧	-4800
▁님	-4801
▁링	-4802
▁팝	-4803
개그	-4804
게임	-4805
정한	-4806
정화	-4807
체가	-4808
함도	-4809
▁of	-4810
▁무너	-4811
▁빵빵	-4812
▁빵터	-4813
▁실력	-4814
▁애국	-4815
▁애매	-4816
▁이병	-4817
▁이야	-4818
▁이은	-4819
▁화장	-4820
▁확인	-4821
건가요	-4822
기까지	-4823
부터가	-4824
애들이	-4825
었다는	-4826
점으로	-4827
하고싶	-4828
?...	-4829
▁두번째	-4830
▁많아서	-4831
▁사람도	-4832
▁연출은	-4833
▁이라는	-4834
▁이소룡	-4835
▁있다고	-4836
▁제목만	-4837
▁중에서	-4838
▁지금의	-4839
거같아요	-4840
긴하지만	-4841
▁다시보니	-4842
▁배경음악	-4843
▁아니라고	-4844
▁아쉬움이	-4845
is	-4846
ᅲᅮ	-4847
굿굿	-4848
드리	-4849
때매	-4850
또한	-4851
레인	-4852
로의	-4853
성과	-4854
슨이	-4855
아름	-4856
어용	-4857
인건	-4858
쟁이	-4859
죽는	-4860
중이	-4861
직한	-4862
후회	-4863
▁감안	-4864
▁강한	-4865
▁극단	-4866
▁김지	-4867
▁다섯	-4868
▁별반	-4869
▁보던	-4870
▁봤네	-4871
▁부르	-4872
▁신의	-4873
▁아냐	-4874
▁아놀	-4875
▁어째	-4876
▁자세	-4877
▁착각	-4878
▁하여	-4879
▁흑인	-4880
같아요	-4881
면에서	-4882
어야지	-4883
었구나	-4884
에게는	-4885
잖아요	-4886
▁you	-4887
▁공포물	-4888
▁내생에	-4889
▁너무도	-4890
▁대통령	-4891
▁머리가	-4892
▁새벽에	-4893
▁생각할	-4894
▁아깝고	-4895
▁울리는	-4896
▁유일한	-4897
▁일본은	-4898
▁일본의	-4899
▁잘하는	-4900
▁제니퍼	-4901
▁주제가	-4902
▁진짜로	-4903
▁하길래	-4904
▁흐르는	-4905
영화보다	-4906
▁아이들과	-4907
▁재밌어서	-4908
▁할리우드	-4909
▁아까운영화	-4910
▁이런영화는	-4911
▁케이블에서	-4912
▁터미네이터	-4913
▁곽	-4914
선생	-4915
스포	-4916
아치	-4917
있을	-4918
장르	-4919
정우	-4920
▁고맙	-4921
▁난잡	-4922
▁남기	-4923
▁동양	-4924
▁맞춰	-4925
▁배신	-4926
▁싶지	-4927
▁외로	-4928
▁위대	-4929
▁폐지	-4930
뿐이다	-4931
있네요	-4932
▁ᄍᄍᄍ	-4933
▁나네요	-4934
▁단순히	-4935
▁몰랐다	-4936
▁생각도	-4937
▁숨겨진	-4938
▁실화를	-4939
▁싶어요	-4940
▁없었음	-4941
▁여자는	-4942
▁영환데	-4943
▁예쁘다	-4944
▁잊혀지	-4945
▁잘못된	-4946
▁점수는	-4947
▁초딩때	-4948
▁하나로	-4949
▁돋보이는	-4950
▁언제봐도	-4951
ᄏᄏᄏᄏᄏᄏᄏ	-4952
.3	-4953
le	-4954
▁덤	-4955
▁컬	-4956
미는	-4957
민이	-4958
부로	-4959
뻐요	-4960
오브	-4961
이름	-4962
전을	-4963
차별	-4964
▁과학	-4965
▁독일	-4966
▁두려	-4967
▁디워	-4968
▁망친	-4969
▁배급	-4970
▁빠른	-4971
▁소피	-4972
▁예능	-4973
▁편안	-4974
▁하아	-4975
듭니다	-4976
하나도	-4977
▁감동받	-4978
▁그동안	-4979
▁됩니다	-4980
▁못하다	-4981
▁불편한	-4982
▁사운드	-4983
▁안봐도	-4984
▁여러번	-4985
▁인생에	-4986
▁줍니다	-4987
▁집중이	-4988
▁혹시나	-4989
스토리도	-4990
하지않고	-4991
▁2000	-4992
▁마음으로	-4993
▁매력적이	-4994
▁어색하고	-4995
▁한국에서	-4996
▁떼	-4997
▁숙	-4998
▁쭉	-4999
느껴	-5000
드만	-5001
랜드	-5002
러스	-5003
버릴	-5004
였네	-5005
웃김	-5006
이프	-5007
일듯	-5008
잡을	-5009
졌음	-5010
팔이	-5011
하러	-5012
▁같고	-5013
▁개념	-5014
▁개성	-5015
▁기타	-5016
▁땜에	-5017
▁로빈	-5018
▁사용	-5019
▁서양	-5020
▁선물	-5021
▁실험	-5022
▁없게	-5023
▁오브	-5024
▁익숙	-5025
▁저급	-5026
▁정보	-5027
▁중독	-5028
▁형님	-5029
▁흑백	-5030
관에서	-5031
어가는	-5032
으로만	-5033
점주고	-5034
좋았다	-5035
▁갑니다	-5036
▁개노잼	-5037
▁다르게	-5038
▁떨어짐	-5039
▁멋있는	-5040
▁멋지고	-5041
▁보기에	-5042
▁봤다면	-5043
▁아니지	-5044
▁아들이	-5045
▁어른이	-5046
▁이보다	-5047
▁재미로	-5048
▁짜증남	-5049
▁후속작	-5050
▁희대의	-5051
스토리가	-5052
▁마이너스	-5053
▁봐도봐도	-5054
▁모르겠네요	-5055
▁R	-5056
▁든	-5057
▁엔	-5058
▁헌	-5059
래도	-5060
볼만	-5061
부는	-5062
아빠	-5063
어지	-5064
은거	-5065
자로	-5066
자와	-5067
주면	-5068
줄은	-5069
판이	-5070
히고	-5071
▁가고	-5072
▁그들	-5073
▁남편	-5074
▁낮아	-5075
▁따위	-5076
▁망한	-5077
▁사상	-5078
▁생긴	-5079
▁스텝	-5080
▁유발	-5081
▁이수	-5082
▁잊고	-5083
▁하품	-5084
는거지	-5085
는데도	-5086
도대체	-5087
었다고	-5088
하거나	-5089
하더라	-5090
0000	-5091
▁결론은	-5092
▁괜찮음	-5093
▁나왔다	-5094
▁높아서	-5095
▁다르다	-5096
▁사랑해	-5097
▁안간다	-5098
▁없나요	-5099
▁이뻐서	-5100
▁이토록	-5101
▁저평가	-5102
▁좋다고	-5103
▁최고봉	-5104
▁현실이	-5105
▁기억나는	-5106
▁나레이션	-5107
▁마지막이	-5108
▁사랑해요	-5109
▁영화자체	-5110
▁이해할수	-5111
▁재밋어요	-5112
▁짜증나고	-5113
▁ᄏᄏᄏᄏᄏᄏᄏ	-5114
▁걱	-5115
▁옹	-5116
간에	-5117
같아	-5118
개가	-5119
놨네	-5120
드림	-5121
모로	-5122
보내	-5123
사에	-5124
식은	-5125
안됨	-5126
여주	-5127
쯧쯧	-5128
추억	-5129
희가	-5130
▁두근	-5131
▁로드	-5132
▁망가	-5133
▁망치	-5134
▁왤케	-5135
▁으로	-5136
▁인형	-5137
▁자랑	-5138
▁줄리	-5139
▁탈출	-5140
▁판단	-5141
▁폭풍	-5142
▁프레	-5143
▁하시	-5144
분만에	-5145
생각이	-5146
최악의	-5147
▁네티즌	-5148
▁도무지	-5149
▁만화책	-5150
▁사이코	-5151
▁스릴도	-5152
▁시간에	-5153
▁알겠다	-5154
▁전쟁의	-5155
▁짜증이	-5156
▁찾아볼	-5157
도아니고	-5158
▁괜찮았다	-5159
▁궁금해서	-5160
▁아까웠다	-5161
▁영상미가	-5162
▁영화라니	-5163
▁여주인공이	-5164
as	-5165
▁갓	-5166
▁땅	-5167
▁땡	-5168
▁뭣	-5169
▁뽀	-5170
▁혁	-5171
가면	-5172
관객	-5173
기법	-5174
느끼	-5175
더더	-5176
사와	-5177
성기	-5178
싫다	-5179
웠고	-5180
전이	-5181
중반	-5182
즈의	-5183
지현	-5184
진이	-5185
테러	-5186
티노	-5187
퓨터	-5188
▁각색	-5189
▁거북	-5190
▁겉멋	-5191
▁극복	-5192
▁김태	-5193
▁달콤	-5194
▁대신	-5195
▁루즈	-5196
▁만약	-5197
▁말자	-5198
▁박수	-5199
▁반담	-5200
▁본듯	-5201
▁아우	-5202
▁압도	-5203
▁유럽	-5204
▁이다	-5205
▁이성	-5206
▁잠이	-5207
▁즐겨	-5208
▁컨셉	-5209
▁케빈	-5210
▁평균	-5211
▁폭발	-5212
▁프리	-5213
▁한방	-5214
납니다	-5215
모르고	-5216
보이는	-5217
아저씨	-5218
왔는데	-5219
▁느낌은	-5220
▁매니아	-5221
▁뭐하는	-5222
▁사실을	-5223
▁어우러	-5224
▁우뢰매	-5225
▁장국영	-5226
▁재개봉	-5227
▁적어도	-5228
▁주고싶	-5229
▁지겹다	-5230
▁한다는	-5231
하지마라	-5232
▁갠적으로	-5233
▁믿고보는	-5234
▁뱀파이어	-5235
▁불쌍하다	-5236
▁오랫만에	-5237
▁유쾌하게	-5238
▁괜찮았는데	-5239
▁작품입니다	-5240
▁재미없다고	-5241
▁한국영화의	-5242
▁꿀	-5243
▁벨	-5244
▁콘	-5245
까요	-5246
나의	-5247
딩때	-5248
보긴	-5249
분위	-5250
불허	-5251
빠진	-5252
서도	-5253
세여	-5254
스케	-5255
하균	-5256
하디	-5257
▁관련	-5258
▁김치	-5259
▁꿈꾸	-5260
▁끌고	-5261
▁달려	-5262
▁맛이	-5263
▁맞아	-5264
▁멋지	-5265
▁뭥미	-5266
▁밀려	-5267
▁부담	-5268
▁빛을	-5269
▁열연	-5270
▁원조	-5271
▁자본	-5272
▁잤다	-5273
▁진리	-5274
▁파괴	-5275
▁평소	-5276
▁했음	-5277
▁환경	-5278
▁힘내	-5279
게하는	-5280
라이언	-5281
어버린	-5282
있었다	-5283
정적인	-5284
햇는데	-5285
▁가족이	-5286
▁고양이	-5287
▁공짜로	-5288
▁다세포	-5289
▁되네요	-5290
▁떨어지	-5291
▁명작은	-5292
▁분들이	-5293
▁불쌍한	-5294
▁액션을	-5295
▁얼굴이	-5296
▁인간은	-5297
▁정도면	-5298
▁케릭터	-5299
▁현실과	-5300
같은영화	-5301
기도하고	-5302
재미있게	-5303
▁기대없이	-5304
▁소중함을	-5305
▁영화였음	-5306
▁자극적인	-5307
▁잔잔하게	-5308
▁시간아깝다	-5309
▁시나리오가	-5310
가에	-5311
마자	-5312
못해	-5313
물로	-5314
시원	-5315
아내	-5316
았네	-5317
어의	-5318
엇음	-5319
였나	-5320
으리	-5321
장의	-5322
졸작	-5323
해선	-5324
▁담겨	-5325
▁담백	-5326
▁못미	-5327
▁무겁	-5328
▁무게	-5329
▁바이	-5330
▁받고	-5331
▁서울	-5332
▁유행	-5333
▁으리	-5334
▁집어	-5335
▁천국	-5336
▁추리	-5337
거같음	-5338
배우의	-5339
분들이	-5340
스러워	-5341
ovie	-5342
▁가족의	-5343
▁그것을	-5344
▁내용의	-5345
▁다보고	-5346
▁못봐주	-5347
▁미국의	-5348
▁본건데	-5349
▁봐야지	-5350
▁살인마	-5351
▁없는게	-5352
▁영화이	-5353
▁오프닝	-5354
▁왜이러	-5355
▁인생이	-5356
▁자동차	-5357
▁잼있음	-5358
▁제목을	-5359
▁좋을듯	-5360
▁평점조	-5361
▁하하하	-5362
▁내용인지	-5363
▁리얼리티	-5364
▁만들어서	-5365
▁목소리가	-5366
▁무엇인가	-5367
▁볼만했다	-5368
▁쓸데없는	-5369
▁않았지만	-5370
쓰레기영화	-5371
▁최고의영화	-5372
▁굴	-5373
▁붕	-5374
▁웅	-5375
▁쫓	-5376
▁품	-5377
▁협	-5378
가리	-5379
공감	-5380
귀여	-5381
높은	-5382
라노	-5383
라에	-5384
버스	-5385
부의	-5386
시가	-5387
어색	-5388
언제	-5389
엄청	-5390
점수	-5391
졌던	-5392
형제	-5393
▁개똥	-5394
▁거품	-5395
▁과대	-5396
▁김희	-5397
▁내돈	-5398
▁늦게	-5399
▁답이	-5400
▁마무	-5401
▁민폐	-5402
▁보내	-5403
▁삶이	-5404
▁아파	-5405
▁어떨	-5406
▁어리	-5407
▁없냐	-5408
▁이동	-5409
▁장동	-5410
▁좋네	-5411
▁죽고	-5412
▁지겹	-5413
▁찍고	-5414
▁책임	-5415
▁호기	-5416
▁흡입	-5417
들끼리	-5418
라는게	-5419
란티노	-5420
인지도	-5421
적으론	-5422
▁그것이	-5423
▁돈내고	-5424
▁동시에	-5425
▁매력에	-5426
▁시대에	-5427
▁안어울	-5428
▁액션과	-5429
▁어쩌면	-5430
▁없다고	-5431
▁이름이	-5432
▁인터넷	-5433
▁잊을수	-5434
▁제이슨	-5435
▁짜집기	-5436
▁보았는데	-5437
▁억지감동	-5438
▁재미있는데	-5439
▁곰	-5440
▁널	-5441
▁띄	-5442
▁쿵	-5443
갈때	-5444
대고	-5445
도의	-5446
들여	-5447
마이	-5448
무시	-5449
미스	-5450
받을	-5451
살아	-5452
소름	-5453
인게	-5454
장애	-5455
주기	-5456
주일	-5457
▁갖다	-5458
▁기존	-5459
▁깡패	-5460
▁나무	-5461
▁맞지	-5462
▁뭐고	-5463
▁반대	-5464
▁부탁	-5465
▁브래	-5466
▁역량	-5467
▁왜곡	-5468
▁우연	-5469
▁이렇	-5470
▁일베	-5471
▁정상	-5472
▁짐캐	-5473
▁최소	-5474
▁키스	-5475
▁파격	-5476
▁하며	-5477
▁흔들	-5478
나네요	-5479
분동안	-5480
인들의	-5481
임에도	-5482
있지만	-5483
중에서	-5484
포스터	-5485
할만한	-5486
▁가까운	-5487
▁가득한	-5488
▁감독도	-5489
▁귀엽다	-5490
▁끝날때	-5491
▁나이가	-5492
▁내생애	-5493
▁당시에	-5494
▁드래곤	-5495
▁명불허	-5496
▁명장면	-5497
▁무섭고	-5498
▁배경이	-5499
▁세상이	-5500
▁소재의	-5501
▁스포츠	-5502
▁시대의	-5503
▁아진짜	-5504
▁어렵다	-5505
▁없으면	-5506
▁영화야	-5507
▁은근히	-5508
▁인생은	-5509
▁작가의	-5510
▁전개와	-5511
▁제시카	-5512
▁느낌이다	-5513
▁마지막엔	-5514
▁봐야하는	-5515
▁아깝네요	-5516
▁이런류의	-5517
▁장난하냐	-5518
▁탄탄하고	-5519
▁포스터만	-5520
▁블랙코미디	-5521
▁전반적으로	-5522
...........	-5523
od	-5524
ow	-5525
▁킹	-5526
간히	-5527
께요	-5528
데체	-5529
라라	-5530
리엄	-5531
말도	-5532
살인	-5533
스맨	-5534
없나	-5535
있던	-5536
있지	-5537
자면	-5538
저리	-5539
줬다	-5540
▁객관	-5541
▁공간	-5542
▁냄새	-5543
▁다신	-5544
▁바탕	-5545
▁벗어	-5546
▁불안	-5547
▁상징	-5548
▁어둡	-5549
▁예수	-5550
▁이준	-5551
▁인종	-5552
▁장진	-5553
▁참나	-5554
▁콜린	-5555
내용은	-5556
봐야지	-5557
았네요	-5558
을까요	-5559
재미도	-5560
졌어요	-5561
화이팅	-5562
▁가능한	-5563
▁때마다	-5564
▁보시면	-5565
▁볼려고	-5566
▁불가능	-5567
▁시청자	-5568
▁양아치	-5569
▁역겨운	-5570
▁영원한	-5571
▁영화나	-5572
▁자기가	-5573
▁적절한	-5574
▁정도가	-5575
▁친구랑	-5576
▁피해자	-5577
▁한개도	-5578
▁한국판	-5579
▁드라마의	-5580
▁마지막회	-5581
▁시작부터	-5582
▁영화예요	-5583
▁전체적인	-5584
▁초등학교	-5585
▁포스터에	-5586
▁할아버지	-5587
!!!!!!	-5588
▁볼만합니다	-5589
▁사람들에게	-5590
▁사람이라면	-5591
▁사랑합니다	-5592
▁좋았을텐데	-5593
▁아무생각없이	-5594
ic	-5595
▁H	-5596
▁맴	-5597
▁액	-5598
▁옳	-5599
▁죠	-5600
▁쫄	-5601
구가	-5602
늦게	-5603
더맨	-5604
둥이	-5605
들러	-5606
로로	-5607
법한	-5608
불쌍	-5609
비슷	-5610
스와	-5611
우의	-5612
웨이	-5613
위에	-5614
준호	-5615
쥬얼	-5616
질않	-5617
할지	-5618
▁가정	-5619
▁강간	-5620
▁것에	-5621
▁고독	-5622
▁길이	-5623
▁담은	-5624
▁동네	-5625
▁매끄	-5626
▁몽환	-5627
▁무난	-5628
▁받는	-5629
▁사무	-5630
▁세번	-5631
▁안들	-5632
▁암걸	-5633
▁엑소	-5634
▁여친	-5635
▁요새	-5636
▁읽고	-5637
▁죄송	-5638
▁죽이	-5639
▁진한	-5640
▁첩보	-5641
▁탁월	-5642
▁허허	-5643
감독은	-5644
까지도	-5645
들한테	-5646
습니까	-5647
아닌가	-5648
제대로	-5649
프리오	-5650
▁ᄒᄃᄃ	-5651
▁공감도	-5652
▁공감할	-5653
▁교훈도	-5654
▁내용에	-5655
▁라스트	-5656
▁류승범	-5657
▁메세지	-5658
▁빛나는	-5659
▁설정이	-5660
▁싶었다	-5661
▁안무서	-5662
▁어두운	-5663
▁왠만한	-5664
▁재밋음	-5665
▁찾아서	-5666
▁최소한	-5667
▁포인트	-5668
▁헛웃음	-5669
드라마가	-5670
▁나오는데	-5671
▁만들었나	-5672
▁사랑하고	-5673
▁생각난다	-5674
▁안보는게	-5675
▁이것보단	-5676
▁이해불가	-5677
▁추천하고	-5678
▁하나하나가	-5679
30	-5680
▁x	-5681
▁깍	-5682
▁삽	-5683
▁탓	-5684
낮은	-5685
먹은	-5686
뭐냐	-5687
범죄	-5688
보구	-5689
상영	-5690
슨의	-5691
앗다	-5692
오오	-5693
웃기	-5694
원은	-5695
위한	-5696
유리	-5697
의를	-5698
좋게	-5699
중훈	-5700
짬뽕	-5701
함께	-5702
▁개나	-5703
▁고뇌	-5704
▁기회	-5705
▁꼭보	-5706
▁단어	-5707
▁담긴	-5708
▁데뷔	-5709
▁만난	-5710
▁메이	-5711
▁생에	-5712
▁소화	-5713
▁승리	-5714
▁알파	-5715
▁조화	-5716
▁즐길	-5717
▁할때	-5718
▁혐오	-5719
까지만	-5720
되는데	-5721
레이드	-5722
연기를	-5723
했다면	-5724
▁4.4	-5725
▁가슴아	-5726
▁라이언	-5727
▁버리고	-5728
▁빠지는	-5729
▁선생님	-5730
▁알았음	-5731
▁외계인	-5732
▁울면서	-5733
▁의도가	-5734
▁이병헌	-5735
▁첨부터	-5736
▁허술한	-5737
시나리오	-5738
으면서도	-5739
지않는다	-5740
▁다시보고	-5741
▁뜬금없는	-5742
▁아니었다	-5743
▁웰메이드	-5744
▁유치해서	-5745
▁.....	-5746
▁movie	-5747
▁ᄡ	-5748
▁곱	-5749
▁뗄	-5750
▁뚝	-5751
가를	-5752
감과	-5753
구의	-5754
기와	-5755
남기	-5756
노답	-5757
되나	-5758
들로	-5759
따뜻	-5760
뚱맞	-5761
모를	-5762
므로	-5763
민의	-5764
번에	-5765
살이	-5766
승전	-5767
쓰는	-5768
없지	-5769
이요	-5770
지나	-5771
타고	-5772
할뿐	-5773
▁건가	-5774
▁고어	-5775
▁공중	-5776
▁몇년	-5777
▁밤에	-5778
▁보단	-5779
▁아담	-5780
▁의리	-5781
▁절망	-5782
▁즐기	-5783
▁트랜	-5784
거리가	-5785
겠다고	-5786
다니는	-5787
리스트	-5788
주기도	-5789
하니까	-5790
▁감독과	-5791
▁공포를	-5792
▁끝나서	-5793
▁드네요	-5794
▁반전에	-5795
▁시간때	-5796
▁싶었던	-5797
▁아깝네	-5798
▁아무도	-5799
▁아프다	-5800
▁않은데	-5801
▁요즘은	-5802
▁조금은	-5803
▁홍상수	-5804
▁황당한	-5805
극장에서	-5806
카프리오	-5807
▁2012	-5808
▁괜찮았음	-5809
▁그렇지만	-5810
▁드라마에	-5811
▁만들어낸	-5812
▁못보겠다	-5813
▁배경으로	-5814
▁이도저도	-5815
▁다시보고싶	-5816
es	-5817
▁린	-5818
▁빙	-5819
▁쪼	-5820
가운	-5821
광고	-5822
그랬	-5823
꺼면	-5824
났음	-5825
롭고	-5826
림이	-5827
만도	-5828
번을	-5829
시나	-5830
우스	-5831
워즈	-5832
잖은	-5833
존나	-5834
진않	-5835
초에	-5836
치의	-5837
탈출	-5838
패스	-5839
후에	-5840
▁16	-5841
▁th	-5842
▁가히	-5843
▁개콘	-5844
▁깨알	-5845
▁녹아	-5846
▁담담	-5847
▁매미	-5848
▁먹는	-5849
▁버려	-5850
▁빨갱	-5851
▁빵점	-5852
▁선사	-5853
▁쓸쓸	-5854
▁앞에	-5855
▁오우	-5856
▁일으	-5857
▁임창	-5858
▁잠들	-5859
▁정당	-5860
▁짜릿	-5861
▁피터	-5862
답니다	-5863
라이즈	-5864
리네요	-5865
신분들	-5866
애들은	-5867
여운이	-5868
점이상	-5869
할수가	-5870
▁EBS	-5871
▁개봉한	-5872
▁괜찮게	-5873
▁괜찮고	-5874
▁기대했	-5875
▁나오네	-5876
▁나을듯	-5877
▁되는데	-5878
▁드디어	-5879
▁빠져서	-5880
▁여러분	-5881
▁영화같	-5882
▁요소가	-5883
▁이름을	-5884
▁화장실	-5885
너무너무	-5886
▁다행이다	-5887
▁명불허전	-5888
▁모르지만	-5889
▁아이디어	-5890
▁인상적인	-5891
▁있었으면	-5892
▁장면들이	-5893
▁드라마입니다	-5894
CG	-5895
nd	-5896
▁밖	-5897
▁칠	-5898
가가	-5899
고생	-5900
꺼야	-5901
박죽	-5902
분한	-5903
아노	-5904
왕국	-5905
일의	-5906
잇는	-5907
전의	-5908
조현	-5909
질질	-5910
체적	-5911
치를	-5912
트를	-5913
프레	-5914
희의	-5915
..!	-5916
▁강동	-5917
▁깊게	-5918
▁끝도	-5919
▁다녀	-5920
▁도둑	-5921
▁무간	-5922
▁뭐임	-5923
▁미녀	-5924
▁박신	-5925
▁반영	-5926
▁배꼽	-5927
▁변화	-5928
▁보라	-5929
▁보려	-5930
▁빼곤	-5931
▁삭제	-5932
▁수면	-5933
▁쏟아	-5934
▁어쨌	-5935
▁음식	-5936
▁자고	-5937
▁점이	-5938
▁창피	-5939
라고요	-5940
못하는	-5941
생각을	-5942
야한다	-5943
점부터	-5944
죽박죽	-5945
...1	-5946
ᅮᅮᅮᅮ	-5947
▁ᄃᄃᄃ	-5948
▁놀랐다	-5949
▁무거운	-5950
▁보게된	-5951
▁보라고	-5952
▁보았던	-5953
▁설득력	-5954
▁송강호	-5955
▁영상도	-5956
▁영화속	-5957
▁영화평	-5958
▁웃기는	-5959
▁이제는	-5960
▁정도는	-5961
▁컴퓨터	-5962
▁풋풋한	-5963
▁하이틴	-5964
▁하정우	-5965
▁했더니	-5966
시간동안	-5967
▁ᅲᅲᅲᅲ	-5968
▁꼭보세요	-5969
▁사람들을	-5970
▁소장하고	-5971
▁언제까지	-5972
▁재밌었던	-5973
▁진지하게	-5974
재미있어요	-5975
▁캐릭터들이	-5976
▁재미있었습니다	-5977
ot	-5978
▁년	-5979
▁땀	-5980
▁앵	-5981
▁엮	-5982
것에	-5983
곳에	-5984
되게	-5985
든가	-5986
못한	-5987
뭐지	-5988
비해	-5989
선이	-5990
선택	-5991
성우	-5992
안타	-5993
울뿐	-5994
으러	-5995
이리	-5996
자리	-5997
점에	-5998
조연	-5999
지부	-6000
▁걱정	-6001
▁끝에	-6002
▁넘넘	-6003
▁놀란	-6004
▁던져	-6005
▁뒤에	-6006
▁드라	-6007
▁리즈	-6008
▁머릿	-6009
▁분량	-6010
▁암울	-6011
▁이란	-6012
▁이승	-6013
▁절제	-6014
▁치유	-6015
▁평화	-6016
▁하도	-6017
▁황정	-6018
겠는데	-6019
그렇게	-6020
기억이	-6021
맙시다	-6022
아니면	-6023
아무리	-6024
적이라	-6025
좋네요	-6026
줬으면	-6027
크레딧	-6028
하고는	-6029
▁개그맨	-6030
▁것들이	-6031
▁귀여움	-6032
▁그들이	-6033
▁기대가	-6034
▁나올때	-6035
▁메시지	-6036
▁신하균	-6037
▁아이언	-6038
▁알았네	-6039
▁어거지	-6040
▁잊지못	-6041
거같은데	-6042
리의리의	-6043
있는영화	-6044
▁거지같은	-6045
▁뜬금없이	-6046
▁말그대로	-6047
▁순수하고	-6048
▁최고네요	-6049
▁캐릭터를	-6050
▁홍콩영화	-6051
▁생각해보게	-6052
80	-6053
dd	-6054
▁J	-6055
▁r	-6056
▁및	-6057
▁쌩	-6058
귀엽	-6059
그럼	-6060
니가	-6061
님은	-6062
다르	-6063
도로	-6064
만족	-6065
무엇	-6066
수선	-6067
아누	-6068
없게	-6069
없을	-6070
에다	-6071
여진	-6072
웃겨	-6073
원을	-6074
이든	-6075
주지	-6076
찬란	-6077
치도	-6078
코믹	-6079
킬링	-6080
호감	-6081
?..	-6082
▁17	-6083
▁늑대	-6084
▁들이	-6085
▁못본	-6086
▁밑도	-6087
▁버린	-6088
▁부산	-6089
▁생겼	-6090
▁숨은	-6091
▁안가	-6092
▁예측	-6093
▁오는	-6094
▁의상	-6095
▁이별	-6096
▁이쁨	-6097
▁이종	-6098
▁잠을	-6099
▁전화	-6100
▁절로	-6101
▁질리	-6102
▁칭찬	-6103
▁풍자	-6104
▁하하	-6105
▁형제	-6106
▁혼란	-6107
▁후에	-6108
그러나	-6109
덩어리	-6110
없어요	-6111
을수가	-6112
한마디	-6113
한테는	-6114
했을까	-6115
▁2.2	-6116
▁들어가	-6117
▁말고는	-6118
▁모른다	-6119
▁모습은	-6120
▁박중훈	-6121
▁보기가	-6122
▁비쥬얼	-6123
▁아만다	-6124
▁않았던	-6125
▁임팩트	-6126
▁점수준	-6127
▁첨이다	-6128
▁한번더	-6129
▁허무한	-6130
▁둘째치고	-6131
▁시작해서	-6132
▁연기하는	-6133
▁연출력이	-6134
▁오글오글	-6135
▁짜증나게	-6136
▁캐릭터도	-6137
▁만들었을까	-6138
▁최악의영화	-6139
TV	-6140
al	-6141
▁찢	-6142
▁핑	-6143
가장	-6144
겠어	-6145
나름	-6146
내지	-6147
루토	-6148
르소	-6149
말을	-6150
물의	-6151
바람	-6152
볼수	-6153
빠져	-6154
살때	-6155
석규	-6156
셔야	-6157
스톤	-6158
시의	-6159
였지	-6160
위가	-6161
증이	-6162
▁것만	-6163
▁격투	-6164
▁글을	-6165
▁기괴	-6166
▁긴박	-6167
▁끝을	-6168
▁따름	-6169
▁망할	-6170
▁맡은	-6171
▁뮤직	-6172
▁부활	-6173
▁소개	-6174
▁소통	-6175
▁어떠	-6176
▁에효	-6177
▁엽기	-6178
▁우디	-6179
▁워낙	-6180
▁잃은	-6181
▁졸업	-6182
▁줘야	-6183
▁힘을	-6184
년대에	-6185
재밌어	-6186
점이나	-6187
졌으면	-6188
종일관	-6189
지루함	-6190
코메디	-6191
하기는	-6192
하시고	-6193
▁같았다	-6194
▁것인가	-6195
▁공포가	-6196
▁기분나	-6197
▁낫겠다	-6198
▁당신이	-6199
▁더빙이	-6200
▁마시길	-6201
▁멋지게	-6202
▁명복을	-6203
▁뭐라고	-6204
▁부자연	-6205
▁수준을	-6206
▁시도는	-6207
▁싶어서	-6208
▁아무튼	-6209
▁안본다	-6210
▁어디로	-6211
▁왕조현	-6212
▁있었고	-6213
▁진지한	-6214
▁표현할	-6215
▁하다니	-6216
▁한순간	-6217
공포영화	-6218
내용인지	-6219
▁Good	-6220
▁감명깊게	-6221
▁뒤죽박죽	-6222
▁드라마다	-6223
▁시리즈의	-6224
▁아버지의	-6225
▁알파치노	-6226
▁엄청나게	-6227
▁에로영화	-6228
▁연기력에	-6229
▁이영화의	-6230
▁재미있어	-6231
▁전쟁영화	-6232
▁타란티노	-6233
개인적으로	-6234
▁마지막장면	-6235
▁재미있었음	-6236
▁좋겠습니다	-6237
▁코미디영화	-6238
▁감동적이네요	-6239
BC	-6240
ck	-6241
▁닿	-6242
▁듬	-6243
▁땐	-6244
▁람	-6245
▁섭	-6246
▁습	-6247
▁앨	-6248
▁폰	-6249
▁햇	-6250
끝나	-6251
드워	-6252
럽지	-6253
맘에	-6254
먹을	-6255
미국	-6256
분도	-6257
스에	-6258
씨도	-6259
얼마	-6260
역할	-6261
예진	-6262
인에	-6263
힘들	-6264
▁25	-6265
▁to	-6266
▁가수	-6267
▁괜찬	-6268
▁기획	-6269
▁리암	-6270
▁말투	-6271
▁몰라	-6272
▁베리	-6273
▁블루	-6274
▁심장	-6275
▁아카	-6276
▁억울	-6277
▁엘리	-6278
▁올레	-6279
▁왠만	-6280
▁요리	-6281
▁원숭	-6282
▁줄수	-6283
▁차이	-6284
▁찾는	-6285
▁축구	-6286
▁한지	-6287
▁향연	-6288
▁호불	-6289
같아서	-6290
매이션	-6291
보지마	-6292
빕니다	-6293
시간을	-6294
시대에	-6295
재밋게	-6296
지않다	-6297
크루즈	-6298
▁그려낸	-6299
▁그리워	-6300
▁깔끔한	-6301
▁다시금	-6302
▁말아야	-6303
▁미국식	-6304
▁보게되	-6305
▁섬세한	-6306
▁스타뎀	-6307
▁역사에	-6308
▁영화일	-6309
▁유덕화	-6310
▁있으나	-6311
▁잘한다	-6312
▁전개는	-6313
▁중학생	-6314
것같네요	-6315
점만점에	-6316
좋은영화	-6317
▁개봉당시	-6318
▁고등학교	-6319
▁귀여워요	-6320
▁긴장감을	-6321
▁독특하고	-6322
▁배우들을	-6323
▁아이들의	-6324
▁어설프다	-6325
▁어이없음	-6326
▁영화인줄	-6327
▁재미있을	-6328
▁최고라고	-6329
▁충격적인	-6330
▁다운받아서	-6331
▁디카프리오	-6332
▁소름끼치는	-6333
▁아이들에게	-6334
▁재미있었는데	-6335
▁재밌게봤어요	-6336
.!	-6337
ay	-6338
ed	-6339
▁족	-6340
▁쿨	-6341
나간	-6342
녀석	-6343
답게	-6344
덕에	-6345
랐다	-6346
렸음	-6347
사실	-6348
상태	-6349
스텔	-6350
시기	-6351
신도	-6352
아오	-6353
유발	-6354
으셨	-6355
이딴	-6356
이큰	-6357
제를	-6358
지르	-6359
질이	-6360
트로	-6361
하루	-6362
▁가짜	-6363
▁건질	-6364
▁나중	-6365
▁능가	-6366
▁레옹	-6367
▁로망	-6368
▁묘한	-6369
▁뭐여	-6370
▁밝혀	-6371
▁불과	-6372
▁삶과	-6373
▁실감	-6374
▁어딘	-6375
▁없었	-6376
▁왔다	-6377
▁우린	-6378
▁우선	-6379
▁일을	-6380
▁있긴	-6381
▁자아	-6382
▁재수	-6383
▁절정	-6384
▁킬러	-6385
▁하기	-6386
▁한가	-6387
▁한효	-6388
류영화	-6389
였다면	-6390
편에서	-6391
하기에	-6392
▁구성도	-6393
▁닥치고	-6394
▁말인가	-6395
▁보는거	-6396
▁보이지	-6397
▁브래드	-6398
▁안맞는	-6399
▁영화지	-6400
▁오로지	-6401
▁	-6402
.	-6403
이	-6404
다	-6405
는	-6406
고	-6407
지	-6408
화	-6409
영	-6410
가	-6411
하	-6412
도	-6413
아	-6414
에	-6415
나	-6416
기	-6417
한	-6418
보	-6419
의	-6420
어	-6421
만	-6422
ᄏ	-6423
은	-6424
리	-6425
로	-6426
게	-6427
을	-6428
라	-6429
서	-6430
!	-6431
요	-6432
니	-6433
들	-6434
인	-6435
그	-6436
재	-6437
시	-6438
스	-6439
무	-6440
데	-6441
없	-6442
미	-6443
정	-6444
있	-6445
대	-6446
마	-6447
면	-6448
해	-6449
말	-6450
사	-6451
네	-6452
진	-6453
점	-6454
?	-6455
음	-6456
를	-6457
자	-6458
내	-6459
수	-6460
연	-6461
감	-6462
전	-6463
주	-6464
거	-6465
으	-6466
좋	-6467
우	-6468
장	-6469
작	-6470
너	-6471
안	-6472
드	-6473
오	-6474
었	-6475
여	-6476
상	-6477
까	-6478
1	-6479
생	-6480
적	-6481
야	-6482
짜	-6483
제	-6484
것	-6485
봤	-6486
0	-6487
간	-6488
최	-6489
부	-6490
일	-6491
같	-6492
더	-6493
했	-6494
개	-6495
동	-6496
과	-6497
구	-6498
성	-6499
모	-6500
평	-6501
소	-6502
건	-6503
런	-6504
중	-6505
ᅲ	-6506
밌	-6507
본	-6508
신	-6509
비	-6510
와	-6511
러	-6512
배	-6513
되	-6514
않	-6515
할	-6516
운	-6517
히	-6518
았	-6519
분	-6520
때	-6521
던	-6522
치	-6523
각	-6524
려	-6525
유	-6526
공	-6527
잘	-6528
용	-6529
습	-6530
토	-6531
세	-6532
랑	-6533
실	-6534
레	-6535
래	-6536
남	-6537
국	-6538
루	-6539
저	-6540
터	-6541
함	-6542
못	-6543
느	-6544
난	-6545
람	-6546
ᄒ	-6547
명	-6548
독	-6549
2	-6550
조	-6551
왜	-6552
알	-6553
디	-6554
겠	-6555
반	-6556
듯	-6557
르	-6558
봐	-6559
애	-6560
입	-6561
볼	-6562
심	-6563
임	-6564
원	-6565
물	-6566
편	-6567
막	-6568
쓰	-6569
걸	-6570
바	-6571
싶	-6572
악	-6573
역	-6574
금	-6575
별	-6576
든	-6577
타	-6578
준	-6579
력	-6580
ᅳ	-6581
처	-6582
노	-6583
버	-6584
많	-6585
단	-6586
년	-6587
O	-6588
좀	-6589
예	-6590
냥	-6591
트	-6592
현	-6593
당	-6594
름	-6595
위	-6596
뭐	-6597
선	-6598
였	-6599
포	-6600
문	-6601
번	-6602
망	-6603
두	-6604
렇	-6605
억	-6606
완	-6607
추	-6608
관	-6609
션	-6610
웃	-6611
끝	-6612
냐	-6613
매	-6614
살	-6615
코	-6616
줄	-6617
결	-6618
체	-6619
출	-6620
속	-6621
울	-6622
발	-6623
3	-6624
참	-6625
품	-6626
후	-6627
긴	-6628
극	-6629
잼	-6630
박	-6631
질	-6632
설	-6633
불	-6634
프	-6635
된	-6636
직	-6637
린	-6638
계	-6639
경	-6640
눈	-6641
워	-6642
절	-6643
차	-6644
ᅮ	-6645
넘	-6646
죽	-6647
따	-6648
잔	-6649
액	-6650
강	-6651
님	-6652
깝	-6653
길	-6654
른	-6655
식	-6656
답	-6657
청	-6658
엔	-6659
메	-6660
방	-6661
행	-6662
릴	-6663
김	-6664
크	-6665
교	-6666
합	-6667
초	-6668
피	-6669
군	-6670
허	-6671
머	-6672
o	-6673
족	-6674
몰	-6675
회	-6676
천	-6677
돈	-6678
호	-6679
판	-6680
빠	-6681
민	-6682
또	-6683
파	-6684
날	-6685
친	-6686
즈	-6687
럽	-6688
란	-6689
먹	-6690
근	-6691
9	-6692
집	-6693
학	-6694
티	-6695
온	-6696
낌	-6697
멋	-6698
올	-6699
슨	-6700
e	-6701
순	-6702
짱	-6703
괜	-6704
특	-6705
받	-6706
캐	-6707
표	-6708
5	-6709
4	-6710
슬	-6711
증	-6712
움	-6713
달	-6714
얼	-6715
급	-6716
형	-6717
씨	-6718
며	-6719
t	-6720
겨	-6721
목	-6722
등	-6723
엄	-6724
필	-6725
글	-6726
언	-6727
맞	-6728
뭔	-6729
존	-6730
복	-6731
져	-6732
찮	-6733
끼	-6734
귀	-6735
록	-6736
키	-6737
카	-6738
새	-6739
닌	-6740
뻔	-6741
맨	-6742
8	-6743
누	-6744
류	-6745
테	-6746
s	-6747
돌	-6748
색	-6749
7	-6750
외	-6751
꼭	-6752
론	-6753
졸	-6754
혀	-6755
희	-6756
밋	-6757
충	-6758
슴	-6759
태	-6760
케	-6761
양	-6762
왔	-6763
산	-6764
통	-6765
갈	-6766
럼	-6767
힘	-6768
흥	-6769
렸	-6770
약	-6771
딩	-6772
낮	-6773
녀	-6774
담	-6775
잡	-6776
격	-6777
림	-6778
a	-6779
브	-6780
뿐	-6781
욕	-6782
높	-6783
릭	-6784
술	-6785
찍	-6786
열	-6787
황	-6788
웠	-6789
봉	-6790
솔	-6791
훈	-6792
탄	-6793
굿	-6794
ᄃ	-6795
씬	-6796
몇	-6797
엇	-6798
쉬	-6799
놓	-6800
능	-6801
i	-6802
범	-6803
쳐	-6804
종	-6805
투	-6806
d	-6807
환	-6808
늘	-6809
쉽	-6810
베	-6811
ᄍ	-6812
놀	-6813
찾	-6814
떨	-6815
n	-6816
밖	-6817
싸	-6818
딱	-6819
죠	-6820
병	-6821
될	-6822
쁘	-6823
혼	-6824
6	-6825
r	-6826
팅	-6827
송	-6828
손	-6829
접	-6830
블	-6831
승	-6832
엉	-6833
패	-6834
랜	-6835
삼	-6836
b	-6837
쾌	-6838
졌	-6839
큼	-6840
석	-6841
링	-6842
클	-6843
픈	-6844
즘	-6845
향	-6846
퍼	-6847
ᄋ	-6848
께	-6849
립	-6850
떻	-6851
믿	-6852
백	-6853
변	-6854
갑	-6855
깊	-6856
g	-6857
c	-6858
왕	-6859
앞	-6860
났	-6861
써	-6862
홍	-6863
뜻	-6864
법	-6865
권	-6866
껴	-6867
즐	-6868
꺼	-6869
뒤	-6870
C	-6871
광	-6872
섭	-6873
쟁	-6874
T	-6875
떠	-6876
창	-6877
잇	-6878
책	-6879
커	-6880
맛	-6881
잠	-6882
B	-6883
겁	-6884
벽	-6885
l	-6886
S	-6887
빨	-6888
킬	-6889
팬	-6890
딴	-6891
싫	-6892
먼	-6893
삶	-6894
h	-6895
놈	-6896
락	-6897
잊	-6898
폭	-6899
죄	-6900
채	-6901
업	-6902
v	-6903
확	-6904
짐	-6905
객	-6906
찬	-6907
깨	-6908
덕	-6909
빼	-6910
괴	-6911
줘	-6912
m	-6913
짝	-6914
큐	-6915
휴	-6916
견	-6917
꾸	-6918
암	-6919
빈	-6920
봣	-6921
봄	-6922
훌	-6923
철	-6924
플	-6925
륭	-6926
G	-6927
빙	-6928
흐	-6929
짓	-6930
첨	-6931
월	-6932
밀	-6933
됨	-6934
끌	-6935
둘	-6936
총	-6937
효	-6938
윤	-6939
틀	-6940
혹	-6941
쌍	-6942
탈	-6943
걍	-6944
뭘	-6945
굴	-6946
궁	-6947
숨	-6948
쓸	-6949
돋	-6950
얘	-6951
D	-6952
큰	-6953
곤	-6954
갔	-6955
련	-6956
침	-6957
벌	-6958
쁜	-6959
풍	-6960
취	-6961
룡	-6962
닥	-6963
끔	-6964
낸	-6965
훨	-6966
낭	-6967
텐	-6968
옛	-6969
끄	-6970
낚	-6971
풀	-6972
맘	-6973
욱	-6974
u	-6975
헐	-6976
엽	-6977
찌	-6978
믹	-6979
V	-6980
몸	-6981
떤	-6982
페	-6983
꼬	-6984
랐	-6985
쩌	-6986
튼	-6987
뛰	-6988
ᄉ	-6989
즌	-6990
왠	-6991
낫	-6992
험	-6993
활	-6994
줌	-6995
척	-6996
똥	-6997
꿈	-6998
묘	-6999
빵	-7000
득	-7001
f	-7002
째	-7003
됐	-7004
롭	-7005
꿀	-7006
택	-7007
쩔	-7008
흘	-7009
딸	-7010
잖	-7011
착	-7012
혜	-7013
춘	-7014
빛	-7015
줬	-7016
콩	-7017
돼	-7018
멘	-7019
팔	-7020
읽	-7021
굳	-7022
겟	-7023
찰	-7024
겼	-7025
징	-7026
꽤	-7027
셨	-7028
y	-7029
갖	-7030
웅	-7031
랄	-7032
똑	-7033
젠	-7034
슷	-7035
뜨	-7036
멜	-7037
북	-7038
흔	-7039
골	-7040
픽	-7041
켜	-7042
햇	-7043
틱	-7044
항	-7045
낄	-7046
료	-7047
멍	-7048
슈	-7049
p	-7050
럴	-7051
첫	-7052
흑	-7053
헤	-7054
십	-7055
옴	-7056
칠	-7057
랬	-7058
응	-7059
M	-7060
깔	-7061
닝	-7062
압	-7063
곳	-7064
셔	-7065
섹	-7066
땜	-7067
듣	-7068
k	-7069
넣	-7070
쓴	-7071
곡	-7072
F	-7073
쯤	-7074
w	-7075
굉	-7076
널	-7077
럭	-7078
옥	-7079
익	-7080
픔	-7081
츠	-7082
닐	-7083
숙	-7084
맥	-7085
젤	-7086
빌	-7087
쳤	-7088
콜	-7089
검	-7090
겹	-7091
폐	-7092
ᄀ	-7093
벗	-7094
률	-7095
앗	-7096
밑	-7097
듬	-7098
ᄇ	-7099
댓	-7100
펑	-7101
쿠	-7102
흠	-7103
깐	-7104
씩	-7105
겐	-7106
엘	-7107
랍	-7108
쇼	-7109
륜	-7110
잃	-7111
령	-7112
풋	-7113
쪽	-7114
킨	-7115
규	-7116
끈	-7117
컬	-7118
A	-7119
뻐	-7120
육	-7121
센	-7122
탕	-7123
몽	-7124
뮤	-7125
율	-7126
땐	-7127
량	-7128
밥	-7129
섬	-7130
축	-7131
협	-7132
놔	-7133
틴	-7134
싱	-7135
념	-7136
힐	-7137
램	-7138
묻	-7139
꼈	-7140
샤	-7141
덜	-7142
짧	-7143
꼽	-7144
탁	-7145
ᄂ	-7146
깜	-7147
낀	-7148
촌	-7149
젊	-7150
E	-7151
찝	-7152
뇌	-7153
엿	-7154
논	-7155
콤	-7156
웨	-7157
릿	-7158
렵	-7159
붙	-7160
닿	-7161
뜬	-7162
촬	-7163
됬	-7164
뷰	-7165
꼴	-7166
맹	-7167
I	-7168
핵	-7169
밤	-7170
컨	-7171
납	-7172
렌	-7173
균	-7174
푸	-7175
멀	-7176
춤	-7177
칼	-7178
헌	-7179
껏	-7180
냈	-7181
앙	-7182
렬	-7183
ᄌ	-7184
셈	-7185
콘	-7186
염	-7187
흡	-7188
볍	-7189
킹	-7190
턴	-7191
퀄	-7192
봅	-7193
떡	-7194
랙	-7195
혁	-7196
늦	-7197
힌	-7198
랫	-7199
쥐	-7200
x	-7201
꽃	-7202
엑	-7203
찡	-7204
퇴	-7205
씁	-7206
앤	-7207
닫	-7208
됩	-7209
얻	-7210
웬	-7211
ᄅ	-7212
놨	-7213
쎄	-7214
쩐	-7215
폰	-7216
빡	-7217
늙	-7218
땅	-7219
잉	-7220
렉	-7221
몬	-7222
X	-7223
끊	-7224
롱	-7225
윌	-7226
벤	-7227
옹	-7228
벨	-7229
쁨	-7230
잭	-7231
쥬	-7232
챙	-7233
홀	-7234
P	-7235
뒷	-7236
좌	-7237
N	-7238
뚱	-7239
쏘	-7240
뭉	-7241
썩	-7242
텔	-7243
폴	-7244
잤	-7245
춰	-7246
톰	-7247
밝	-7248
녹	-7249
뉴	-7250
뽕	-7251
롯	-7252
농	-7253
썼	-7254
ᄆ	-7255
뜩	-7256
짠	-7257
둥	-7258
낙	-7259
뿌	-7260
씀	-7261
팀	-7262
L	-7263
휘	-7264
껄	-7265
줍	-7266
퉁	-7267
헛	-7268
엠	-7269
삭	-7270
쫌	-7271
z	-7272
겉	-7273
톤	-7274
획	-7275
덤	-7276
맙	-7277
덩	-7278
묵	-7279
칭	-7280
탑	-7281
붕	-7282
닮	-7283
룬	-7284
맡	-7285
벼	-7286
봇	-7287
혐	-7288
갓	-7289
쩜	-7290
숭	-7291
값	-7292
낼	-7293
탐	-7294
뀌	-7295
틈	-7296
팍	-7297
떄	-7298
왓	-7299
뽑	-7300
꾼	-7301
쯧	-7302
튀	-7303
댄	-7304
냄	-7305
푹	-7306
섞	-7307
쵝	-7308
꿔	-7309
냉	-7310
칸	-7311
갱	-7312
낳	-7313
첩	-7314
측	-7315
컴	-7316
혈	-7317
R	-7318
ᅡ	-7319
꽝	-7320
렁	-7321
뢰	-7322
펐	-7323
흉	-7324
j	-7325
녕	-7326
듭	-7327
셀	-7328
옆	-7329
뱀	-7330
옷	-7331
뚝	-7332
멸	-7333
쩝	-7334
퓨	-7335
븐	-7336
뿔	-7337
털	-7338
K	-7339
샘	-7340
씹	-7341
컷	-7342
팩	-7343
갠	-7344
렷	-7345
셉	-7346
례	-7347
략	-7348
빅	-7349
앉	-7350
므	-7351
넌	-7352
딧	-7353
깎	-7354
펜	-7355
섯	-7356
넷	-7357
딘	-7358
땡	-7359
떼	-7360
톱	-7361
펙	-7362
닙	-7363
덴	-7364
칙	-7365
밍	-7366
뎁	-7367
빗	-7368
탓	-7369
ᅩ	-7370
ᅵ	-7371
곱	-7372
롤	-7373
쏟	-7374
닉	-7375
둑	-7376
멈	-7377
쩡	-7378
캬	-7379
쿵	-7380
퀴	-7381
W	-7382
델	-7383
젼	-7384
벅	-7385
뻤	-7386
뽀	-7387
둔	-7388
쭉	-7389
긋	-7390
룩	-7391
층	-7392
콧	-7393
헬	-7394
깡	-7395
뎀	-7396
왤	-7397
켓	-7398
껐	-7399
핑	-7400
넹	-7401
윈	-7402
웰	-7403
찜	-7404
텝	-7405
겪	-7406
렐	-7407
컥	-7408
폼	-7409
H	-7410
핀	-7411
깁	-7412
깍	-7413
낯	-7414
늑	-7415
삐	-7416
앵	-7417
팝	-7418
곰	-7419
싼	-7420
띄	-7421
랭	-7422
쿨	-7423
쏠	-7424
펼	-7425
곧	-7426
걱	-7427
렀	-7428
뭥	-7429
ᄎ	-7430
ᅥ	-7431
곽	-7432
쪼	-7433
쯔	-7434
찔	-7435
U	-7436
틸	-7437
딜	-7438
앨	-7439
얄	-7440
쿡	-7441
J	-7442
렛	-7443
찐	-7444
싹	-7445
쫄	-7446
뷔	-7447
짬	-7448
랩	-7449
뭣	-7450
탱	-7451
및	-7452
쨌	-7453
ᄁ	-7454
땀	-7455
깃	-7456
뗄	-7457
셋	-7458
쫓	-7459
킥	-7460
삽	-7461
옵	-7462
젖	-7463
짤	-7464
눌	-7465
뎅	-7466
둡	-7467
맴	-7468
밴	-7469
템	-7470
튜	-7471
팠	-7472
ᄡ	-7473
넬	-7474
숀	-7475
켄	-7476
홈	-7477
닷	-7478
뱅	-7479
샌	-7480
셜	-7481
툭	-7482
닼	-7483
렴	-7484
툰	-7485
뻥	-7486
쇄	-7487
썰	-7488
옳	-7489
웟	-7490
죤	-7491
껀	-7492
뚜	-7493
릅	-7494
쌩	-7495
엮	-7496
켰	-7497
걷	-7498
긍	-7499
똘	-7500
릇	-7501
셰	-7502
찢	-7503
몫	-7504
썸	-7505
읍	-7506
쩍	-7507
뭇	-7508
힙	-7509
냅	-7510
랴	-7511
Y	-7512
끗	-7513
닭	-7514
룰	-7515
맑	-7516
뺏	-7517
엣	-7518
쟈	-7519
핸	-7520
ᄊ	-7521
ᅢ	-7522
셧	-7523
쉐	-7524
욤	-7525
띠	-7526
헉	-7527
덮	-7528
듦	-7529
뤄	-7530
밉	-7531
쉴	-7532
옮	-7533
팡	-7534
뻣	-7535
첼	-7536
츄	-7537
컸	-7538
킴	-7539
맺	-7540
밧	-7541
빕	-7542
즉	-7543
맷	-7544
쌓	-7545
콕	-7546
퉤	-7547
푼	-7548
혔	-7549
됫	-7550
뿜	-7551
캡	-7552
틋	-7553
덧	-7554
캠	-7555
솜	-7556
쌈	-7557
쏴	-7558
퀸	-7559
톡	-7560
훼	-7561
겻	-7562
뜸	-7563
렘	-7564
밟	-7565
왈	-7566
캅	-7567
팽	-7568
핫	-7569
홧	-7570
귄	-7571
둠	-7572
뼈	-7573
웹	-7574
잣	-7575
짙	-7576
캔	-7577
헷	-7578
꽁	-7579
랏	-7580
멤	-7581
뻑	-7582
얀	-7583
쭈	-7584
뚫	-7585
좆	-7586
킵	-7587
ᄐ	-7588
곁	-7589
땠	-7590
뜯	-7591
륵	-7592
믄	-7593
붉	-7594
숲	-7595
칫	-7596
턱	-7597
꽉	-7598
늬	-7599
룸	-7600
텅	-7601
훔	-7602
넓	-7603
녁	-7604
덥	-7605
웍	-7606
삘	-7607
쇠	-7608
썬	-7609
젝	-7610
졋	-7611
짖	-7612
펭	-7613
꾹	-7614
떳	-7615
멕	-7616
헨	-7617
겸	-7618
끓	-7619
묶	-7620
헝	-7621
훗	-7622
갇	-7623
궈	-7624
껍	-7625
뎌	-7626
줫	-7627
쨋	-7628
펠	-7629
겄	-7630
딕	-7631
쉣	-7632
쫒	-7633
탠	-7634
펴	-7635
뉘	-7636
밨	-7637
벙	-7638
썻	-7639
앓	-7640
앜	-7641
얽	-7642
윽	-7643
띵	-7644
럿	-7645
릉	-7646
뭡	-7647
밸	-7648
빤	-7649
쏙	-7650
뀐	-7651
둬	-7652
룹	-7653
욬	-7654
잎	-7655
켈	-7656
펀	-7657
핏	-7658
꽥	-7659
탭	-7660
횡	-7661
꺄	-7662
꼇	-7663
꿨	-7664
넼	-7665
빚	-7666
넋	-7667
챔	-7668
텀	-7669
흰	-7670
긔	-7671
뒀	-7672
뱉	-7673
뺨	-7674
쉰	-7675
엎	-7676
췄	-7677
톨	-7678
Z	-7679
q	-7680
눠	-7681
댐	-7682
댕	-7683
딨	-7684
륙	-7685
샷	-7686
웩	-7687
탤	-7688
핳	-7689
흙	-7690
ᅦ	-7691
댈	-7692
됌	-7693
샀	-7694
샹	-7695
숫	-7696
쌀	-7697
엌	-7698
컵	-7699
쿄	-7700
펄	-7701
꽂	-7702
됴	-7703
샬	-7704
쒸	-7705
칩	-7706
픕	-7707
횽	-7708
닦	-7709
듀	-7710
촉	-7711
킷	-7712
탔	-7713
햄	-7714
ᄑ	-7715
뺀	-7716
뻘	-7717
솟	-7718
슐	-7719
씌	-7720
욜	-7721
젓	-7722
쫙	-7723
쬐	-7724
괘	-7725
귓	-7726
넨	-7727
뇨	-7728
돕	-7729
쌔	-7730
쑤	-7731
욧	-7732
췌	-7733
힛	-7734
갸	-7735
롬	-7736
썽	-7737
왼	-7738
좁	-7739
쥔	-7740
쨩	-7741
쪄	-7742
켠	-7743
퀀	-7744
홉	-7745
ᅭ	-7746
꿋	-7747
닳	-7748
밭	-7749
셸	-7750
쌤	-7751
씽	-7752
얹	-7753
퍽	-7754
훅	-7755
갤	-7756
꼼	-7757
댔	-7758
엥	-7759
윙	-7760
쿼	-7761
햐	-7762
깬	-7763
늠	-7764
뛴	-7765
뤘	-7766
뤽	-7767
몹	-7768
밈	-7769
붓	-7770
얕	-7771
쵸	-7772
핍	-7773
Q	-7774
굵	-7775
깽	-7776
꺅	-7777
낰	-7778
낱	-7779
녔	-7780
놉	-7781
뎈	-7782
뜰	-7783
붐	-7784
썅	-7785
씻	-7786
얌	-7787
윗	-7788
쟝	-7789
퀼	-7790
힝	-7791
ᅧ	-7792
겜	-7793
곸	-7794
굼	-7795
됀	-7796
딥	-7797
슌	-7798
앳	-7799
웁	-7800
짭	-7801
팜	-7802
펏	-7803
휼	-7804
ᅣ	-7805
꾀	-7806
꿉	-7807
낡	-7808
뚤	-7809
릎	-7810
뱃	-7811
뵈	-7812
싯	-7813
쑈	-7814
융	-7815
젬	-7816
텍	-7817
댜	-7818
돠	-7819
딪	-7820
빔	-7821
빽	-7822
샴	-7823
섰	-7824
얔	-7825
긁	-7826
꺽	-7827
땟	-7828
떴	-7829
뵙	-7830
쁠	-7831
쉘	-7832
욘	-7833
욯	-7834
읎	-7835
쟤	-7836
짚	-7837
캣	-7838
쾅	-7839
쿤	-7840
퀘	-7841
핡	-7842
갚	-7843
걔	-7844
넉	-7845
뇬	-7846
댁	-7847
룻	-7848
맬	-7849
멎	-7850
뭍	-7851
뺐	-7852
뺴	-7853
숴	-7854
웡	-7855
촘	-7856
콥	-7857
큘	-7858
퉷	-7859
훤	-7860
괄	-7861
꿰	-7862
됏	-7863
뤠	-7864
뮬	-7865
좃	-7866
죵	-7867
쨔	-7868
핰	-7869
휩	-7870
겅	-7871
겔	-7872
뀔	-7873
넥	-7874
멧	-7875
믓	-7876
벡	-7877
뿅	-7878
뿍	-7879
쁩	-7880
샐	-7881
슥	-7882
쏜	-7883
옜	-7884
쪙	-7885
첸	-7886
큽	-7887
킁	-7888
폄	-7889
풉	-7890
핥	-7891
횟	-7892
굽	-7893
꺾	-7894
껌	-7895
끽	-7896
넴	-7897
눅	-7898
륨	-7899
뷁	-7900
뺑	-7901
썹	-7902
쒯	-7903
얍	-7904
잌	-7905
잰	-7906
좔	-7907
찼	-7908
쳇	-7909
츤	-7910
칵	-7911
텨	-7912
툴	-7913
퐁	-7914
헠	-7915
휙	-7916
휠	-7917
흣	-7918
괞	-7919
굶	-7920
깼	-7921
꼐	-7922
꽈	-7923
낍	-7924
넛	-7925
넝	-7926
덱	-7927
돔	-7928
뒹	-7929
렜	-7930
볶	-7931
샛	-7932
샵	-7933
섀	-7934
쫑	-7935
챈	-7936
춥	-7937
훑	-7938
갯	-7939
괸	-7940
끙	-7941
냔	-7942
눕	-7943
뉜	-7944
뎃	-7945
멱	-7946
뻗	-7947
뿡	-7948
쎈	-7949
앍	-7950
왁	-7951
욥	-7952
졷	-7953
촛	-7954
캄	-7955
콱	-7956
팰	-7957
햅	-7958
헴	-7959
헿	-7960
홥	-7961
곀	-7962
궤	-7963
꺠	-7964
껑	-7965
뀜	-7966
놧	-7967
닠	-7968
뒈	-7969
땔	-7970
랖	-7971
밓	-7972
벳	-7973
쑥	-7974
윅	-7975
읭	-7976
잴	-7977
줏	-7978
쥑	-7979
혓	-7980
ᄈ	-7981
ᆪ	-7982
갘	-7983
깟	-7984
눔	-7985
닛	-7986
딛	-7987
떵	-7988
롹	-7989
앰	-7990
잦	-7991
짰	-7992
쨰	-7993
쫘	-7994
챤	-7995
