<pad>	0
<unk>	0
<s>	0
</s>	0
.	-3.32109
▁	-3.56634
..	-4.25235
▁영화	-4.49053
...	-4.50184
이	-4.6091
의	-4.71307
도	-4.81035
가	-4.90515
는	-4.91158
을	-5.06488
에	-5.13569
?	-5.19905
은	-5.31846
다	-5.41284
▁너무	-5.41352
고	-5.42277
지	-5.50901
!	-5.51685
▁정말	-5.53298
▁이	-5.57945
를	-5.61062
만	-5.67809
▁진짜	-5.74376
로	-5.75384
한	-5.7668
나	-5.92427
영화	-6.01257
게	-6.03062
과	-6.08959
점	-6.12747
으로	-6.21776
▁잘	-6.2349
▁그	-6.23812
▁1	-6.23996
하고	-6.24546
▁왜	-6.25505
▁더	-6.29467
▁다	-6.31058
▁이런	-6.3126
▁수	-6.31295
기	-6.3411
!!	-6.34611
에서	-6.34944
인	-6.3617
와	-6.37179
▁그냥	-6.41589
라	-6.41837
▁안	-6.422
▁아	-6.44297
....	-6.45736
네	-6.50898
어	-6.51433
요	-6.5206
들	-6.52635
▁10	-6.53245
서	-6.54185
아	-6.54486
하는	-6.54871
▁보고	-6.58702
▁드라마	-6.61113
▁본	-6.62008
해	-6.62598
▁평점	-6.64743
리	-6.65547
거	-6.66472
▁영화를	-6.66804
▁연기	-6.67837
▁좀	-6.68317
▁내	-6.75241
자	-6.75992
면	-6.76248
네요	-6.76464
▁ᄏᄏ	-6.81198
▁한	-6.82084
지만	-6.83539
▁봤는데	-6.83596
▁영화가	-6.84461
▁이거	-6.8493
▁영화는	-6.85536
▁없는	-6.85975
▁2	-6.8665
▁완전	-6.87411
▁내가	-6.87486
이다	-6.8834
▁최고의	-6.88392
▁참	-6.88811
야	-6.90497
▁쓰레기	-6.90656
▁스토리	-6.91533
니	-6.92195
수	-6.92637
▁없다	-6.93246
▁이건	-6.93772
▁좋은	-6.94326
▁3	-6.95362
▁있는	-6.95828
대	-6.97392
▁최고	-7.01998
▁이렇게	-7.02397
하게	-7.02572
사	-7.03294
ᄏᄏ	-7.03337
스	-7.03596
보다	-7.03694
▁보는	-7.03905
▁이게	-7.04387
▁다시	-7.04775
함	-7.05029
일	-7.05313
▁못	-7.06631
!!!	-7.068
까지	-7.07467
시	-7.07618
해서	-7.08604
음	-7.10688
▁것	-7.11235
임	-7.11811
여	-7.12791
▁난	-7.12837
들이	-7.12967
하	-7.13277
데	-7.13296
▁평점이	-7.1486
할	-7.14989
▁많이	-7.14997
진	-7.15642
랑	-7.16018
건	-7.16386
하다	-7.17712
냐	-7.18131
▁개	-7.18533
ᄏ	-7.19209
▁그리고	-7.19289
듯	-7.19429
구	-7.19635
▁역시	-7.20604
안	-7.21109
▁나	-7.21981
▁넘	-7.24456
▁작품	-7.25832
는데	-7.26673
▁뭐	-7.26868
적	-7.27726
인데	-7.28388
▁재밌게	-7.29625
주	-7.29655
▁또	-7.30309
▁하는	-7.30505
??	-7.31839
보고	-7.32535
치	-7.3303
▁볼	-7.33335
중	-7.33619
미	-7.34553
상	-7.34644
드	-7.35044
우	-7.35325
▁마지막	-7.35622
▁재미	-7.35695
정	-7.36418
년	-7.36717
▁감동	-7.3677
▁꼭	-7.37112
던	-7.3857
▁ᄏᄏᄏ	-7.38748
▁없고	-7.38783
1	-7.39117
신	-7.40412
▁무슨	-7.40785
▁전	-7.41503
성	-7.41944
보	-7.42101
▁가장	-7.42912
▁말	-7.43007
질	-7.44055
▁아깝다	-7.44392
▁보면	-7.45559
진짜	-7.4632
▁별로	-7.46471
전	-7.46706
▁감독	-7.46864
같은	-7.47368
▁이야기	-7.4819
▁오	-7.49196
비	-7.50075
분	-7.50172
▁하나	-7.51184
세	-7.51332
▁액션	-7.51398
ᅲᅲ	-7.521
것	-7.52571
급	-7.5264
2	-7.52787
▁만든	-7.53123
▁ᄏ	-7.53203
▁저	-7.53379
▁중	-7.5353
했다	-7.53721
개	-7.54062
라고	-7.54922
오	-7.55413
그	-7.55854
▁다른	-7.56129
입니다	-7.5621
좀	-7.5645
하지	-7.57336
▁별	-7.57358
▁지금	-7.58325
ᄏᄏᄏ	-7.58741
용	-7.58752
내	-7.5916
▁연출	-7.5941
▁ᅲᅲ	-7.59626
부	-7.59864
▁할	-7.60144
장	-7.60501
마	-7.60726
▁같은	-7.61362
씨	-7.61419
▁영화다	-7.61754
적인	-7.62641
▁시간	-7.63695
▁와	-7.63865
▁말이	-7.63943
말	-7.63947
▁끝까지	-7.64735
▁하	-7.64794
너무	-7.64864
러	-7.65546
▁보	-7.66173
▁느낌	-7.66338
란	-7.66396
▁가	-7.66593
된	-7.66732
▁명작	-7.67685
이나	-7.67718
▁ᅳᅳ	-7.67936
▁배우	-7.67981
▁주	-7.68038
걸	-7.68756
▁지	-7.69201
화	-7.69616
없는	-7.69714
▁하지만	-7.69831
드라마	-7.69898
▁솔직히	-7.6993
▁한국	-7.69961
▁전혀	-7.70258
부터	-7.70313
소	-7.71061
▁내용	-7.71904
▁생각	-7.72053
트	-7.72644
때	-7.72658
처럼	-7.72954
라는	-7.73018
▁같다	-7.73507
선	-7.73623
▁사랑	-7.74031
▁대한	-7.74058
정말	-7.74452
인지	-7.74699
ᅲ	-7.74895
▁뭔가	-7.75323
물	-7.75421
▁처음	-7.75604
더	-7.75619
▁아주	-7.75671
에게	-7.76026
군	-7.76146
▁좋다	-7.76257
▁ᄒᄒ	-7.76343
▁있다	-7.76513
▁아니	-7.77674
원	-7.78205
▁봐도	-7.78947
▁봤다	-7.79046
▁때	-7.79616
편	-7.79939
▁많은	-7.79993
있는	-7.80477
ᅳᅳ	-7.80905
호	-7.81077
한다	-7.81171
▁사	-7.81247
습니다	-7.81492
본	-7.81894
무	-7.83457
▁4	-7.84682
▁재미있게	-7.84745
▁코미디	-7.85092
영	-7.8537
▁내내	-7.85404
인가	-7.85405
려	-7.8558
▁계속	-7.85617
▁하고	-7.85626
▁기대	-7.85628
▁모두	-7.85967
▁일본	-7.86575
▁내용이	-7.86647
때문에	-7.86736
▁두	-7.86975
▁제	-7.8724
▁어떻게	-7.87307
▁짱	-7.87454
▁않고	-7.87681
3	-7.88015
류	-7.88271
▁이걸	-7.88743
▁그래도	-7.89098
긴	-7.8925
▁정	-7.89288
▁나오는	-7.89576
▁줄	-7.89886
▁재밌다	-7.90133
▁일	-7.90194
▁5	-7.90283
어요	-7.90344
이랑	-7.90388
▁돈	-7.90417
▁!	-7.9062
▁대박	-7.90711
줄	-7.90836
들의	-7.91183
▁최악의	-7.91202
조	-7.91783
두	-7.91836
히	-7.92018
면서	-7.92062
▁유	-7.92364
▁거	-7.932
▁7	-7.93233
▁배우들	-7.93521
▁아니라	-7.93661
▁주인공	-7.93881
식	-7.93974
당	-7.94185
▁비	-7.94192
▁해	-7.94278
유	-7.94663
▁대	-7.94745
단	-7.94835
▁여자	-7.95043
▁고	-7.95147
▁딱	-7.95155
▁한번	-7.9539
▁듯	-7.95729
며	-7.95976
길	-7.95984
하지만	-7.96291
▁최악	-7.96409
▁아니다	-7.9658
▁모든	-7.96956
▁근데	-7.96975
▁연기가	-7.97231
동	-7.97569
▁기	-7.97658
▁8	-7.98322
합니다	-7.98485
난	-7.98832
▁아름다운	-7.99182
▁아닌	-7.99356
▁만드는	-7.99749
▁0	-8.00122
▁사람	-8.00133
▁제일	-8.0015
모	-8.00463
남	-8.00551
엔	-8.00983
타	-8.01112
▁감독이	-8.0146
감	-8.01793
▁무	-8.01812
▁않은	-8.02117
제	-8.02139
구나	-8.02151
▁알	-8.02193
운	-8.02313
이라	-8.02374
잘	-8.02427
▁보기	-8.0254
디	-8.02554
▁연기도	-8.02577
▁어	-8.02879
했던	-8.03049
▁그런	-8.03104
하면	-8.03687
▁미	-8.03823
▁후	-8.03833
▁보다가	-8.04467
명	-8.04508
▁제대로	-8.04522
위	-8.04598
▁이영화	-8.04845
바	-8.0496
되는	-8.0529
▁나는	-8.05382
▁스릴러	-8.05444
▁내용도	-8.05446
▁자	-8.056
린	-8.05659
▁스토리가	-8.05692
살	-8.0626
점도	-8.06516
▁굿	-8.06518
▁않는	-8.06863
작	-8.07594
▁우리	-8.07603
▁재미없다	-8.07932
▁김	-8.08148
▁아니고	-8.08582
▁요즘	-8.09089
연	-8.09912
▁OO	-8.0997
▁보다	-8.1
노	-8.10856
▁조	-8.10906
크	-8.11503
없이	-8.11693
▁싶다	-8.11779
▁절대	-8.11851
▁특히	-8.11927
방	-8.12147
준	-8.12264
▁때문에	-8.125
한테	-8.12522
죠	-8.12523
▁9	-8.12548
들은	-8.12589
봤는데	-8.12984
간	-8.13098
▁영화의	-8.13237
이라는	-8.13458
▁영화라고	-8.13557
▁반	-8.13716
번	-8.1377
▁이제	-8.14157
▁막장	-8.14234
▁아직도	-8.14248
래	-8.14699
▁시간이	-8.14804
년대	-8.14834
▁시	-8.14877
까	-8.15025
▁차라리	-8.15038
▁마	-8.15187
ᄒᄒ	-8.15281
하나	-8.15381
▁ᅲ	-8.1558
적으로	-8.15689
심	-8.15721
▁주는	-8.15742
으면	-8.15805
▁재미도	-8.16004
▁이해	-8.16354
연기	-8.16411
날	-8.16537
▁신	-8.16575
▁나름	-8.16577
시간	-8.17005
보면	-8.17178
▁장면	-8.17221
▁음악	-8.17318
레	-8.17815
▁도대체	-8.18102
▁걍	-8.18219
▁좋아	-8.18435
▁여운이	-8.18569
▁보면서	-8.18626
▁엄청	-8.18665
▁인생	-8.18723
▁스토리도	-8.1887
▁좋았다	-8.19043
짱	-8.19153
▁남자	-8.19252
이고	-8.19386
▁진심	-8.19389
▁영화입니다	-8.19523
었다	-8.19543
▁애니	-8.19692
▁아까운	-8.20284
▁전개	-8.20468
민	-8.20526
지는	-8.21289
▁나도	-8.21411
울	-8.21483
▁감독의	-8.21534
▁되는	-8.21585
▁마지막에	-8.21697
니까	-8.21925
▁오랜만에	-8.22135
점이	-8.22233
▁애	-8.22535
저	-8.22721
이란	-8.22787
재	-8.22846
라도	-8.23003
후	-8.23147
▁반전	-8.23199
져	-8.2325
▁실망	-8.23264
▁구	-8.23282
▁수준	-8.23624
없다	-8.23756
▁추천	-8.23771
님	-8.23873
▁남는	-8.23994
▁뻔한	-8.24023
점은	-8.24026
파	-8.24112
되	-8.24348
▁ᄏᄏᄏᄏ	-8.24487
루	-8.24504
하네요	-8.25035
인듯	-8.25105
르	-8.2582
▁나온	-8.26444
▁없음	-8.2662
▁재밌어요	-8.2698
관	-8.26999
▁좋고	-8.27098
생각	-8.27173
▁좋아하는	-8.27281
!!!!	-8.27611
▁이상	-8.27636
▁봤습니다	-8.27793
▁!!	-8.27796
ᄒ	-8.278
▁영화에	-8.2782
▁조금	-8.27878
이라고	-8.2793
▁소	-8.28165
산	-8.28233
발	-8.28328
▁지루하고	-8.2932
▁공포영화	-8.29398
▁생각이	-8.29462
▁지루한	-8.29473
프	-8.29942
희	-8.29963
???	-8.30172
▁이해가	-8.30312
▁개봉	-8.30371
워	-8.30531
판	-8.30906
▁B	-8.30964
▁멋진	-8.31326
▁배우들의	-8.31384
▁결말	-8.31444
▁건	-8.31474
▁어떤	-8.315
▁6	-8.31548
경	-8.31697
▁없이	-8.32116
지도	-8.32159
▁되	-8.32243
들을	-8.32366
했는데	-8.32421
▁눈물	-8.32438
▁OOO	-8.32676
만큼	-8.3274
▁사람이	-8.32803
▁모	-8.32973
▁함께	-8.33051
▁오늘	-8.33355
차	-8.33392
▁봤던	-8.3342
카	-8.33577
밖에	-8.33778
▁20	-8.33959
▁공포	-8.34065
박	-8.34182
▁뭘	-8.34228
하네	-8.34297
반	-8.34368
▁그저	-8.34468
▁보는내내	-8.34511
다가	-8.34607
회	-8.34788
왜	-8.35052
즈	-8.35053
보는	-8.35158
림	-8.35208
▁애니메이션	-8.35458
다니	-8.35537
▁재미가	-8.35643
겨	-8.36256
현	-8.36287
애	-8.36353
▁못한	-8.36465
▁얼마나	-8.36512
▁괜찮은	-8.36532
생	-8.36627
▁우	-8.36636
▁가슴	-8.36749
▁걸	-8.36873
▁아무리	-8.36999
▁싶은	-8.37026
못	-8.37155
▁보세요	-8.37246
▁영	-8.37364
▁최고다	-8.37407
키	-8.37414
ᅮᅮ	-8.37548
ᅳ	-8.3762
▁재밌는	-8.37725
▁장	-8.38195
든	-8.38231
터	-8.38246
▁부	-8.38747
▁속	-8.39753
▁눈	-8.39801
▁영화로	-8.39899
▁큰	-8.39939
▁노	-8.40088
▁될	-8.40103
10	-8.40301
▁막	-8.40522
는게	-8.40738
▁개인적으로	-8.40796
▁시작	-8.40801
ᄏᄏᄏᄏ	-8.40876
▁기억에	-8.40925
▁기억	-8.4109
▁안되는	-8.41199
국	-8.41239
▁우리나라	-8.41255
사람	-8.41318
따	-8.41329
하기	-8.41362
▁정도	-8.41541
배	-8.41565
중에	-8.41889
▁제발	-8.41991
건지	-8.42055
그냥	-8.4215
▁졸작	-8.42249
▁피	-8.42414
공	-8.42508
있다	-8.42811
▁뭔	-8.42941
피	-8.42963
▁수작	-8.43055
속	-8.43214
▁된	-8.43672
▁만들어	-8.43691
▁매우	-8.43705
▁바	-8.4387
▁연기는	-8.43924
문	-8.44074
▁강추	-8.44128
실	-8.44407
▁원	-8.44518
▁그렇게	-8.44661
토	-8.44676
▁연기력	-8.44879
▁미국	-8.45011
▁스	-8.45017
버	-8.45024
탄	-8.4522
▁남	-8.45221
는거	-8.45331
e	-8.45423
는지	-8.45682
태	-8.45715
▁인간	-8.45795
▁알바	-8.45999
▁표현	-8.46173
▁지루하다	-8.46309
▁ᄒ	-8.46486
▁몇	-8.46765
▁대사	-8.46956
참	-8.47118
최고	-8.4712
▁같이	-8.47122
정도	-8.47484
▁박	-8.4753
작품	-8.47546
불	-8.48027
해도	-8.48454
으	-8.48532
더라	-8.48545
▁것이	-8.48575
▁쓰	-8.48636
배우	-8.48642
▁모르겠다	-8.48964
▁세	-8.49106
▁있고	-8.49127
▁날	-8.49423
▁극장에서	-8.49549
▁공감	-8.49629
코	-8.4978
▁지루함	-8.49791
스토리	-8.50371
▁하나도	-8.50557
▁봤어요	-8.50577
▁원작	-8.50615
해요	-8.50752
▁사람들	-8.50776
▁기분	-8.50912
▁불	-8.51307
▁너무나	-8.5153
▁만들	-8.51648
역	-8.51828
▁결국	-8.52015
▁위한	-8.52109
뿐	-8.52299
▁않는다	-8.52322
▁마음이	-8.5249
5	-8.5256
▁위해	-8.52597
감독	-8.52667
▁준	-8.529
려고	-8.53028
것도	-8.53385
d	-8.53602
이런	-8.53785
티	-8.5379
형	-8.53917
병	-8.54311
▁좋아요	-8.54338
▁보게	-8.54686
▁노래	-8.54734
▁존나	-8.55185
▁배	-8.55266
하며	-8.55271
하면서	-8.55412
▁살	-8.55629
▁한다	-8.55668
▁강	-8.5606
▁끝	-8.56138
▁캐릭터	-8.56428
▁로맨스	-8.5668
▁한국영화	-8.56893
구만	-8.57027
▁누가	-8.57095
이지만	-8.57111
▁보지	-8.57173
였다	-8.57331
갈	-8.57745
▁내용은	-8.5776
▁대체	-8.57925
했음	-8.57945
▁영상	-8.57976
▁느낌이	-8.58402
4	-8.58412
▁눈물이	-8.5864
점을	-8.58999
▁훨씬	-8.59027
이야	-8.59065
던데	-8.59075
업	-8.59305
봐도	-8.59357
▁그나마	-8.59387
녀	-8.59526
▁ᅮᅮ	-8.59601
평점	-8.59703
▁초	-8.60015
▁울	-8.60262
▁영화네요	-8.60333
겠다	-8.60425
극	-8.60476
사랑	-8.60507
▁갈수록	-8.6073
등	-8.60768
▁밖에	-8.60901
▁가슴이	-8.61033
▁사실	-8.61129
▁만화	-8.61381
포	-8.61447
어서	-8.61628
▁결말이	-8.61689
주는	-8.61811
▁음	-8.619
▁알고	-8.61943
넘	-8.61953
달	-8.62011
▁시리즈	-8.62131
▁억지	-8.62295
▁재밌음	-8.62388
거야	-8.62445
▁꽤	-8.62465
▁예	-8.62716
▁그래서	-8.6277
▁미친	-8.62843
망	-8.63023
▁진	-8.63053
▁소재	-8.6312
▁여	-8.63168
▁발	-8.63228
▁기억이	-8.63228
양	-8.63254
이네	-8.63339
▁성	-8.6353
꺼	-8.63639
▁ᅳ	-8.64157
▁재밌	-8.64371
▁서	-8.64493
▁긴장감	-8.6459
매	-8.6462
▁게	-8.64881
금	-8.65055
▁어설픈	-8.65484
▁보여주는	-8.6551
▁마음	-8.6555
▁들	-8.65595
▁재밌고	-8.65692
▁연기를	-8.65748
▁머	-8.65772
▁그만	-8.6584
▁단	-8.65974
ᅮ	-8.66005
o	-8.66247
었는데	-8.66478
▁파	-8.66595
▁있을	-8.66699
▁CG	-8.6678
쳐	-8.66921
▁재	-8.66962
종	-8.66971
초	-8.67031
▁주고	-8.6711
▁않다	-8.67114
▁입	-8.67278
악	-8.67531
▁볼만	-8.67561
봐	-8.67561
▁매력	-8.67605
▁캐스팅	-8.67652
▁몰입도	-8.67698
▁필요	-8.67826
하는데	-8.679
▁없어	-8.68038
▁다들	-8.68047
봤다	-8.68218
▁노잼	-8.68268
쓰레기	-8.68275
▁않	-8.68412
군요	-8.68701
▁전쟁	-8.68826
▁가족	-8.68842
▁간만에	-8.69138
▁30	-8.69204
▁시즌	-8.69351
▁걸작	-8.69364
체	-8.69673
▁아쉽다	-8.70042
이네요	-8.7005
▁공	-8.70055
▁없었다	-8.70115
▁허	-8.70189
▁시나리오	-8.70226
그리고	-8.70324
▁사람들이	-8.70604
▁쓰레기영화	-8.70708
▁잔잔한	-8.70728
▁감동도	-8.7081
대로	-8.70874
▁후회	-8.71066
▁영화관에서	-8.71074
▁야	-8.71371
년이	-8.71381
기는	-8.71716
▁감동이	-8.72008
봄	-8.72086
이었다	-8.72188
▁선	-8.7224
▁영화중	-8.72325
▁애들	-8.72349
▁욕	-8.72768
강	-8.72952
▁동	-8.73137
▁당시	-8.73197
s	-8.73201
▁더빙	-8.73216
▁코믹	-8.73262
▁것도	-8.73427
▁적	-8.73491
▁문제	-8.73548
▁것을	-8.73623
▁발연기	-8.7365
6	-8.73661
▁주연	-8.73711
▁재미없음	-8.73725
에도	-8.73833
라면	-8.73884
▁바로	-8.74071
점대	-8.74117
▁좋은데	-8.74144
▁있	-8.74225
먹	-8.74305
▁진정한	-8.74388
▁뿐	-8.74497
없고	-8.74529
볼	-8.74647
움	-8.74945
느낌	-8.74959
▁인	-8.74966
인줄	-8.75127
▁작가	-8.75138
▁아님	-8.75274
장면	-8.75392
▁같아요	-8.75519
▁영화였다	-8.7556
력	-8.75569
▁감동적인	-8.75589
▁생각을	-8.75753
▁없	-8.75772
글	-8.75796
▁다큐	-8.75953
▁있을까	-8.75993
▁대해	-8.76077
▁생각보다	-8.76184
이라도	-8.76311
▁별점	-8.76418
▁재미있는	-8.76548
▁약간	-8.76652
너	-8.76781
리는	-8.76806
했지만	-8.76989
▁상당히	-8.77098
입	-8.77397
▁네이버	-8.77449
뭐	-8.7757
알	-8.77628
▁매	-8.77709
▁극	-8.77722
감동	-8.77744
집	-8.77973
▁자기	-8.78018
▁차	-8.7804
▁중국	-8.78133
▁그대로	-8.78241
담	-8.78291
▁준다	-8.78344
통	-8.78397
액션	-8.78449
▁100	-8.78509
▁스토리는	-8.78759
내용	-8.79002
색	-8.79375
▁찾아	-8.7941
▁치	-8.79478
석	-8.79637
▁중간에	-8.79753
했	-8.79859
있고	-8.79935
▁너	-8.80014
▁판타지	-8.80088
▁같은데	-8.80117
▁거의	-8.80188
▁배우들이	-8.80206
▁설정	-8.80258
▁90	-8.80285
▁만	-8.80286
쓰	-8.80363
▁점수	-8.80396
▁감동을	-8.80487
창	-8.80493
▁상	-8.805
수준	-8.80649
▁정도로	-8.80689
▁손	-8.80742
▁했는데	-8.80775
▁심	-8.81015
▁맘에	-8.81052
▁잼	-8.81084
죽	-8.81299
이거	-8.81302
▁재미는	-8.81353
▁뭐야	-8.81833
영화는	-8.81836
▁나와서	-8.81925
머	-8.82092
온	-8.82156
이야기	-8.82291
기에	-8.82448
기도	-8.8261
편이	-8.82622
론	-8.82623
7	-8.83058
▁볼만한	-8.83138
권	-8.83242
보단	-8.83485
▁있지만	-8.83598
계	-8.83628
해야	-8.83644
이지	-8.83863
▁이영화를	-8.83934
거지	-8.83986
▁총	-8.83993
▁토	-8.84023
완전	-8.84157
재미	-8.84189
▁화	-8.84204
된다	-8.84227
승	-8.84294
▁재미없는	-8.84374
▁등	-8.84388
잼	-8.84446
▁웃음	-8.84448
릴	-8.84474
▁봤지만	-8.84633
슨	-8.84752
▁죽	-8.84985
가는	-8.8501
▁제목	-8.85116
▁전부	-8.85164
▁얼굴	-8.85265
▁장난	-8.85325
나요	-8.8548
▁편	-8.85775
을까	-8.85782
▁뭐지	-8.85802
이건	-8.8584
▁친구	-8.86103
▁보니	-8.8613
영화를	-8.86185
구요	-8.86263
있	-8.86297
▁장면이	-8.86356
▁나오	-8.86359
더니	-8.86739
천	-8.86792
▁재미있다	-8.86829
0	-8.86837
이상	-8.86897
▁영화인데	-8.87106
▁굉장히	-8.87302
8	-8.8749
아니	-8.87505
▁갑자기	-8.8754
▁분	-8.87774
▁훌륭한	-8.88033
▁제가	-8.88322
▁?	-8.88373
▁봐야	-8.88425
예	-8.88495
▁재밌네요	-8.88581
편은	-8.88582
테	-8.88616
다고	-8.88771
▁어디서	-8.88811
▁영화임	-8.89022
▁각본	-8.89203
잡	-8.89246
▁저런	-8.89262
소리	-8.89267
에선	-8.89293
▁현실	-8.89293
▁봐서	-8.89341
▁이딴	-8.89362
학	-8.89394
▁아무	-8.89546
▁물	-8.89581
됨	-8.89817
▁있어서	-8.89897
▁새로운	-8.89963
▁원작을	-8.90042
▁했다	-8.90095
▁b	-8.90096
▁방송	-8.90184
건가	-8.90208
없	-8.90284
▁딸	-8.90429
교	-8.90594
같이	-8.90611
▁아이	-8.91003
▁엔딩	-8.91115
▁따라	-8.91168
케	-8.91208
▁포스터	-8.91226
니다	-8.91335
김	-8.91392
될	-8.91542
▁정신	-8.91732
▁평가	-8.91737
▁아직	-8.91767
나는	-8.91917
증	-8.91981
▁뭐냐	-8.92014
없음	-8.92075
▁평점을	-8.921
보기	-8.92242
보니	-8.92338
▁영화도	-8.92552
▁들어	-8.9263
▁얘기	-8.92665
▁카	-8.92667
▁여주인공	-8.92759
▁재미있어요	-8.92792
▁마음에	-8.92963
짐	-8.93042
땜에	-8.93197
▁그러나	-8.93282
▁항상	-8.93417
▁예술	-8.93594
▁생각하게	-8.93615
▁주인공이	-8.93946
▁여기	-8.94023
절	-8.94171
라서	-8.94188
짓	-8.94201
▁대단한	-8.94358
▁악	-8.94534
욕	-8.94539
행	-8.94551
▁평	-8.94621
▁존	-8.94636
능	-8.94763
목	-8.94809
▁못하는	-8.94904
▁하지	-8.94995
▁일단	-8.95019
▁그런지	-8.95073
▁자체가	-8.95208
투	-8.9522
돈	-8.9524
▁어느	-8.95242
▁봐라	-8.953
▁혼자	-8.9536
듯한	-8.95369
▁맞	-8.95436
스러운	-8.95498
영화가	-8.95503
▁말도	-8.95644
▁저는	-8.95834
▁봤음	-8.95925
치고	-8.95944
▁화면	-8.9615
을때	-8.96264
▁행복	-8.96437
들도	-8.96506
▁언제	-8.96514
▁글	-8.96544
▁비해	-8.96546
▁봄	-8.96626
▁빨리	-8.96647
▁지루	-8.96692
맨	-8.96705
▁백	-8.968
않	-8.96807
여자	-8.96902
▁가지고	-8.96913
▁하다	-8.97082
▁열	-8.97122
▁TV	-8.97175
▁줄거리	-8.97216
▁있는데	-8.97307
해라	-8.97342
▁해서	-8.97349
▁자체	-8.97381
▁처음부터	-8.974
▁봐	-8.97513
▁충분히	-8.97565
▁졸	-8.97597
열	-8.9771
나오는	-8.98032
▁엄마	-8.98034
남자	-8.98108
▁옛날	-8.98155
▁없어서	-8.98182
▁망	-8.98205
▁먹	-8.98268
▁사람은	-8.98374
▁여주	-8.98457
▁이런영화	-8.98464
또	-8.98638
격	-8.9866
할때	-8.98662
ᄋ	-8.9872
i	-8.98753
▁연	-8.98854
▁나의	-8.99038
t	-8.99046
▁역	-8.9913
들에게	-8.99214
▁꿀잼	-8.99248
었던	-8.99308
▁흥행	-8.99446
▁점점	-8.9966
▁스릴	-8.99701
▁아까움	-8.99799
▁오래	-8.99846
▁좋은영화	-9.0024
다는	-9.00265
거나	-9.00427
a	-9.0043
▁뒤	-9.00469
▁너무너무	-9.00515
조차	-9.00617
▁책	-9.00653
놓고	-9.0067
▁의미	-9.00738
라니	-9.00775
▁삼류	-9.00781
▁뭐가	-9.00787
▁구성	-9.00827
이라면	-9.00972
▁잘못	-9.01278
▁안된다	-9.01322
▁똥	-9.01373
▁출연	-9.01537
기를	-9.01545
기만	-9.01577
▁간	-9.01847
▁감독님	-9.01945
셨	-9.01975
근데	-9.02112
왕	-9.02355
언	-9.02362
9	-9.02403
▁80	-9.02411
▁코	-9.02448
▁감	-9.02518
뻔	-9.02692
▁편집	-9.02707
슴	-9.02833
▁좋네요	-9.02943
▁더욱	-9.0295
▁높은	-9.02958
락	-9.03089
씬	-9.03234
▁시절	-9.03304
스트	-9.03317
▁변	-9.03392
▁개연성	-9.03483
▁그러	-9.03528
▁분위기	-9.03741
▁것은	-9.03907
척	-9.03925
거다	-9.04137
는건	-9.04167
▁한마디로	-9.04178
에는	-9.04215
되어	-9.04242
▁유치한	-9.04303
▁비디오	-9.0436
채	-9.04364
겠지	-9.04438
▁허접	-9.04508
치는	-9.04589
▁좋겠다	-9.04649
OO	-9.04735
순	-9.04875
것이	-9.04941
직	-9.04964
근	-9.04992
▁무조건	-9.04999
▁올	-9.05118
▁그닥	-9.05194
▁도저히	-9.05432
▁짜증	-9.05456
▁실	-9.05528
처	-9.05577
추	-9.05774
▁약	-9.0603
▁웃	-9.06062
▁전개가	-9.06208
▁이영화는	-9.06225
▁나올	-9.06298
▁어릴때	-9.06318
▁소설	-9.06329
▁망작	-9.0639
▁엄청난	-9.06493
▁다시봐도	-9.06509
▁아쉬운	-9.06551
▁극장판	-9.06561
되고	-9.06645
▁ᄍᄍ	-9.06656
▁슬픈	-9.06705
▁예전에	-9.0675
▁소리	-9.06794
년전	-9.06905
▁힘	-9.06973
▁최	-9.07039
▁순간	-9.07078
평	-9.07095
난다	-9.07112
▁합니다	-9.07281
▁보는데	-9.0734
▁잡	-9.0753
▁볼수	-9.07586
▁원래	-9.07656
▁쳐	-9.07727
이라니	-9.07789
▁좋	-9.07828
▁모습	-9.07888
막	-9.07901
▁라는	-9.07912
이게	-9.0795
퍼	-9.07995
▁살아	-9.07997
▁따뜻한	-9.08271
▁낫다	-9.08334
했어요	-9.08543
▁있어	-9.08557
정도로	-9.0872
잇	-9.08734
▁감독은	-9.08739
진다	-9.08855
▁타	-9.08863
▁부족	-9.08905
▁있었다	-9.08949
름	-9.09017
▁유치	-9.09018
▁돈주고	-9.0903
▁모르고	-9.09165
▁멜로	-9.09261
▁추억	-9.09388
▁재밌었다	-9.09398
거냐	-9.09414
r	-9.09433
것같다	-9.09457
▁재밌는데	-9.09485
허	-9.09486
▁첫	-9.09507
▁사랑을	-9.09589
D	-9.09591
▁....	-9.09634
▁다음	-9.09636
▁이것도	-9.09897
▁없네	-9.10017
▁봤네요	-9.1004
웃	-9.10064
▁사람들은	-9.10221
사람들	-9.10257
▁충격	-9.10357
▁호	-9.10576
▁번	-9.10678
▁달	-9.10684
수가	-9.10876
▁감정	-9.11082
▁왕	-9.11269
▁그게	-9.11335
▁역사	-9.11385
했고	-9.11397
린다	-9.11405
하냐	-9.11597
▁비교	-9.11665
▁초반	-9.11685
습	-9.11721
▁자꾸	-9.11814
▁있음	-9.12063
좋아	-9.12093
▁갈	-9.12116
▁꿈	-9.12246
▁세계	-9.12412
▁완벽한	-9.12484
▁모르는	-9.126
년도	-9.12626
복	-9.12654
어야	-9.1294
▁그리	-9.12975
▁경	-9.13187
▁헐	-9.13198
▁길	-9.13335
y	-9.13412
커	-9.13421
▁전형적인	-9.13426
▁외	-9.1343
▁예상	-9.13484
▁짜	-9.13489
▁부족한	-9.1356
▁성룡	-9.13574
▁만족	-9.13929
길래	-9.13964
▁오히려	-9.14019
했습니다	-9.14243
나오	-9.14279
▁알게	-9.14321
▁초딩	-9.14621
▁배경	-9.14694
새	-9.1475
이냐	-9.1487
▁평점은	-9.15013
▁요	-9.15016
별	-9.15106
▁관객	-9.15116
▁목소리	-9.15122
외	-9.15169
▁병맛	-9.15175
▁낮은	-9.15197
▁SF	-9.15203
▁재미없	-9.15224
건데	-9.15226
▁반전이	-9.1545
▁뭔지	-9.15472
▁인간의	-9.15506
대박	-9.15532
▁억지로	-9.15539
▁느낄	-9.15562
▁된다	-9.15626
철	-9.15723
▁없네요	-9.15738
▁나와	-9.15782
블	-9.15917
▁알았다	-9.15985
보다는	-9.15989
▁연출력	-9.16074
▁연출이	-9.1623
배우들	-9.16345
빠	-9.16483
▁맛	-9.16526
▁돈이	-9.16547
쯤	-9.16616
환	-9.16786
만한	-9.16804
었음	-9.16826
었	-9.16913
▁대한민국	-9.16921
▁프랑스	-9.16943
▁평점에	-9.17094
▁댓글	-9.17202
▁믿고	-9.17227
▁지루해	-9.17271
▁우연히	-9.17319
친	-9.17409
봐서	-9.17513
브	-9.17663
▁힘들	-9.17725
▁물론	-9.17748
별로	-9.17785
▁가는	-9.17846
▁ᄒᄒᄒ	-9.17917
세요	-9.17972
표	-9.17977
▁수가	-9.18058
약	-9.18072
버린	-9.18209
▁존재	-9.18226
▁이야기를	-9.18292
▁이상한	-9.18587
▁재밌어	-9.18719
▁액션도	-9.18758
▁잠	-9.18834
법	-9.18851
같다	-9.1888
침	-9.18978
▁방	-9.18987
▁아무것도	-9.19005
▁비슷한	-9.19136
▁휴	-9.19169
▁화이팅	-9.19328
내가	-9.19354
나라	-9.19383
▁배우가	-9.19449
마다	-9.19489
▁ost	-9.19508
▁아닌가	-9.19515
였음	-9.19552
메	-9.19744
▁포	-9.19783
처음	-9.19808
설	-9.1981
츠	-9.19823
▁좋았어요	-9.19849
▁앞으로	-9.1991
년에	-9.19968
겠지만	-9.19975
▁재미없어	-9.19995
짜	-9.20094
▁리	-9.20159
▁현재	-9.20185
많이	-9.20193
▁어디	-9.20246
잖아	-9.20247
규	-9.20271
리고	-9.20316
느	-9.20457
▁듯한	-9.2054
▁괜히	-9.20606
▁두번	-9.20691
기대	-9.20731
▁그때	-9.20745
▁참고	-9.20776
▁명	-9.20785
▁해도	-9.20903
▁감상	-9.20936
▁재미있고	-9.21031
▁삼	-9.21033
▁좋음	-9.21063
▁선택	-9.21069
▁재밋	-9.21234
▁불륜	-9.21376
할수	-9.21475
여서	-9.21554
▁코메디	-9.21566
돌	-9.21581
▁처음으로	-9.21592
▁지금까지	-9.21668
▁머리	-9.21848
▁흠	-9.21863
▁말고	-9.21869
▁아이들이	-9.21951
월	-9.21981
놈	-9.22057
▁더럽게	-9.2207
▁이미	-9.22091
끼	-9.22135
▁특유의	-9.22151
▁지금도	-9.22151
▁느끼게	-9.22251
▁않을	-9.22278
▁이리	-9.2239
▁것이다	-9.22515
▁감성	-9.22534
▁천	-9.22677
출	-9.22799
▁이정도	-9.22855
▁제작	-9.22867
▁어린	-9.2288
한거	-9.22929
▁위	-9.22965
빈	-9.22994
▁이런거	-9.23033
점짜리	-9.23047
뜨	-9.2305
▁알았는데	-9.23072
▁만들지	-9.23078
▁대단하다	-9.23209
▁질	-9.23306
슬	-9.23459
▁복수	-9.23492
▁추	-9.235
놓	-9.24078
▁여성	-9.24143
▁베	-9.24167
범	-9.24216
▁저질	-9.24217
▁여배우	-9.24258
보는데	-9.24262
▁졸라	-9.24327
▁않았다	-9.24354
향	-9.24433
▁써	-9.24458
영화다	-9.24497
▁모습이	-9.24535
▁시청률	-9.24679
▁인정	-9.24685
▁어렸을때	-9.24694
좋은	-9.247
▁실제	-9.24773
았	-9.24866
틀	-9.24875
▁맞는	-9.24898
▁재미없고	-9.24898
▁몰입	-9.24917
▁지난	-9.25109
▁유치하고	-9.25127
▁영상미	-9.25161
백	-9.25203
시리즈	-9.25251
▁힘든	-9.25396
▁나라	-9.25416
▁이런걸	-9.25503
이면	-9.25544
▁아이들	-9.25607
▁본다	-9.2571
▁개그	-9.25747
▁흥미	-9.25867
▁저도	-9.26139
끝	-9.26184
▁영화라	-9.26232
주의	-9.26249
▁tv	-9.26317
▁귀	-9.26353
간다	-9.26392
▁액션영화	-9.26406
▁속편	-9.267
▁순	-9.26765
칠	-9.26874
인거	-9.26929
▁생	-9.26932
삼	-9.2696
좋다	-9.26966
▁기대하고	-9.27074
▁않음	-9.271
▁또한	-9.27121
▁왜이리	-9.27222
▁장면은	-9.27227
훈	-9.2723
▁!!!	-9.27233
▁영화보다	-9.27251
봐라	-9.27271
▁하면	-9.27458
▁화려한	-9.27571
▁둘	-9.27633
▁나쁜	-9.27693
다시	-9.27763
▁레	-9.27829
▁돌	-9.27917
▁귀여운	-9.27995
눈	-9.2803
▁입니다	-9.28151
찬	-9.28337
쉬	-9.28376
억	-9.28385
▁진부한	-9.28548
▁실화	-9.28556
하여	-9.28691
▁암	-9.28713
지금	-9.28742
엇	-9.28752
▁아니지만	-9.28883
▁새	-9.28911
▁겁나	-9.28941
벌	-9.28946
적이고	-9.28962
분들	-9.28987
련	-9.29003
였	-9.29021
▁명작이다	-9.29053
▁M	-9.29129
▁버	-9.29132
하니	-9.29159
▁없을	-9.29186
▁그렇고	-9.29244
▁왠지	-9.29292
보다가	-9.29368
▁이유	-9.2939
▁이름	-9.29492
하던	-9.29505
▁결혼	-9.29615
였는데	-9.29636
지루	-9.29646
가서	-9.29668
명작	-9.29698
▁질질	-9.29715
▁나이	-9.29865
들과	-9.29909
그래도	-9.29931
으니	-9.29948
마지막	-9.30084
▁아닐까	-9.30095
▁진행	-9.30095
점준다	-9.30103
▁죽음	-9.30107
▁나온다	-9.30235
▁양	-9.30402
▁하게	-9.30445
f	-9.30452
u	-9.30452
재밌	-9.3051
시켜	-9.30535
해지는	-9.30598
▁최악이다	-9.30647
▁장르	-9.30756
하는거	-9.30767
귀	-9.30802
▁당	-9.30843
n	-9.30981
▁나만	-9.30996
▁성우	-9.31023
▁사랑이	-9.31036
▁늘	-9.31101
▁몸	-9.31126
션	-9.31184
▁많	-9.31241
▁좋았습니다	-9.31266
▁끝나	-9.31273
▁그런데	-9.31299
▁이번	-9.31373
성이	-9.31447
▁비추	-9.31522
▁좋았고	-9.31533
▁팬	-9.31537
광	-9.31545
▁떠나	-9.3157
▁눈이	-9.31612
▁시간낭비	-9.31672
▁설명	-9.31721
▁중에	-9.31733
▁일본영화	-9.3174
▁전체적으로	-9.31761
말이	-9.31958
▁C	-9.32034
▁사회	-9.32047
................	-9.32056
▁귀신	-9.32064
▁쓴	-9.32129
베	-9.32197
▁먼저	-9.32203
▁대작	-9.32256
▁관	-9.32291
▁아빠	-9.32293
▁생각한다	-9.32389
▁스토리에	-9.32392
▁내인생	-9.32422
▁마치	-9.3244
풍	-9.32518
분이	-9.32527
▁좀비	-9.32796
▁감사	-9.32825
▁허접한	-9.33104
▁삶을	-9.33276
▁범죄	-9.33334
▁보여준	-9.33357
했으면	-9.33392
한번	-9.33572
각	-9.33573
▁첨	-9.33603
▁무엇보다	-9.33675
무슨	-9.33679
있게	-9.33696
▁보고나서	-9.33717
낸	-9.33724
▁같습니다	-9.33766
속에	-9.33822
▁지루하지	-9.33863
▁보여주	-9.34014
▁영화였습니다	-9.34056
▁되어	-9.34198
▁웃긴	-9.34352
셔	-9.34372
▁지금봐도	-9.34416
혀	-9.34531
어도	-9.34569
▁대충	-9.34663
▁누구	-9.34704
▁너무나도	-9.34735
▁관계	-9.34746
▁드라마를	-9.34756
▁소재는	-9.34773
▁작품이	-9.34955
▁하는데	-9.34999
▁까	-9.35005
였던	-9.35114
▁스타일	-9.35156
▁같	-9.35159
함을	-9.35185
▁재밌었어요	-9.35204
▁서로	-9.35312
▁못하고	-9.35332
▁상상	-9.35345
▁이젠	-9.35395
b	-9.35429
▁노출	-9.3545
▁프로	-9.3549
역시	-9.35509
이에요	-9.35624
▁바보	-9.35654
졌다	-9.35714
나서	-9.35863
올	-9.35906
▁자신의	-9.35949
▁만들었다	-9.35995
▁통	-9.36058
▁메	-9.36199
▁상영	-9.36204
방송	-9.36299
▁처	-9.36307
▁카메라	-9.36339
졌	-9.36376
▁깊은	-9.36408
▁트	-9.36439
▁보이는	-9.36439
▁어이없는	-9.36448
맞	-9.36561
▁집중	-9.36565
일까	-9.36603
께	-9.3667
k	-9.36707
▁액션이	-9.36876
▁다소	-9.36897
▁확실히	-9.3694
▁촬영	-9.36961
▁잘봤습니다	-9.36991
▁과거	-9.37022
▁그래	-9.37069
먼	-9.37119
▁어색한	-9.37121
▁깨	-9.37233
▁노력	-9.37293
ᅲᅲᅲ	-9.3745
▁있다는	-9.37479
▁낮	-9.37517
▁미화	-9.37613
그런	-9.37619
었어요	-9.37638
▁형	-9.37706
l	-9.37796
▁마음을	-9.37891
▁그런가	-9.3797
▁평론가	-9.37994
▁지나	-9.38091
▁경찰	-9.38099
▁이야기가	-9.38101
▁무서운	-9.38248
▁이영화가	-9.38298
이렇게	-9.38308
▁있었던	-9.38346
▁여자가	-9.38371
들어	-9.38388
결	-9.3851
▁영웅	-9.38587
h	-9.38675
받	-9.38681
▁완벽	-9.38742
▁독립영화	-9.38895
▁좋았는데	-9.38918
을듯	-9.38945
▁네	-9.38962
▁감사합니다	-9.38999
▁사건	-9.39016
듬	-9.39032
리가	-9.3917
▁매력적인	-9.39176
▁알아	-9.39202
지고	-9.39219
도록	-9.39256
더군요	-9.3932
▁모습을	-9.39347
▁설	-9.39381
▁같네요	-9.39399
▁15	-9.39405
▁좋았음	-9.39612
▁부분이	-9.39615
혜	-9.39667
▁온	-9.39673
▁이후	-9.39697
려는	-9.39721
▁왜이렇게	-9.39839
▁OST	-9.40042
▁세상에	-9.4011
레이	-9.40143
사람이	-9.40186
▁패	-9.40222
▁웃기	-9.40241
른	-9.40328
작가	-9.40335
▁순수한	-9.4044
▁프로그램	-9.40481
▁이런게	-9.40481
▁재미있	-9.40518
▁유쾌한	-9.40529
▁영화중에	-9.40678
좋	-9.4072
▁낭비	-9.40752
▁문	-9.40753
▁태	-9.40839
하는게	-9.40849
것이다	-9.4085
으나	-9.4086
▁ᅮ	-9.40889
▁고민	-9.40901
거임	-9.40937
▁함	-9.4101
▁남주	-9.41085
▁연애	-9.41099
▁아놔	-9.41103
▁데	-9.41155
????	-9.41264
▁아들	-9.41353
▁ᄉᄇ	-9.41355
▁19	-9.41426
▁싶	-9.41492
▁인물	-9.41519
▁훨	-9.41535
▁해주는	-9.41555
▁예전	-9.41613
▁느껴지는	-9.4163
플	-9.41898
전개	-9.41937
▁아저씨	-9.4196
아깝다	-9.41988
▁리메이크	-9.42012
▁역시나	-9.42043
지않	-9.42195
씩	-9.42242
했을	-9.4228
▁숨	-9.42298
햇	-9.42315
▁아니면	-9.42316
싶	-9.42348
였습니다	-9.4241
다면	-9.42425
▁여전히	-9.42433
▁떨어지는	-9.42487
▁눈을	-9.42488
▁역대	-9.42517
▁목	-9.42526
▁기분이	-9.42566
▁내용을	-9.42573
만으로도	-9.42629
▁나를	-9.42641
▁했지만	-9.42698
▁바람	-9.42776
술	-9.42791
스럽다	-9.42802
▁그래픽	-9.42805
▁찍은	-9.4284
▁영화에서	-9.42871
도없고	-9.42952
탕	-9.42956
▁만점	-9.42962
▁로맨틱	-9.42977
▁관람	-9.42985
▁찍	-9.4303
이제	-9.4307
▁매력이	-9.43206
▁급	-9.43261
걸까	-9.43321
▁든다	-9.43322
▁상황	-9.43372
▁ᄏᄏᄏᄏᄏ	-9.4339
▁스토리와	-9.434
없어	-9.43564
▁감탄	-9.43589
이며	-9.43645
▁드	-9.43657
▁평범한	-9.43871
▁독특한	-9.43935
▁키	-9.43941
▁산	-9.44077
▁처음이다	-9.44131
자가	-9.44175
딱	-9.44205
▁답답	-9.44248
▁정치	-9.44315
으며	-9.44329
▁전에	-9.44416
▁애들이	-9.4446
▁확	-9.44466
▁연기력이	-9.44488
▁사람을	-9.44509
▁용	-9.44553
▁드라마가	-9.44564
▁나오고	-9.4463
나온	-9.4465
아이	-9.44696
책	-9.4472
봐야	-9.44784
▁볼때마다	-9.44819
▁돌려	-9.45004
▁그녀	-9.45061
▁분명	-9.451
료	-9.45126
튼	-9.45158
▁어색	-9.45174
▁여운	-9.45298
▁아닌데	-9.45354
보면서	-9.45373
드는	-9.45416
▁보지마세요	-9.45442
덕	-9.45443
되지	-9.45468
▁소재를	-9.4554
▁드는	-9.45565
▁만들었	-9.45707
최악	-9.45737
겟	-9.45779
▁마라	-9.45793
▁마무리	-9.45798
▁봤었는데	-9.45878
독	-9.45888
패	-9.45928
▁신선한	-9.45973
거리	-9.46052
▁해준	-9.46066
▁천재	-9.46071
▁끝내	-9.4631
▁있었	-9.46313
▁살인	-9.46556
완	-9.46557
▁아는	-9.46584
▁킬링타임용	-9.46618
았다	-9.46621
▁있다면	-9.46652
적이	-9.46682
▁나중에	-9.46686
▁병	-9.46843
▁액션은	-9.46949
효	-9.47066
▁그의	-9.47121
▁사랑하는	-9.47241
▁아름답다	-9.47242
▁디	-9.47314
▁귀엽고	-9.47322
▁음악이	-9.47452
한데	-9.47475
▁저렇게	-9.47496
▁흐	-9.47497
까진	-9.47502
ᄏᄏᄏᄏᄏᄏᄏᄏᄏᄏᄏᄏᄏᄏᄏᄏ	-9.47526
▁법	-9.47561
▁굳이	-9.47639
▁보고싶다	-9.47641
그러	-9.47738
기가	-9.47739
▁아름답고	-9.47744
▁끝나고	-9.47759
▁악역	-9.47771
▁민	-9.47811
▁사극	-9.47825
굿	-9.47953
가족	-9.48004
▁그들의	-9.48004
났	-9.48026
▁좋을	-9.48055
▁평생	-9.48114
▁괴물	-9.48193
▁성공	-9.48226
내요	-9.48282
▁가진	-9.48323
▁우정	-9.48368
급영화	-9.48391
▁군대	-9.48414
▁예쁜	-9.48487
▁이유가	-9.48579
시간이	-9.48675
야지	-9.4872
▁청춘	-9.48735
하긴	-9.48764
▁감동적이	-9.48802
▁으	-9.48809
렌	-9.48818
품	-9.49018
▁뻔	-9.49057
▁안되고	-9.49124
▁표절	-9.4913
▁홍콩	-9.49138
▁감동적이고	-9.49142
▁했던	-9.4917
▁시대	-9.49171
▁고전	-9.49245
▁보는게	-9.49318
아닌	-9.49324
▁빠져	-9.49364
▁등장	-9.49372
▁어릴적	-9.4946
▁과연	-9.49472
▁난다	-9.49503
▁기대를	-9.49504
합	-9.49523
▁젤	-9.49545
▁용서	-9.49599
웠	-9.4964
윤	-9.49696
▁능력	-9.49722
▁별루	-9.49727
▁살짝	-9.49825
▁cg	-9.49868
▁꼴	-9.49871
▁연기에	-9.49896
▁사는	-9.49931
주고	-9.49991
▁심리	-9.49997
▁희생	-9.50038
▁통해	-9.50042
▁독	-9.50094
준다	-9.50118
▁안되	-9.50294
▁나왔	-9.5031
▁성장	-9.5034
▁보기엔	-9.50345
▁종	-9.5037
▁수준이	-9.50648
던지	-9.5065
연출	-9.50733
해주는	-9.50776
빨	-9.50795
▁슬프다	-9.50823
▁처음엔	-9.5083
▁몰입이	-9.50939
일뿐	-9.50948
징	-9.50953
▁일상	-9.50956
▁한편	-9.50998
▁재밌었는데	-9.51112
▁말로	-9.51116
▁게이	-9.51228
▁진실	-9.51243
▁스토리를	-9.51252
▁남는다	-9.51289
함이	-9.51328
곡	-9.51359
▁짓	-9.51363
▁긴	-9.51395
c	-9.51431
▁페	-9.51451
▁몰입감	-9.51481
▁현	-9.51498
실망	-9.515
▁나서	-9.51542
▁게임	-9.51559
▁안하고	-9.51614
▁안됨	-9.51624
마저	-9.5163
앗	-9.51689
▁추천합니다	-9.517
▁70	-9.51747
▁연기와	-9.5177
ᄂ	-9.51851
▁공감이	-9.52002
▁작품성	-9.5202
▁잘만든	-9.52034
▁예고편	-9.52075
▁잼있게	-9.52101
록	-9.52123
▁접	-9.52176
▁싫어	-9.5223
▁싫다	-9.52286
네여	-9.52502
쪽	-9.5253
가지	-9.52544
재미없다	-9.5281
▁열심히	-9.52835
▁뮤지컬	-9.52871
맛	-9.52924
▁s	-9.52999
▁금	-9.53083
킹	-9.53105
▁40	-9.53194
▁더이상	-9.53274
▁생각합니다	-9.53323
써	-9.53345
▁여러	-9.53399
▁만들어진	-9.53469
▁알바들	-9.53574
▁짜증나는	-9.53656
탈	-9.53657
▁현실을	-9.53693
▁느끼는	-9.53741
주세요	-9.53745
▁아닌듯	-9.53748
▁복	-9.53761
▁나왔으면	-9.53789
유치	-9.53827
▁부분	-9.53851
▁티비에서	-9.53886
▁담	-9.53898
청	-9.5393
▁이건뭐	-9.53946
하면서도	-9.53976
▁현대	-9.54062
들아	-9.54076
익	-9.54096
g	-9.54111
▁완성도	-9.54165
▁있지	-9.54198
▁짜증나	-9.54316
▁주인공의	-9.54363
▁밑에	-9.54369
▁12	-9.54374
▁긴장	-9.54398
딸	-9.5444
▁다만	-9.54494
▁작	-9.54617
▁동화	-9.54661
▁미래	-9.54684
라이	-9.54691
▁꼬	-9.54713
시키는	-9.54763
찌	-9.54771
▁영화이다	-9.55012
씨가	-9.55089
▁자막	-9.55111
▁봤다가	-9.55111
▁삶	-9.55128
▁제목이	-9.55196
성을	-9.55249
▁소름	-9.55275
▁되었다	-9.55339
▁아까워	-9.55431
손	-9.55452
▁같아	-9.55472
▁사이	-9.55477
▁답	-9.55478
런	-9.55488
▁같음	-9.55518
엉	-9.55575
힌	-9.55608
잉	-9.55638
▁무지	-9.55686
▁바라	-9.55734
▁나가	-9.55754
있어	-9.55802
▁집	-9.55906
찍	-9.55992
▁딴	-9.56014
▁개판	-9.56022
같	-9.56072
▁이정도면	-9.5608
▁사랑에	-9.56083
▁몸매	-9.56107
둘	-9.5612
보세요	-9.56163
▁봤으면	-9.56299
▁분들	-9.56315
하세요	-9.56333
▁끌	-9.56342
▁아버지	-9.56359
▁벌	-9.56366
▁재미를	-9.56383
▁이어	-9.56391
▁전달	-9.56419
▁진심으로	-9.56444
추천	-9.56466
▁북한	-9.56467
오빠	-9.56575
코미디	-9.56767
취	-9.56772
▁골	-9.56792
▁보시길	-9.57012
▁라고	-9.57088
한듯	-9.5711
▁많다	-9.57113
▁어제	-9.57131
▁덜	-9.57137
▁재미있음	-9.57164
▁만큼	-9.57224
▁드라마는	-9.57236
거같다	-9.57265
▁받	-9.57376
시대	-9.57456
본다	-9.57642
▁영화보고	-9.57676
▁생각나는	-9.57727
▁그림	-9.57786
▁크게	-9.57858
▁A	-9.57931
는것	-9.57977
놈들	-9.57993
쿠	-9.58019
▁투	-9.58077
▁만든다	-9.58105
에겐	-9.58111
▁상상력	-9.58153
없네	-9.58182
▁아오	-9.582
▁인상	-9.5825
▁감동과	-9.58308
▁교훈	-9.58406
▁영화지만	-9.58411
현실	-9.58441
▁높	-9.58481
▁티비	-9.5857
▁팔	-9.58603
▁친	-9.58622
▁이유는	-9.58638
▁별로다	-9.58698
▁재밌습니다	-9.5871
▁행동	-9.5872
숙	-9.58732
고싶다	-9.58759
소재	-9.58775
송	-9.58778
겠	-9.58784
충	-9.58789
꼭	-9.58811
염	-9.58813
▁우리가	-9.58898
스런	-9.59034
▁맨	-9.59042
팬	-9.59051
만으로	-9.59117
▁계	-9.59137
▁아깝지	-9.59169
▁섹스	-9.59242
보이	-9.59252
▁힐링	-9.59253
▁남을	-9.59322
▁그걸	-9.59323
재밋	-9.59345
▁나에게	-9.59362
▁되게	-9.59378
▁권	-9.59389
▁중간중간	-9.594
량	-9.59493
▁디즈니	-9.59588
▁세상	-9.59591
▁읽	-9.59608
아님	-9.59622
▁볼수록	-9.59637
반전	-9.59651
ᄍᄍ	-9.59691
결말	-9.59726
▁그럭저럭	-9.5975
▁성인	-9.59821
▁다큐멘터리	-9.59827
▁극장	-9.59884
▁폭력	-9.59993
▁어찌	-9.59999
▁지루해서	-9.60052
▁되지	-9.60057
▁쉽게	-9.60068
▁얼	-9.60071
▁따	-9.60072
하자	-9.60087
▁최근	-9.60098
ᄉ	-9.60184
▁흥미진진	-9.60192
드라	-9.60198
더라구요	-9.60203
▁가볍게	-9.60259
▁언제나	-9.60293
▁굳	-9.60294
다운	-9.6037
▁단순	-9.60399
▁됐	-9.60519
▁삶의	-9.60547
▁재미없네	-9.60549
진심	-9.60559
땐	-9.6061
▁캐	-9.60643
▁쓰래기	-9.60655
감독이	-9.60715
▁어쩔	-9.60736
▁없지만	-9.60764
점주는	-9.6082
▁좋았던	-9.60831
겠네	-9.60876
T	-9.6088
한영화	-9.6088
▁후반부	-9.60917
답	-9.60941
▁식	-9.61
▁배우의	-9.61003
▁비주얼	-9.61099
존	-9.61126
▁제작진	-9.61188
▁종교	-9.61202
▁춤	-9.61241
▁소재가	-9.61258
▁엉성한	-9.61381
▁범인	-9.61487
속에서	-9.61504
밀	-9.61541
▁유치함	-9.61582
▁스케일	-9.61585
▁봐야할	-9.61601
▁잼있	-9.61638
▁그다지	-9.61669
▁신선	-9.61703
▁추억의	-9.6177
▁높다	-9.61797
로써	-9.61809
에요	-9.61901
▁스타	-9.61922
▁맥	-9.61937
▁해야	-9.61964
▁아쉬움	-9.62021
▁만나	-9.62061
▁그럼	-9.6217
낼	-9.62252
▁가끔	-9.62341
▁보고싶은	-9.62414
▁떠	-9.62494
었으면	-9.62508
프로	-9.62633
▁몰라도	-9.62655
▁크	-9.6266
m	-9.62709
▁ᄃᄃ	-9.62755
였지만	-9.62764
▁깊이	-9.62891
ᅡ	-9.6299
걸로	-9.62996
많은	-9.63034
▁헐리우드	-9.63099
▁싸구려	-9.63158
▁광고	-9.63214
▁현실성	-9.63274
▁잔인한	-9.63304
나고	-9.63321
할듯	-9.63348
▁못했다	-9.63356
니깐	-9.63481
▁소재로	-9.63578
영화중	-9.63584
봤음	-9.63666
▁에로	-9.63715
다른	-9.63725
가지고	-9.63757
동안	-9.63831
▁재미있네요	-9.63894
▁하면서	-9.63934
왔	-9.6405
▁있나	-9.6406
지마라	-9.64065
▁반전도	-9.64131
▁사람의	-9.64136
면서도	-9.642
▁회	-9.64206
립	-9.64207
▁싶어	-9.64232
특히	-9.64272
득	-9.64293
▁좋아서	-9.643
▁끝나는	-9.64329
▁표	-9.64391
깨	-9.64403
▁필요없는	-9.64412
▁짱짱	-9.64491
는걸	-9.64518
시절	-9.64533
▁문화	-9.64577
▁운	-9.64614
▁신기	-9.6476
▁필요없다	-9.64805
▁벗	-9.64869
▁소녀	-9.6489
▁가서	-9.64936
▁자연	-9.64983
싸	-9.64997
었습니다	-9.65062
잔	-9.65104
▁보여	-9.65111
▁홍보	-9.65114
죄	-9.6517
▁놀	-9.65177
▁점수를	-9.65248
좋고	-9.65294
것을	-9.65522
▁다시한번	-9.65562
▁자유	-9.65621
재밌다	-9.65653
만화	-9.65734
봣는데	-9.65753
▁생각해	-9.65819
봤던	-9.65893
▁슬프고	-9.65963
▁올해	-9.66013
▁거지	-9.66149
최고의	-9.66227
▁아마	-9.66239
버렸다	-9.66243
변	-9.66256
▁이제야	-9.66261
▁대단	-9.66278
▁연출도	-9.66286
▁찾	-9.66319
▁글쎄	-9.66366
▁느끼	-9.66403
시는	-9.66446
▁잊혀지지	-9.6646
▁재밌네	-9.66469
▁멀	-9.66521
▁윤	-9.66529
음악	-9.66566
▁그린	-9.666
▁과	-9.66683
▁음악도	-9.66708
▁만들고	-9.67031
▁멋있	-9.67122
▁압권	-9.67122
▁않게	-9.67153
▁중간	-9.67219
▁불구하고	-9.67231
▁방금	-9.67262
▁리뷰	-9.67262
▁마세요	-9.67281
엄마	-9.67394
▁사랑과	-9.67395
▁어려운	-9.67427
▁탈	-9.67516
몰	-9.67585
▁조연	-9.6761
▁있게	-9.6766
내용이	-9.6767
▁발전	-9.67689
▁재밋게	-9.67731
와서	-9.67846
▁인생을	-9.67854
▁둘다	-9.67904
▁뛰어난	-9.67977
▁슬픔	-9.68007
▁돌아	-9.68041
▁사랑스러운	-9.68046
노잼	-9.68062
쇼	-9.6807
▁딱히	-9.68162
놓은	-9.68197
▁산으로	-9.68245
애들	-9.68371
p	-9.68384
번째	-9.68408
롭	-9.68436
재밌게	-9.68441
▁웃기고	-9.68476
▁끌어	-9.68485
얼	-9.68583
▁어머니	-9.68702
▁캐릭터들	-9.68719
▁쫌	-9.68736
▁포장	-9.68759
전에	-9.68801
팔	-9.68864
점준	-9.68866
하는지	-9.6894
▁볼만함	-9.68945
하려고	-9.68991
▁죽는	-9.69153
▁달라	-9.6921
▁어이가	-9.69265
▁건지	-9.69284
짝	-9.69298
▁없나	-9.69353
▁빈	-9.69379
▁다르	-9.69384
▁티	-9.69394
▁반성	-9.69398
▁낮아서	-9.69418
꼬	-9.69437
▁생애	-9.69467
▁정말로	-9.69507
▁기본	-9.6973
부분	-9.69765
▁평이	-9.69765
▁좋습니다	-9.69844
▁묘사	-9.69873
▁어른	-9.70018
▁의도	-9.70067
▁여기서	-9.70074
▁느와르	-9.70079
or	-9.70117
▁하네요	-9.7015
견	-9.70327
에서는	-9.70374
▁중요한	-9.70409
▁죄다	-9.70486
페	-9.70507
▁유치하다	-9.70564
황	-9.70599
▁재밌었음	-9.70644
▁결말은	-9.70648
려서	-9.70736
▁시간을	-9.70777
▁채	-9.70811
▁봣는데	-9.70873
봉	-9.70911
▁이쁜	-9.70995
▁단연	-9.71
▁젊은	-9.71018
▁틀	-9.71027
▁많아	-9.71043
▁말을	-9.71048
▁씬	-9.71165
▁저예산	-9.71171
▁결말도	-9.71216
▁빌려	-9.71346
▁50	-9.71375
있음	-9.71472
▁유머	-9.71514
▁사기	-9.71565
▁나오지	-9.71733
▁리얼	-9.71786
▁좀더	-9.71803
더만	-9.71805
▁시걸	-9.71895
럽	-9.71899
에대한	-9.71905
아서	-9.71909
▁눈물을	-9.71958
▁싸	-9.71978
것은	-9.72029
▁밥	-9.72032
▁멋지다	-9.72042
▁포기	-9.72176
무비	-9.72257
▁빼	-9.72359
▁인간이	-9.72381
것만	-9.72391
▁표현한	-9.72416
▁스스로	-9.72418
▁멍청한	-9.7245
▁남겨	-9.72461
▁몰입해서	-9.72552
같음	-9.72592
▁하루	-9.72649
갑	-9.72673
랄	-9.72721
만든	-9.72738
▁넣	-9.72799
▁뻔하고	-9.72817
▁볼만하다	-9.72836
▁보이	-9.72847
갔	-9.72874
▁힘들다	-9.7292
▁현실적인	-9.72942
▁끝이	-9.72961
에서도	-9.73005
▁동생	-9.73015
애니	-9.73067
▁대화	-9.73138
틴	-9.73149
▁제작비	-9.73189
er	-9.7322
▁연속	-9.73249
버리는	-9.73336
▁견자단	-9.7341
ᄀ	-9.73416
인가요	-9.73443
C	-9.73492
▁그렇다	-9.73516
▁지금은	-9.73555
▁단순한	-9.73559
ᄒᄒᄒ	-9.73619
▁집에서	-9.73675
▁탄탄한	-9.7368
년전에	-9.7373
▁있습니다	-9.73738
▁헤	-9.7376
▁고생	-9.73797
▁이연걸	-9.73814
껏	-9.73827
을텐데	-9.73944
▁헐리웃	-9.7395
▁먼	-9.73958
▁안돼	-9.74009
▁주제	-9.7402
나와	-9.74048
모르	-9.74118
▁보았다	-9.74163
인간	-9.74209
휴	-9.74269
강추	-9.74294
▁남자가	-9.743
A	-9.74318
▁몇번을	-9.74366
킬	-9.74418
▁나옴	-9.74424
얘기	-9.74449
스타	-9.74485
▁말하는	-9.74496
▁옛날에	-9.74579
▁모든게	-9.74589
▁초반에	-9.74619
▁청	-9.74641
겁	-9.74652
▁인기	-9.74667
▁뜨	-9.74677
▁이후로	-9.747
▁흔한	-9.74736
인이	-9.74783
▁훌륭	-9.74816
▁외모	-9.74835
▁폭	-9.74901
▁떠나서	-9.74956
▁의심	-9.7496
▁찍어	-9.74984
▁I	-9.74988
편보다	-9.75028
▁무엇을	-9.75029
▁벌써	-9.75034
캐릭터	-9.75113
▁시대를	-9.75129
▁웃겨	-9.75144
먹고	-9.75168
▁되고	-9.75171
▁되었	-9.7526
▁보니까	-9.7531
하시	-9.75316
령	-9.75317
▁지루할	-9.75407
▁베스트	-9.75448
▁미드	-9.75528
▁않아	-9.75591
▁영국	-9.75599
▁분노	-9.75632
▁남아	-9.75637
▁했	-9.75638
▁생각없이	-9.7574
▁무섭다	-9.75778
▁못한다	-9.75786
했네	-9.75788
▁취	-9.75901
답답	-9.75908
▁느낌을	-9.75921
▁가지	-9.75927
▁시도	-9.75927
▁단지	-9.75998
▁느낄수	-9.76002
▁주변	-9.76045
▁누구나	-9.7608
▁드럽게	-9.76161
▁영어	-9.76162
ᄏᄏᄏᄏᄏ	-9.76197
▁재밌을	-9.76233
로서	-9.76243
▁이것	-9.76244
혁	-9.76265
▁재미있었다	-9.76285
으면서	-9.76318
▁위대한	-9.76357
십	-9.76409
했네요	-9.76448
▁높아	-9.76553
혹	-9.76604
▁국	-9.76635
지를	-9.76635
접	-9.76645
▁배우들도	-9.76726
사회	-9.76753
▁작가가	-9.76788
▁이런영화가	-9.76809
▁장면에서	-9.76831
▁같아서	-9.76853
엿	-9.7708
▁레전드	-9.77088
▁즐겁게	-9.77089
▁명품	-9.77102
▁잔잔하고	-9.77163
관계	-9.77262
었지만	-9.77282
▁조폭	-9.77322
▁궁금	-9.77372
▁않지만	-9.7741
돼	-9.77512
▁재밋다	-9.77515
링	-9.77524
▁눈에	-9.77563
닥	-9.77583
▁시각	-9.77593
▁하는지	-9.77646
하라	-9.77669
한다는	-9.77679
▁자신	-9.77743
▁안보고	-9.77759
시고	-9.77794
▁올리	-9.77844
▁판	-9.7787
▁갈등	-9.77925
하지도	-9.77973
▁영화냐	-9.77995
영화라고	-9.77999
▁표정	-9.78074
▁있어요	-9.78077
▁한심	-9.78111
▁황당	-9.78142
▁김기덕	-9.78175
▁싶네요	-9.7826
▁발로	-9.78308
표현	-9.78361
▁그렇다고	-9.78368
▁맨날	-9.78416
하구	-9.78433
거라	-9.78438
▁않나	-9.7845
▁한데	-9.78478
빵	-9.78486
머리	-9.78561
봐요	-9.78579
▁이해할	-9.7861
겁니다	-9.78782
▁그랬	-9.78811
▁잊지	-9.78821
했는지	-9.78887
▁유쾌하고	-9.78888
▁c	-9.78957
만들어	-9.79019
말고	-9.7904
▁부터	-9.79103
▁공부	-9.79134
▁한참	-9.79139
S	-9.79167
지않는	-9.79184
▁환상	-9.79189
일이	-9.79263
▁씨	-9.79286
▁이거보고	-9.79394
▁줌	-9.79416
▁생각하고	-9.79455
▁우주	-9.79478
값	-9.79497
▁보길	-9.79509
ing	-9.79511
▁아이돌	-9.79543
▁임	-9.79553
곤	-9.79569
▁유쾌	-9.79583
사는	-9.79624
▁몰	-9.79642
▁명작이	-9.7971
▁뜻	-9.79806
응	-9.79914
총	-9.79991
첨	-9.80003
뜻	-9.80009
갔다	-9.8003
▁연예인	-9.80114
세기	-9.80126
였어요	-9.80187
하려는	-9.80231
인것	-9.80238
▁정서	-9.80287
▁호러	-9.80313
▁유명한	-9.80313
지않고	-9.80387
내용도	-9.80389
▁철	-9.80446
시간에	-9.80468
▁안타깝다	-9.80482
▁영화에요	-9.80608
▁13	-9.80619
▁시트콤	-9.80714
▁쵝오	-9.80714
▁대사가	-9.80718
안에	-9.80749
보자	-9.80783
▁속에	-9.80789
암	-9.80824
▁희망	-9.80827
한건	-9.80836
▁보고나면	-9.80911
▁알았	-9.80965
봣	-9.80989
언니	-9.81035
던가	-9.81101
▁우와	-9.81105
나게	-9.81125
▁동물	-9.81185
▁빠	-9.81196
▁코난	-9.81231
▁넘어	-9.81254
▁보인다	-9.81261
▁있네요	-9.81272
▁멋있다	-9.81318
와는	-9.81346
▁빼고	-9.81366
▁덕분에	-9.81399
▁에휴	-9.81403
▁이쁘고	-9.81428
▁못해	-9.81436
▁모르겠고	-9.81475
대는	-9.8161
그래	-9.81614
시킨	-9.81653
▁받았	-9.81656
사이	-9.81656
앙	-9.81695
▁ᅲᅲᅲ	-9.81703
▁악당	-9.81726
땅	-9.81752
▁로봇	-9.81853
리스	-9.81912
협	-9.8194
▁한계	-9.82024
평점이	-9.82047
내고	-9.8207
새끼	-9.82086
▁허세	-9.82151
지않은	-9.82166
필	-9.82183
▁있으면	-9.82186
▁007	-9.8219
▁에피소드	-9.82237
▁갑	-9.82258
▁필요한	-9.82306
▁미모	-9.82382
좋아요	-9.82382
▁여행	-9.82399
따라	-9.8241
▁울었다	-9.82424
편을	-9.82483
▁good	-9.82517
친구	-9.82523
w	-9.82583
▁와우	-9.82615
눈물	-9.82627
노래	-9.82724
v	-9.82751
▁착한	-9.82759
롱	-9.82769
떄	-9.82826
▁뭉클	-9.82828
▁부모	-9.8286
ᄃᄃ	-9.8289
되서	-9.82915
▁암튼	-9.82971
는건지	-9.83043
▁음악과	-9.83046
▁즐거운	-9.83055
했어	-9.83069
한게	-9.83218
이었음	-9.83236
▁인생의	-9.8325
▁진리	-9.83272
만드는	-9.83284
▁힘이	-9.83372
▁몰랐	-9.83409
▁괴	-9.8342
▁대부분	-9.83442
▁여자들	-9.83466
부작	-9.83468
▁뒷	-9.83492
▁D	-9.83512
보는내내	-9.83533
나올	-9.83622
▁광	-9.83624
힐	-9.83665
▁의외로	-9.83685
하신	-9.83694
▁풀	-9.83704
▁개연성이	-9.83819
▁못할	-9.8383
▁죽여	-9.83833
엄	-9.83864
기억	-9.83935
▁웃음이	-9.8394
▁영화였어요	-9.83989
인생	-9.84107
▁제로	-9.84118
▁엉성	-9.84247
▁작품을	-9.84312
▁연결	-9.8432
스릴러	-9.84356
▁노답	-9.84365
▁다행	-9.84371
▁긴장감도	-9.84417
주인공	-9.8448
▁관객들	-9.84526
j	-9.84529
상을	-9.8455
▁이미지	-9.84576
ᄃ	-9.84631
▁아쉽네요	-9.84657
▁이쁘다	-9.84669
▁쩐다	-9.84684
▁지루했다	-9.84722
▁전체	-9.84769
▁자살	-9.84774
▁왜케	-9.84786
이였다	-9.84806
정신	-9.84862
▁황	-9.84913
▁비극	-9.84957
▁경험	-9.8496
▁학교	-9.84989
▁죽은	-9.85019
▁없는데	-9.85042
▁생각하는	-9.85059
▁찡	-9.85073
▁짝퉁	-9.85081
▁돌아가	-9.85092
▁시사회	-9.85103
골	-9.85107
▁주인공들	-9.85112
▁남녀	-9.85127
있는데	-9.85209
져서	-9.8521
▁울고	-9.85226
엘	-9.85228
있네	-9.85342
▁재미없어요	-9.85361
▁봤더니	-9.85391
▁the	-9.85391
▁더불어	-9.85393
▁달리	-9.85401
▁무비	-9.85431
▁수도	-9.85465
째	-9.85571
▁학교에서	-9.85588
▁슬프	-9.85616
▁동안	-9.85623
하다가	-9.85639
▁칼	-9.85668
안되	-9.85713
시키	-9.85757
▁신선하고	-9.85789
▁좋게	-9.85795
▁재미있었어요	-9.85832
▁미안	-9.85891
▁아깝	-9.85972
킨	-9.86005
▁작은	-9.86147
▁없었	-9.86163
있나	-9.8619
▁퀄리티	-9.86219
▁출연진	-9.8631
▁T	-9.86325
▁모르겠지만	-9.86353
으론	-9.86395
▁나오면	-9.86525
▁어린이	-9.86532
▁꺼	-9.86571
▁멋	-9.86597
려면	-9.86602
▁S	-9.86615
▁무섭	-9.86663
▁작품이다	-9.8671
▁좋지만	-9.86715
▁조합	-9.86741
영상	-9.86752
연기가	-9.86754
연기도	-9.86761
끄	-9.86767
영화임	-9.86773
▁풀어	-9.86785
식으로	-9.86827
▁ᄋ	-9.86901
북	-9.86916
욱	-9.86949
▁손발이	-9.86957
감이	-9.86987
잠	-9.87003
▁지구	-9.8704
▁한국인	-9.87052
▁의리	-9.87059
탁	-9.87063
들고	-9.87126
▁흥미로운	-9.87138
▁마이클	-9.87141
▁빼고는	-9.87148
........	-9.87306
▁양심	-9.87307
만큼은	-9.87318
▁카리스마	-9.87326
▁극치	-9.87338
시작	-9.87348
엇다	-9.87356
멋	-9.87364
▁뭐라	-9.87388
▁까지	-9.87389
▁아이가	-9.87436
씨의	-9.87437
였고	-9.87468
줘야	-9.87474
▁나왔다	-9.8748
막장	-9.875
▁적당	-9.87558
▁유명	-9.87587
았던	-9.87609
▁없었던	-9.8768
설정	-9.87682
느라	-9.87758
필요	-9.8777
▁삶에	-9.87794
▁말할	-9.87841
랜	-9.87864
▁사랑의	-9.8787
사람은	-9.87893
껄	-9.87898
르는	-9.87917
▁풍	-9.87975
▁가치	-9.88003
▁더러운	-9.88023
▁주성치	-9.88023
▁직접	-9.88026
님의	-9.88036
▁최고입니다	-9.88045
▁어휴	-9.88065
▁니	-9.88066
▁좋았지만	-9.88139
함과	-9.88139
▁킬링타임	-9.88239
▁청소년	-9.88288
▁게다가	-9.88314
▁채널	-9.88345
▁도전	-9.88352
▁엉망	-9.88418
▁피해자	-9.88446
▁오바	-9.8845
20	-9.88501
▁아나	-9.88526
쳤	-9.886
▁좋았	-9.88602
▁국민	-9.88605
▁사랑은	-9.8862
흐	-9.88633
끝나	-9.88655
▁있던	-9.88688
▁굿굿	-9.88706
▁믿	-9.88751
▁완전히	-9.88763
클	-9.88796
놀	-9.8882
▁받아	-9.88959
▁평범	-9.88969
▁일품	-9.88975
▁진정	-9.89005
원작	-9.8905
났다	-9.89089
▁박수를	-9.89166
▁부족하다	-9.89189
▁18	-9.89194
기엔	-9.89286
▁자극	-9.89292
▁지루하게	-9.89324
▁싸이코	-9.89344
사가	-9.89347
중의	-9.89357
▁푹	-9.89386
▁말하고	-9.89389
▁감정을	-9.89391
▁철학	-9.89407
모습	-9.89414
▁홍	-9.89429
▁실제로	-9.89527
▁원작이	-9.89554
▁펑펑	-9.89563
▁영화인듯	-9.89573
▁밤	-9.89582
▁귀엽	-9.89711
흔	-9.89711
밥	-9.898
▁원작의	-9.8981
▁용기	-9.89815
▁좋았으나	-9.89825
▁역대급	-9.89903
쓴	-9.89909
▁크리스마스	-9.89984
▁중에서	-9.90017
▁따뜻해지는	-9.90051
계속	-9.90083
만의	-9.90111
▁포르노	-9.9014
▁시선	-9.90155
간의	-9.90214
▁아름다움	-9.90256
▁해석	-9.90316
▁좋겠어요	-9.90369
▁각	-9.90377
▁상처	-9.90396
▁고양이	-9.90401
▁느낀	-9.90407
대사	-9.90443
하다니	-9.90458
▁착	-9.90484
▁들어가	-9.90508
▁밀	-9.9064
끈	-9.90691
차라리	-9.90702
▁의미를	-9.90714
▁다룬	-9.90762
▁본다면	-9.90822
재밌음	-9.9085
기분	-9.90899
▁끝난	-9.9096
▁나쁘지	-9.91
▁케이블	-9.91023
▁패러디	-9.91025
▁비판	-9.91065
▁웃기지도	-9.91135
▁잔	-9.91194
▁넘치는	-9.9122
▁간다	-9.91246
나와서	-9.9125
할까	-9.9128
▁웃김	-9.91316
문제	-9.9143
▁투자	-9.91451
▁메시지	-9.91456
▁앞으로도	-9.91468
이니	-9.91489
▁연기력도	-9.91511
▁행복한	-9.91524
▁불쌍	-9.91526
▁평점보고	-9.91543
▁로그인	-9.91553
받고	-9.91555
▁한명	-9.91555
▁클	-9.91598
▁질리지	-9.91609
E	-9.91641
▁지나치게	-9.91643
▁쓸	-9.91657
개봉	-9.91666
했다는	-9.91686
▁무협	-9.91811
▁이해하기	-9.91824
▁기대했는데	-9.91834
▁그럴	-9.91835
오는	-9.91895
▁괜찮다	-9.91937
▁에이	-9.91973
▁처럼	-9.9198
버리고	-9.91985
풀	-9.92011
▁내려	-9.92015
이라서	-9.92032
▁군	-9.9205
▁답답한	-9.92064
▁먹고	-9.92071
최	-9.92092
텐데	-9.92128
▁남자의	-9.92135
▁할까	-9.92198
▁볼게	-9.92242
▁어렸을	-9.92289
▁안보	-9.92291
보게	-9.92303
▁근	-9.92321
재밌어요	-9.92323
▁이유를	-9.92346
족	-9.9238
▁없지	-9.92388
▁좋았을	-9.92481
영화로	-9.92502
▁느껴진다	-9.92579
확	-9.92637
알바	-9.92695
▁송	-9.92703
한다면	-9.9272
▁폴	-9.92767
▁뿐이다	-9.92778
▁꾸	-9.92827
▁똑같은	-9.92994
an	-9.93002
▁꿈을	-9.93056
장면이	-9.9309
▁전작	-9.93093
▁하는거	-9.93191
x	-9.93272
형님	-9.93291
▁전편	-9.933
▁개봉한	-9.93323
▁보내	-9.93335
▁멍청	-9.93423
자는	-9.93498
▁잠깐	-9.93508
쥐	-9.93519
▁몇몇	-9.93521
상황	-9.93606
씬은	-9.93606
▁왠	-9.93612
▁좋아할	-9.93688
▁모르게	-9.93743
▁훈훈한	-9.93746
끔	-9.93754
▁관심	-9.9376
▁역할	-9.93771
▁반개도	-9.93786
▁보며	-9.93788
한것	-9.93793
했나	-9.93823
▁좋아해서	-9.93823
▁진부하고	-9.93834
▁주기	-9.93965
▁보여준다	-9.94025
착	-9.94036
▁후반	-9.9408
▁잊을	-9.94099
on	-9.94194
▁붙	-9.94211
▁재밌다고	-9.94269
줘	-9.94287
재미있	-9.94288
옥	-9.94365
홍	-9.94379
▁않을까	-9.94395
▁봤을때	-9.94487
인의	-9.94556
시즌	-9.94564
▁많고	-9.94564
▁사랑이야기	-9.94583
줬다	-9.9465
치곤	-9.94659
혼	-9.94721
들만	-9.94732
▁그거	-9.94746
▁지켜	-9.9475
▁한마디	-9.94805
▁십	-9.94821
▁가슴에	-9.94886
▁히	-9.94921
▁라	-9.94941
▁무섭지도	-9.94979
예요	-9.94996
있어서	-9.95023
▁탑	-9.9505
▁뒤로	-9.95054
▁싶은데	-9.95069
▁11	-9.95071
우리	-9.951
하시는	-9.951
온다	-9.95164
내는	-9.95181
▁낚	-9.95189
▁관한	-9.95196
력이	-9.95224
힘	-9.95256
▁홍콩영화	-9.95347
▁가능	-9.95371
영화의	-9.95375
낮	-9.95377
▁ᄋᄋ	-9.95391
▁기대안하고	-9.95435
기위해	-9.9545
▁빠진	-9.95475
그리	-9.95488
▁시청	-9.95579
▁악마	-9.956
줌	-9.95604
수도	-9.95619
만이	-9.95627
끝까지	-9.95686
▁스트레스	-9.95823
버림	-9.95831
▁따로	-9.95892
긴한데	-9.95901
▁그녀의	-9.95914
▁보았	-9.95946
▁레알	-9.95991
▁가득	-9.96017
▁허무	-9.96033
!!!!!	-9.96036
▁싶지	-9.96041
잼있	-9.96061
랬	-9.96074
▁긴장감이	-9.96097
이런영화	-9.96142
▁들었다	-9.9627
까지는	-9.96309
폭	-9.96394
▁욕망	-9.96423
▁실패	-9.96479
▁받을	-9.96516
▁괜찮	-9.96525
았음	-9.96526
▁대해서	-9.96546
졸	-9.96598
딩	-9.966
▁됨	-9.96605
▁실력	-9.96697
▁어이없	-9.96723
▁아줌마	-9.96736
▁막판에	-9.96753
▁커플	-9.96791
▁작가님	-9.96806
탓	-9.96868
.......	-9.96879
▁정의	-9.96912
자체가	-9.96921
▁설레	-9.97061
▁좋아하는데	-9.97061
▁설마	-9.9707
▁쓰레기다	-9.97075
뒤	-9.971
▁생각하면	-9.9723
▁우울	-9.97323
닝	-9.9733
넹	-9.97331
▁이제서야	-9.9735
▁개뿔	-9.97352
▁보려고	-9.97358
개도	-9.97369
▁반복	-9.97369
▁모르	-9.97371
▁차이	-9.97381
▁잼있다	-9.97386
▁감히	-9.97433
.........	-9.97484
▁사람들의	-9.97641
지가	-9.97658
버리	-9.9769
짜증나	-9.97701
▁왠만하면	-9.97764
▁점수가	-9.97804
▁화가	-9.97838
▁보지마	-9.97841
▁할머니	-9.97906
▁졸리	-9.97912
▁풍경	-9.9794
▁팬이	-9.97952
▁개막장	-9.97974
▁혼	-9.98004
▁낚시	-9.98016
▁d	-9.98019
▁속에서	-9.98027
람	-9.98034
▁기자	-9.98053
▁싫	-9.98083
픈	-9.98096
먹는	-9.9814
▁하나의	-9.98191
▁퍼	-9.98197
▁빨	-9.98205
▁감동적	-9.98254
▁꽝	-9.98266
릭	-9.9828
▁논	-9.9828
▁소중한	-9.98314
▁볼거리	-9.98334
▁존경	-9.98348
▁국내	-9.98358
시다	-9.98409
▁우리의	-9.98419
줘서	-9.98437
▁야동	-9.98456
받은	-9.98487
편의	-9.98489
▁DVD	-9.98523
▁한국영화는	-9.98524
점수	-9.98529
공포	-9.98656
▁재미와	-9.9871
▁죽이는	-9.98763
▁변태	-9.98775
▁웃고	-9.98798
▁본방사수	-9.98803
▁젠장	-9.98805
▁슈퍼	-9.98824
▁자주	-9.98826
▁보긴	-9.98892
▁a	-9.9894
▁선생님	-9.98953
▁그렇지	-9.98967
점줌	-9.98971
▁영화관	-9.9898
▁순수	-9.99024
▁추억이	-9.99033
▁술	-9.99086
ᅲᅲᅲᅲ	-9.99148
▁남편	-9.99222
▁취향	-9.99233
됬	-9.99243
빡	-9.99272
웠다	-9.9931
▁겨우	-9.99311
▁전개도	-9.99312
▁우리는	-9.9936
▁교	-9.99418
▁못함	-9.99492
▁웃기다	-9.99497
▁있었지만	-9.99578
▁흑인	-9.99586
해진	-9.99589
▁느	-9.99604
편도	-9.99627
해진다	-9.99698
▁맹	-9.99751
▁놀라	-9.99767
▁한심한	-9.99781
▁장르가	-9.99785
▁죽어	-9.99831
▁둘이	-9.99924
지말고	-9.99925
▁웬	-9.99991
▁불편	-10.0003
▁괜찮은데	-10.0008
감을	-10.0014
▁생각함	-10.0022
▁인해	-10.0025
▁살고	-10.003
납니다	-10.0031
▁말도안되는	-10.0032
▁거짓말	-10.0035
자의	-10.0036
▁끄	-10.004
랜드	-10.0042
▁망한	-10.0042
봅니다	-10.005
얼굴	-10.0054
꼴	-10.0056
▁오버	-10.0056
더빙	-10.0058
▁심하게	-10.0061
▁터	-10.0066
▁보여주고	-10.0069
▁감동적이다	-10.0073
일본	-10.0079
▁참으로	-10.0082
▁누	-10.0091
▁발견	-10.0093
인건	-10.0102
▁없어요	-10.0109
▁없다는	-10.0112
율	-10.0123
▁자신이	-10.0126
봤어요	-10.013
▁나은	-10.013
▁어린시절	-10.0133
▁왜이래	-10.0141
▁시리즈중	-10.0142
▁독특	-10.0143
▁있구나	-10.0143
▁이것이	-10.0146
됐	-10.0147
▁그당시	-10.0148
제목	-10.0153
▁있는지	-10.0154
이해	-10.0158
▁모두가	-10.0159
속의	-10.0161
▁대본	-10.0165
▁할수	-10.0169
였어	-10.0176
▁관객을	-10.0179
▁무술	-10.0182
▁섹시	-10.0183
제발	-10.0184
연기력	-10.0191
▁신경	-10.0198
▁심심	-10.0202
▁영화보면서	-10.0203
▁척	-10.0205
▁재밌었	-10.0206
▁헤어	-10.0212
▁커	-10.0212
▁짜증난다	-10.0214
▁비디오로	-10.0219
한다고	-10.0222
▁쓰는	-10.0225
웅	-10.0227
춘	-10.0229
점이다	-10.023
▁열정	-10.0232
혈	-10.0233
거같은데	-10.0234
▁영화들	-10.0234
▁이하	-10.0234
▁무서워	-10.0236
감독님	-10.0236
▁깨닫게	-10.024
하려	-10.0243
나온다	-10.0245
▁캐릭터가	-10.0247
분은	-10.0247
▁참신한	-10.0248
▁보통	-10.025
것같아요	-10.0259
▁월	-10.0262
재미없	-10.0267
세계	-10.027
▁모험	-10.0275
초반	-10.0276
▁형님	-10.0277
으로서	-10.0278
▁본거	-10.0286
▁야구	-10.0287
▁재미없게	-10.029
새끼들	-10.0292
중에서	-10.0292
▁맞아	-10.0298
년도에	-10.0311
▁합	-10.0313
▁재미잇	-10.0315
▁아픈	-10.0316
▁그건	-10.0316
했지	-10.0317
거리는	-10.0322
▁할말이	-10.0329
▁전쟁영화	-10.033
압	-10.0334
ᄅ	-10.0335
▁형사	-10.0335
▁세상을	-10.0335
▁영원히	-10.0338
▁필름	-10.0339
▁비밀	-10.0342
사람들이	-10.035
헤	-10.0351
있었	-10.0352
▁엄	-10.0354
요즘	-10.0355
▁떨어진다	-10.0361
▁누군가	-10.0363
편에	-10.0364
▁국가	-10.0368
이자	-10.0372
으로써	-10.0373
랄까	-10.0373
임에도	-10.0373
▁살려	-10.0373
ar	-10.0374
▁자식	-10.038
▁소름이	-10.0387
▁않네요	-10.0387
늘	-10.0397
냥	-10.0403
했었는데	-10.0406
▁이래	-10.0406
스가	-10.0413
▁떨어지	-10.0415
▁위해서	-10.0422
▁이때	-10.0428
님이	-10.043
▁창	-10.0431
을수	-10.0436
?!	-10.0436
▁만들면	-10.0438
▁색	-10.044
층	-10.044
리를	-10.0441
▁빵점	-10.0441
▁신고	-10.0445
▁ᄉ	-10.0449
▁아내	-10.0451
공포영화	-10.0456
▁눈빛	-10.0459
▁색감	-10.0461
▁죽는줄	-10.0465
▁쩝	-10.0466
로만	-10.0472
▁낮다	-10.0472
▁보지마라	-10.0473
▁돋	-10.0473
이걸	-10.048
▁감동의	-10.0482
▁영상이	-10.0483
▁아예	-10.0493
▁루	-10.0498
▁정도의	-10.0501
도아니고	-10.0501
▁특별한	-10.0507
높	-10.0508
▁이쁘	-10.0511
누나	-10.0515
▁사진	-10.0516
었네요	-10.0517
▁짠	-10.0519
▁자신을	-10.0522
▁조화	-10.0524
▁봤을	-10.0532
▁하나하나	-10.0532
OOO	-10.0535
▁결	-10.0538
▁못하다	-10.0542
▁쥐	-10.0544
감독의	-10.0549
▁대놓고	-10.0557
옴	-10.0558
▁이래서	-10.0564
▁재난영화	-10.057
▁출	-10.0577
때부터	-10.0579
생활	-10.0583
자들	-10.0585
▁있어야	-10.0588
▁결과	-10.0588
▁바꾸	-10.0595
▁조작	-10.0601
▁안나	-10.0602
▁명작입니다	-10.0603
▁전문가	-10.0605
▁작품은	-10.0608
▁똑같	-10.061
▁중반	-10.0611
▁이런영화를	-10.0612
▁찍었	-10.0614
하기도	-10.0618
▁죽이	-10.062
▁노래도	-10.062
▁싸움	-10.0622
▁배우를	-10.0624
묘	-10.0624
▁생각나서	-10.0625
▁단어	-10.0627
▁가치가	-10.0634
▁만든영화	-10.0636
▁빵	-10.0643
▁등등	-10.0644
▁분위기가	-10.0644
듯이	-10.0647
▁체	-10.0651
▁죄	-10.0651
년만에	-10.0653
▁여러가지	-10.0654
었고	-10.0654
는것도	-10.0655
▁알겠는데	-10.0659
▁60	-10.0668
▁드립니다	-10.0672
▁집에	-10.0677
▁안타까운	-10.0684
▁잔뜩	-10.0684
▁분들은	-10.0685
▁재밌던데	-10.0686
놨	-10.0687
▁최고였다	-10.0692
▁2014	-10.0694
살아	-10.0699
용으로	-10.0701
▁대중	-10.0704
누	-10.0706
▁느꼈다	-10.0714
웃음	-10.0715
▁효과	-10.0715
▁최강	-10.0716
그래서	-10.0716
▁전설의	-10.0722
▁남자주인공	-10.0723
▁죽을	-10.0725
▁매력적이	-10.0726
되면	-10.0729
▁있었는데	-10.0734
▁그것	-10.0735
▁핵	-10.0738
억지	-10.0743
받았	-10.0749
빼고	-10.0751
명이	-10.0752
▁훌륭하다	-10.0752
▁킬링타임용으로	-10.0756
쉽	-10.0759
▁감정이	-10.0759
▁sf	-10.0761
▁극장가서	-10.0761
▁아이디어	-10.0763
re	-10.077
▁만드	-10.0771
▁명화	-10.0771
▁쓰레기같은	-10.0789
싶다	-10.0789
▁꽃	-10.08
스타일	-10.0804
순간	-10.0807
하기에	-10.0813
▁보았습니다	-10.0815
▁만들다니	-10.0816
수있는	-10.0818
▁배역	-10.083
▁최근에	-10.0834
건가요	-10.0847
▁없습니다	-10.0849
하겠다	-10.0851
▁바꿔	-10.0852
▁나머지	-10.0852
멘	-10.0853
▁다르다	-10.0856
▁낙	-10.0858
옹	-10.0867
▁색다른	-10.0869
나옴	-10.0869
▁무엇인지	-10.0871
▁억지스러운	-10.0874
몇	-10.0883
▁살아가는	-10.0887
▁가족영화	-10.0888
좋음	-10.0888
▁초등학생	-10.089
뭔가	-10.0894
▁짜임새	-10.0895
▁갖고	-10.0897
▁수준의	-10.0902
▁답답하고	-10.0906
▁높게	-10.0908
해주세요	-10.0912
몽	-10.0915
▁뭐하나	-10.0917
▁21	-10.0918
ᄆ	-10.0921
▁갖	-10.0923
▁기술	-10.0929
▁모르겠음	-10.0929
▁듣고	-10.0931
▁어렵	-10.0934
▁문제가	-10.0938
폐	-10.0942
▁보고싶	-10.0944
▁기독교	-10.0947
▁출연한	-10.096
▁참신	-10.0966
엔딩	-10.0971
▁지나도	-10.0973
거같아요	-10.0977
▁블랙	-10.0977
▁아닙니다	-10.0978
렁	-10.0978
ᅥ	-10.0978
▁결코	-10.0981
▁본영화	-10.0981
가요	-10.0982
때매	-10.0986
▁필요없	-10.0986
▁오래된	-10.0992
▁블록버스터	-10.0992
▁하나같이	-10.0997
▁개연성도	-10.0997
▁보려	-10.1002
큐	-10.1007
냐고	-10.1007
하길	-10.1009
▁외국	-10.1011
▁비하면	-10.1013
▁남은	-10.1019
▁재미없었다	-10.1021
이즈	-10.1022
▁에로영화	-10.1027
샤	-10.1029
▁이러	-10.103
맥	-10.1035
▁어쩜	-10.1036
줄이야	-10.1036
▁일이	-10.104
켜	-10.1045
▁성격	-10.1045
▁길게	-10.1047
▁가정	-10.1048
절대	-10.1051
▁만한	-10.1055
럼	-10.1058
햇다	-10.1065
없어서	-10.1072
보다도	-10.1074
O	-10.1077
▁갔	-10.1084
홀	-10.1086
팅	-10.1089
뮤	-10.1089
▁소소한	-10.1089
▁낚였다	-10.1092
▁그저그런	-10.1094
▁구성이	-10.1095
▁연극	-10.1095
▁행	-10.1095
나오고	-10.1097
▁이따위	-10.1097
즘	-10.1097
보지	-10.1099
▁여운을	-10.1099
▁또다른	-10.11
▁맡	-10.11
▁두고	-10.1104
다음	-10.1105
▁노래가	-10.1107
▁무시	-10.1111
▁가슴을	-10.1112
▁빠지	-10.1113
▁엉성하고	-10.1115
▁해라	-10.1115
▁제임스	-10.112
아니다	-10.1122
▁마이너스	-10.1127
쓰레기영화	-10.1128
▁기다려	-10.1128
생각이	-10.1131
▁후속작	-10.1132
B	-10.1138
▁잭	-10.114
축	-10.114
똥	-10.1142
사건	-10.1142
▁ᄏᄏᄏᄏᄏᄏ	-10.1146
▁연출과	-10.1147
▁싸우는	-10.1149
▁f	-10.115
어떻게	-10.115
▁모르겠	-10.1151
▁추리	-10.1152
허접	-10.1152
▁데리고	-10.1154
▁정말이지	-10.1162
겟다	-10.1166
▁만들어도	-10.1173
지마	-10.1174
▁친구들	-10.1176
었어	-10.1178
▁반전은	-10.1187
▁개인	-10.1187
엠	-10.119
▁예쁘고	-10.1194
▁해결	-10.1197
텔	-10.12
한국	-10.1202
▁울컥	-10.1202
▁의미가	-10.1202
스럽고	-10.1204
▁현실이	-10.1204
▁아래	-10.1207
▁거기에	-10.1207
▁결정	-10.1207
▁열연	-10.1212
▁먼가	-10.1216
였으면	-10.1217
▁낮네	-10.1219
▁탄탄	-10.1222
▁쇼	-10.1223
▁교육	-10.1224
▁혹은	-10.1224
좋아하는	-10.1231
매력	-10.1235
▁돼	-10.1239
▁사상	-10.1239
괴	-10.124
▁방영	-10.1241
▁승리	-10.1242
▁죽이고	-10.1243
▁매력을	-10.125
▁매력있	-10.1251
▁오빠	-10.1253
구성	-10.1254
▁낮아	-10.1255
▁아쉽	-10.1255
모두	-10.1259
스의	-10.126
▁몇번	-10.1266
붙	-10.1267
커플	-10.1268
논	-10.1268
소설	-10.1277
▁넌	-10.1278
▁필	-10.1281
줬	-10.1283
자리	-10.1283
▁봅니다	-10.1287
▁흐름	-10.1293
▁콩	-10.1309
▁막장드라마	-10.1309
스터	-10.1312
▁끼	-10.1316
▁공포물	-10.1316
하는건	-10.1316
▁적당히	-10.132
▁영화보는	-10.132
▁무척	-10.132
▁고통	-10.1321
무섭	-10.1322
냈다	-10.1324
따위	-10.1325
기로	-10.1325
▁돈을	-10.133
▁뽑	-10.1331
▁끊	-10.1333
▁신파	-10.1334
▁만남	-10.1337
▁불러	-10.134
많	-10.1347
▁식상한	-10.1348
▁요리	-10.1354
▁기다리	-10.1355
▁풍자	-10.1362
▁결말을	-10.1363
▁ᄀ	-10.1368
떨	-10.1369
년작	-10.1374
▁탄생	-10.1376
으려	-10.1378
싱	-10.1381
볼만	-10.1383
밤	-10.1383
▁잼나게	-10.1384
▁애들은	-10.1386
이름	-10.1387
▁어쩔수	-10.1396
▁아니야	-10.14
▁L	-10.1402
하는것	-10.1402
▁잘봤어요	-10.1405
▁주인공은	-10.1409
부족	-10.1409
▁옛	-10.1409
하더라	-10.1412
겠죠	-10.1419
섭	-10.1422
콘	-10.1423
마음	-10.1426
▁다양한	-10.1431
▁안나오	-10.1432
▁흔들	-10.1435
▁여주가	-10.1435
받는	-10.1436
▁여러분	-10.1436
▁개성	-10.1444
▁뛰어	-10.1444
▁집중해서	-10.1449
▁등장인물	-10.145
▁살면서	-10.1453
점이상	-10.1456
보니까	-10.1459
▁많은데	-10.146
▁변화	-10.1462
▁지루하	-10.1464
겠습니다	-10.1464
▁다운	-10.1469
이었습니다	-10.1474
▁느껴	-10.1475
▁다운받아	-10.1483
▁원작에	-10.1485
거면	-10.1486
좋앗	-10.1491
▁챙겨	-10.15
I	-10.1505
해준	-10.1506
▁볼수있는	-10.1509
명의	-10.1509
▁책을	-10.1514
▁만들수	-10.1514
▁인도	-10.1515
▁내가본	-10.1515
▁보다는	-10.1518
▁받는	-10.1518
친다	-10.1521
쓰고	-10.1521
▁봣	-10.1522
했으나	-10.1526
▁업	-10.1531
▁봤네	-10.1532
▁한국에서	-10.1532
닿	-10.1541
릿	-10.1544
칸	-10.1547
▁심형래	-10.1547
▁플롯	-10.1547
▁전기세가	-10.1547
▁아류작	-10.1548
▁아무런	-10.1549
두고	-10.1551
▁그만큼	-10.1553
▁만들었는지	-10.1553
▁살다살다	-10.1554
▁가면	-10.1557
좋았	-10.156
공감	-10.1564
어이없	-10.1568
▁아까울	-10.1568
▁생각했는데	-10.1575
▁맘	-10.1575
▁바다	-10.1577
▁특이	-10.1577
▁수많은	-10.1578
▁잔인	-10.1581
장르	-10.1581
▁안습	-10.1594
▁통쾌	-10.1594
장난	-10.1596
▁낳	-10.1597
▁내용인지	-10.1599
있을	-10.1602
▁평론가들	-10.1605
▁남네요	-10.1612
▁아직까지	-10.1614
▁그려	-10.1617
▁손에	-10.1617
▁얼마	-10.1623
솔직히	-10.1624
큰	-10.1625
▁시청률이	-10.1632
감정	-10.1636
했다고	-10.1636
만들었	-10.1639
▁몰입도가	-10.164
▁잘만들었	-10.1652
ᄋᄋ	-10.1654
▁옥	-10.1658
스러움	-10.1658
아주	-10.1661
▁빼면	-10.1663
▁러시아	-10.1664
▁앞뒤	-10.1664
▁바랍니다	-10.1665
▁집착	-10.1667
▁뇌	-10.1669
지도않고	-10.1669
▁놀라운	-10.167
▁그자체	-10.1671
▁첨엔	-10.1672
▁낮게	-10.1674
▁그야말로	-10.1676
하기만	-10.1679
▁치고	-10.1679
▁몰랐다	-10.1683
▁조카	-10.1684
▁특수효과	-10.1686
▁짧은	-10.1693
▁심지어	-10.1703
▁야한	-10.1704
▁모를	-10.1706
꾸	-10.1707
▁샤	-10.171
▁살린	-10.1715
▁외계인	-10.1719
▁때문	-10.1727
▁핵노잼	-10.1734
▁생활	-10.1737
▁놀랍다	-10.1739
▁썩	-10.1739
▁시청자	-10.174
ᄌ	-10.1741
▁보기에는	-10.1745
거죠	-10.1747
배경	-10.1752
▁캬	-10.1754
않다	-10.1755
▁재미도없고	-10.176
재미없음	-10.176
▁뭘까	-10.1762
영화에	-10.1762
오늘	-10.1764
▁여름	-10.1766
점대는	-10.1767
▁짜증만	-10.177
했다면	-10.1772
이죠	-10.1772
▁기가	-10.1777
더라도	-10.1778
올리	-10.1779
퇴	-10.178
▁생긴	-10.1781
▁주윤발	-10.1783
▁주말	-10.1783
▁떨	-10.1785
아깝	-10.1787
▁별로임	-10.1787
되었다	-10.1791
어린	-10.1796
▁궁금하다	-10.1796
수록	-10.1804
요소	-10.1808
▁레이	-10.1808
것들	-10.1809
▁인상적	-10.1812
는듯	-10.1812
▁마지막까지	-10.1817
▁격	-10.1817
영화인데	-10.1817
▁잠이	-10.1818
▁망친	-10.1819
마지막에	-10.182
▁응	-10.1823
자나	-10.1834
▁m	-10.184
▁주제를	-10.1841
▁영혼	-10.1843
▁스토리의	-10.1844
▁이상하게	-10.1845
▁재미있습니다	-10.185
▁낮지	-10.186
세상	-10.1864
벨	-10.1864
ᅵ	-10.1866
▁무리	-10.1868
덜	-10.1869
▁어릴	-10.1871
▁코미디영화	-10.1874
할만한	-10.1876
▁앤	-10.1888
▁해피엔딩	-10.1888
겠음	-10.1893
▁안맞는	-10.1895
이든	-10.1896
객	-10.1898
▁교훈을	-10.1898
룩	-10.1904
▁교과서	-10.1904
▁반드시	-10.1904
못하는	-10.1905
▁불쾌	-10.1907
▁첫사랑	-10.1909
▁꽤나	-10.1911
당시	-10.1915
▁약간의	-10.1915
▁사고	-10.1917
▁어느정도	-10.1918
모든	-10.1928
▁호구	-10.1929
▁않아서	-10.1929
▁최고로	-10.1931
인데도	-10.1932
▁장국영	-10.1933
▁정작	-10.1935
▁잘하고	-10.1936
▁배신	-10.1938
▁예쁘다	-10.1939
▁느꼈	-10.1939
▁반대	-10.1942
▁연기력은	-10.1943
슈	-10.1945
▁친구가	-10.1945
▁때려	-10.1946
▁당신은	-10.195
▁주기도	-10.1955
정이	-10.1956
▁부분도	-10.1958
▁언니	-10.1961
▁알수	-10.1963
▁편견	-10.1964
▁뭐니	-10.1966
▁쉬	-10.1966
▁내용과	-10.1967
▁좋겠네요	-10.1968
도안	-10.1968
지않아	-10.1968
▁부모님	-10.197
▁좀비영화	-10.1971
▁욕심	-10.1971
쟁이	-10.1974
▁아쉽지만	-10.1976
▁찬	-10.1979
재밌어	-10.198
▁소설을	-10.198
▁목적	-10.198
▁미소	-10.198
▁잼있어요	-10.1984
▁보자	-10.1985
▁일반	-10.1986
▁불쌍하다	-10.1993
자체	-10.1998
쁘	-10.2004
스키	-10.2004
▁당시에	-10.2012
▁역사를	-10.2013
▁순수함	-10.2019
▁디테일	-10.202
기에는	-10.2021
▁잼나	-10.2022
▁곳	-10.2022
헌	-10.2023
뽕	-10.2025
▁가벼운	-10.2026
▁있다니	-10.2027
▁크리스	-10.2028
▁당연히	-10.2028
▁자체는	-10.2031
▁태어나서	-10.2033
안되는	-10.2034
▁봤을까	-10.2036
▁따분	-10.2037
▁찾아보	-10.2042
▁폐	-10.2043
▁영화화	-10.2045
▁어른이	-10.2047
▁그립다	-10.2049
지네요	-10.2052
▁임팩트	-10.2052
▁어울리는	-10.2054
▁확인	-10.2065
거같음	-10.2069
넣	-10.2071
▁잼잇	-10.2076
▁아까운영화	-10.2078
▁떨어지고	-10.2079
배우들의	-10.208
▁많았	-10.208
▁!!!!	-10.2083
▁했으면	-10.2084
▁넘게	-10.2092
▁삶이	-10.2093
▁한편의	-10.2099
이여	-10.2109
당한	-10.2113
▁불편한	-10.2115
▁처음에는	-10.2116
쓸	-10.2119
갑니다	-10.2122
▁연기자들	-10.2124
겠어요	-10.2127
것같	-10.2127
까요	-10.2129
▁한국의	-10.2136
것같은	-10.2137
▁빌	-10.2137
▁가족이	-10.2138
▁시리즈는	-10.214
자를	-10.2141
▁아닐	-10.2143
▁어이	-10.2144
▁생각으로	-10.2145
▁볼때	-10.2146
z	-10.2149
▁쓸데없이	-10.2149
▁유일하게	-10.2149
▁이야기는	-10.2153
▁조절	-10.216
▁아름답게	-10.2163
▁애기	-10.2165
▁다시는	-10.2166
▁이딴걸	-10.2167
씨는	-10.2168
▁어설프고	-10.2168
주면	-10.2171
▁포스터가	-10.2171
▁엔딩이	-10.2174
▁하네	-10.2179
▁짜증나서	-10.218
▁짜집기	-10.2183
▁강렬한	-10.2185
▁여자주인공	-10.2192
과는	-10.2197
든다	-10.22
▁놓고	-10.2202
▁선물	-10.2203
▁먹먹	-10.2204
▁이용	-10.2206
▁명작을	-10.2208
만하다	-10.2224
▁모른다	-10.2225
▁최고임	-10.2225
항	-10.2234
▁꼬마	-10.2243
▁엄마가	-10.2245
젤	-10.2247
▁부르	-10.2251
▁귀여워	-10.2251
▁포인트	-10.2251
냈	-10.2251
▁소재도	-10.2257
▁강한	-10.226
▁다시보니	-10.2265
계의	-10.2265
스럽게	-10.2267
▁러닝타임	-10.227
주기	-10.2274
좌	-10.2274
▁놈	-10.2274
▁유일한	-10.2275
▁웃으면서	-10.2276
▁일부러	-10.2282
▁따뜻하고	-10.2283
▁마약	-10.2287
▁나름대로	-10.2288
▁영화인	-10.229
▁쓰고	-10.2291
▁클레멘타인	-10.2294
▁절	-10.23
것처럼	-10.2303
▁명장면	-10.2307
다는게	-10.2311
좋았다	-10.2315
▁방법	-10.2317
가고	-10.2318
▁브	-10.2331
리지	-10.2332
어라	-10.2337
▁피해	-10.2337
▁수작이다	-10.2339
▁할아버지	-10.234
▁연기자	-10.2347
▁보던	-10.2348
▁동성애	-10.2349
보고싶다	-10.2359
▁ᄍᄍᄍ	-10.2365
꿀잼	-10.2371
..........	-10.2371
▁희망을	-10.2371
캐	-10.2376
아저씨	-10.238
시길	-10.238
곳	-10.2381
끌	-10.2387
▁심장	-10.2387
▁어렵다	-10.239
▁살리	-10.239
▁타고	-10.2395
솔	-10.2398
▁이런건	-10.2399
겠네요	-10.2399
▁dvd	-10.2401
▁배트맨	-10.2401
▁조니뎁	-10.2401
▁본인	-10.2401
조금	-10.2402
▁끈	-10.2403
떠	-10.2404
에서의	-10.2404
▁들었	-10.2405
▁근래	-10.2405
▁로코	-10.2406
▁재능	-10.2407
▁나에겐	-10.2416
▁싶었	-10.2419
▁해리포터	-10.2421
▁배우들은	-10.2422
또한	-10.2423
▁설득력	-10.2427
도대체	-10.2434
▁잘하는	-10.244
이러	-10.244
▁모든걸	-10.2445
▁푸	-10.2446
▁잊	-10.2447
▁인간들	-10.2449
▁많은걸	-10.2454
▁재미없어서	-10.2454
대가	-10.2461
▁괜찮았다	-10.2462
있었다	-10.2463
▁하나로	-10.2467
있지	-10.248
부분이	-10.248
▁음식	-10.2482
아까	-10.2483
딴	-10.2483
틱	-10.2486
▁줄수	-10.2486
▁소재와	-10.2488
이었던	-10.2499
사람들은	-10.2502
출연	-10.2508
▁빛	-10.2508
▁틀어	-10.2511
▁짜증이	-10.2514
▁의문	-10.2519
▁영상과	-10.2522
▁처음에	-10.2522
▁한번도	-10.2524
꾼	-10.2526
으니까	-10.2527
후회	-10.2527
▁로버트	-10.2529
▁이소룡	-10.2529
▁of	-10.253
▁본게	-10.253
기까지	-10.2535
▁두번째	-10.2537
문화	-10.2542
▁이상하고	-10.2543
▁이끌어	-10.2547
▁독일	-10.255
▁상대	-10.2553
▁케이블에서	-10.2556
▁들고	-10.2559
▁뱀파이어	-10.256
르고	-10.2564
▁느낌의	-10.2566
▁어른들	-10.2567
▁시간가는줄	-10.2572
▁새벽에	-10.2572
뿌	-10.2573
▁이해를	-10.2574
▁그것도	-10.2576
▁나랑	-10.2577
에대해	-10.2578
전쟁	-10.2579
▁곧	-10.2583
▁배경음악	-10.259
잇는	-10.259
▁받은	-10.2593
럴	-10.2593
▁영화인지	-10.26
▁비슷	-10.2606
30	-10.2612
씀	-10.2615
▁시간만	-10.2616
▁환	-10.2621
▁있네	-10.2622
▁많아서	-10.2624
▁오락영화	-10.2628
▁제목만	-10.2628
▁흐르는	-10.2629
▁보다니	-10.263
▁감동은	-10.2631
▁엘	-10.2633
학년	-10.2635
빙	-10.2636
덤	-10.264
팀	-10.2642
찰	-10.2645
▁아프	-10.2648
▁봐야하는	-10.2652
▁당신	-10.2653
▁불쌍한	-10.2653
▁아쉬움이	-10.2654
턴	-10.2655
▁하는게	-10.2657
▁할리우드	-10.2659
▁홍상수	-10.2659
▁사운드	-10.2659
▁내생에	-10.2659
▁착각	-10.266
▁주제가	-10.2662
ᅲᅮ	-10.2664
▁여자의	-10.2667
▁동양	-10.2668
▁장면도	-10.2668
▁울리는	-10.267
보인다	-10.2672
톤	-10.2673
상태	-10.2674
낫	-10.2679
ᅮᅲ	-10.268
▁재미있을	-10.268
▁터미네이터	-10.2691
지루함	-10.2691
안됨	-10.2692
▁않았	-10.2695
검	-10.2695
▁아니지	-10.2696
번은	-10.27
▁대통령	-10.2702
보긴	-10.2703
식이	-10.2705
▁재밌어서	-10.2711
버릴	-10.2716
11	-10.2716
▁해주	-10.2725
▁아깝고	-10.2725
님들	-10.2731
▁어디에	-10.2734
▁혹시	-10.2739
왔는데	-10.2745
▁재미로	-10.2746
▁반전을	-10.2749
▁별로고	-10.2757
깔	-10.276
▁장면들	-10.276
▁진부	-10.2762
▁검색	-10.2765
▁현실과	-10.2766
▁보러	-10.2776
▁갔다	-10.2777
느껴	-10.278
쏘	-10.2782
폰	-10.2783
였나	-10.2785
물이	-10.2785
럭	-10.279
▁제이슨	-10.2791
▁하다가	-10.2791
▁시원	-10.2792
▁궁	-10.2793
▁you	-10.2794
▁언제봐도	-10.2797
▁단순히	-10.2798
▁와닿	-10.2806
▁잘못된	-10.2807
긴하지만	-10.281
▁무언가	-10.2811
본영화	-10.2813
▁부부	-10.2815
▁혹시나	-10.2818
▁샘	-10.2819
▁숨겨진	-10.2821
▁난잡	-10.2823
▁승	-10.2824
▁찌	-10.2826
영화입니다	-10.283
▁시간아깝다	-10.2831
▁세상이	-10.2837
▁돋보이는	-10.2839
▁사투리	-10.2842
게임	-10.2842
▁발상	-10.2842
▁헛	-10.2844
는구나	-10.2844
하니까	-10.2847
▁맞춰	-10.285
점정도	-10.2853
▁O	-10.2856
▁휘	-10.2857
▁초딩때	-10.2862
장이	-10.2862
▁하길래	-10.2864
▁정보	-10.2868
▁없었음	-10.2875
하는영화	-10.2876
일듯	-10.2876
▁올라	-10.2879
▁머리가	-10.2884
▁생각나	-10.289
▁실화를	-10.2891
▁마음으로	-10.2893
!!!!!!!!!!!!!!!!	-10.2899
▁영환데	-10.2905
▁거장	-10.2907
택	-10.2907
굳	-10.2909
그만	-10.2909
▁북	-10.291
▁진지	-10.291
▁싶어요	-10.2912
▁감독을	-10.2912
▁요소	-10.2913
▁장면을	-10.2913
털	-10.2916
삶	-10.2918
▁망치	-10.292
▁줍니다	-10.2924
▁아놀드	-10.2924
▁깜짝	-10.2924
▁2000	-10.2925
▁아이들과	-10.2928
▁이드라마	-10.293
▁삼류영화	-10.293
▁여러번	-10.293
▁디워	-10.293
▁아냐	-10.293
▁이상의	-10.2938
짜증	-10.294
..1	-10.2942
▁충분	-10.2945
▁멍	-10.295
▁내게	-10.2951
▁맞지	-10.296
▁싶을	-10.2961
▁그동안	-10.2962
▁어색하고	-10.2969
▁안간다	-10.2971
보는게	-10.2979
하지마라	-10.298
▁쉽지	-10.2991
▁영화인가	-10.2997
아빠	-10.3
▁하늘	-10.3001
더라면	-10.3002
▁시시	-10.3003
먹은	-10.3008
의미	-10.3015
▁내일	-10.3017
▁이런영화는	-10.3019
▁본지	-10.3022
분을	-10.3024
었나	-10.3025
▁멋있는	-10.303
하겠	-10.3038
▁기억나는	-10.3038
▁빵빵	-10.3042
▁만든거	-10.3043
▁앞에	-10.3045
▁테러	-10.3045
특	-10.3046
못하고	-10.3049
▁실수	-10.3049
▁아니라고	-10.3051
▁ᄏᄏᄏᄏᄏᄏᄏ	-10.3053
▁안봐도	-10.3053
▁예능	-10.3056
추억	-10.3058
뎅	-10.3059
▁희대의	-10.3059
▁흑백	-10.306
▁실험	-10.306
▁나네요	-10.306
게하는	-10.3066
▁보라	-10.3066
▁가수	-10.3066
집니다	-10.3072
사를	-10.3074
▁재미있어	-10.3078
▁봐도봐도	-10.3082
원이	-10.3083
▁좋네	-10.3084
▁모르겠네요	-10.3084
▁내면	-10.3085
▁떨어짐	-10.3085
읽	-10.3087
할뿐	-10.3094
▁배경이	-10.3096
▁관점	-10.3101
▁멋지고	-10.3102
▁다르게	-10.3103
셈	-10.3104
▁있다고	-10.311
쳐서	-10.3115
이었	-10.3117
었을	-10.312
▁됩니다	-10.312
▁논리	-10.312
▁t	-10.312
▁점수는	-10.3122
▁하아	-10.3124
▁사용	-10.3124
▁진수	-10.3125
▁가족들	-10.3126
▁h	-10.3127
흘	-10.3128
▁응원	-10.3133
▁짜증남	-10.3136
▁아까웠다	-10.3139
해야지	-10.3142
▁현실감	-10.3142
▁복잡	-10.315
▁지겹다	-10.3151
았는데	-10.3152
었는지	-10.3158
듯하다	-10.3166
▁매니아	-10.3167
▁중요	-10.317
▁집중이	-10.3177
웃기	-10.3179
▁스릴도	-10.318
▁포스	-10.3183
▁G	-10.3187
▁잊고	-10.319
궁	-10.319
▁E	-10.3195
보시길	-10.3196
▁명대사	-10.3198
▁나레이션	-10.3198
기전에	-10.3198
극장	-10.3199
끼리	-10.32
목소리	-10.32
▁이뻐서	-10.3203
맞추	-10.3204
▁봤다면	-10.3204
▁찾는	-10.3207
▁하품	-10.3207
▁괜찮음	-10.3208
▁개노잼	-10.3211
▁일본은	-10.3211
▁최고봉	-10.3213
▁이토록	-10.3213
▁w	-10.3215
부러	-10.3216
▁예쁘	-10.3216
▁높아서	-10.3222
▁생겼	-10.3223
▁하지원	-10.3227
분만에	-10.3229
▁없나요	-10.3231
▁떼	-10.3233
▁유덕화	-10.3237
▁매일	-10.3238
▁올려	-10.3241
▁결론은	-10.3243
▁배우는	-10.3247
▁박수	-10.3248
▁연출은	-10.325
▁맛이	-10.3256
려나	-10.3256
▁이상해	-10.326
▁지루하기	-10.3262
▁알겠다	-10.3263
▁연인	-10.3268
▁메세지	-10.3273
잤	-10.3276
▁끝에	-10.3277
▁잤다	-10.3281
▁안볼	-10.3284
든지	-10.3288
▁짜증나고	-10.3296
▁한번쯤	-10.3297
▁충격적이	-10.3301
▁인생이	-10.3302
▁사랑해요	-10.3303
▁오브	-10.3308
▁이루	-10.3315
석이	-10.3317
▁여주인공이	-10.3319
▁옷	-10.3319
쾌	-10.3321
▁말하고자	-10.3324
▁F	-10.3328
▁달려	-10.3331
지지	-10.3331
괜찮	-10.3331
몸	-10.3333
▁왤케	-10.3335
▁제니퍼	-10.3335
▁하정우	-10.3335
▁도무지	-10.3335
▁얼굴이	-10.3336
▁폭풍	-10.3336
▁사람도	-10.3337
▁만화책	-10.3339
▁판단	-10.3342
▁먹는	-10.3343
▁이름이	-10.3343
▁이기	-10.3346
▁알겠	-10.3349
▁공짜로	-10.3349
▁사랑해	-10.3352
▁왔	-10.3355
▁없게	-10.3356
▁궁금해서	-10.3358
▁믿을	-10.3361
▁마이	-10.3361
▁배우도	-10.3365
▁시대에	-10.3365
▁인생에	-10.3366
▁재밋어요	-10.3367
▁정신병자	-10.3369
연기는	-10.337
▁갑니다	-10.3371
▁과정	-10.3372
엇는데	-10.3374
재미있게	-10.3376
▁아우	-10.3376
이후	-10.3379
▁열받	-10.338
▁인형	-10.3385
는거야	-10.3389
좋은영화	-10.3393
▁무서웠	-10.34
영이	-10.3407
▁전설	-10.3407
주연	-10.341
▁탈출	-10.3411
▁몽	-10.3412
적은	-10.3412
되네요	-10.342
뻐	-10.3431
고싶은	-10.3435
▁생각할	-10.3437
▁엿	-10.3438
워서	-10.3438
▁말자	-10.3438
▁여자는	-10.344
▁으리	-10.3444
버려	-10.3451
▁같고	-10.3452
껴	-10.3456
▁유치해	-10.3461
▁겁	-10.3464
임을	-10.3469
▁명배우	-10.3472
납	-10.3474
핑	-10.3475
▁걱정	-10.3476
▁평균	-10.3477
▁각색	-10.3478
▁재개봉	-10.3478
▁갠적으로	-10.3479
분위기	-10.348
▁극복	-10.3481
▁적어도	-10.3481
F	-10.3482
▁거북	-10.3482
▁유럽	-10.3483
하다고	-10.3483
▁괜찮았는데	-10.3483
▁설정이	-10.3483
▁믿고보는	-10.3484
꿈	-10.3484
▁마지막회	-10.3484
▁만약	-10.3484
▁뒤에	-10.3487
▁절정	-10.3488
▁다루	-10.3489
▁반담	-10.349
▁유쾌하게	-10.3491
빨리	-10.3493
▁우연	-10.3496
씬이	-10.3501
짱짱	-10.3506
▁사랑한다	-10.3514
▁보기에	-10.3514
▁겨울	-10.3516
▁볼만했다	-10.3516
▁오랫만에	-10.3518
드립	-10.3518
▁우뢰매	-10.3518
▁축	-10.3523
맞는	-10.3523
▁부정	-10.3523
쓰는	-10.3525
▁의지	-10.3526
같은영화	-10.3527
하거나	-10.3529
▁잇	-10.3533
▁컨셉	-10.3535
하시길	-10.3535
▁화나	-10.3539
▁따라가	-10.354
▁p	-10.3545
▁대신	-10.3547
▁폭발	-10.3547
뭐냐	-10.3548
▁의상	-10.3551
▁담배	-10.3553
하던데	-10.3556
▁영상미가	-10.3558
▁섬	-10.356
▁좋지	-10.3562
▁안맞	-10.3563
뭔	-10.3566
▁어처구니	-10.3566
▁버리	-10.3567
우스	-10.3567
하진	-10.3575
▁불안	-10.3581
왔어요	-10.3582
줄은	-10.3585
▁톰	-10.3587
▁작품입니다	-10.3591
▁식상	-10.3593
▁X	-10.3594
스톤	-10.3603
▁히어로	-10.3605
▁보게된	-10.3605
룡	-10.3607
보구	-10.3618
찔	-10.3618
▁송강호	-10.3618
덩어리	-10.3618
▁파괴	-10.3621
▁꿀	-10.3622
차이	-10.3624
▁잔잔하게	-10.3625
▁돈내고	-10.3625
콩	-10.3625
G	-10.3626
육	-10.3626
촌	-10.3626
컷	-10.3626
▁자극적인	-10.3627
▁무엇인가	-10.3627
▁없냐	-10.3628
드만	-10.3629
없네요	-10.3631
나가는	-10.3631
엄청	-10.3631
분의	-10.3633
같고	-10.3634
만큼이나	-10.3634
햇는데	-10.3636
▁어거지	-10.3637
▁소중함을	-10.3639
언제	-10.364
왔다	-10.3642
됐다	-10.3642
▁가능한	-10.3644
▁못하	-10.3644
하지말고	-10.3645
▁숙	-10.3645
있지만	-10.3648
▁쓸데없는	-10.3649
야한다	-10.3651
야할	-10.3651
▁포스터에	-10.3653
▁기대없이	-10.3656
물을	-10.3661
가슴	-10.3665
bb	-10.3666
▁다시보고	-10.3667
▁케릭터	-10.367
▁일부	-10.3671
▁한국판	-10.3673
없는영화	-10.3674
과의	-10.3675
있던	-10.3676
들에	-10.3691
▁뭥미	-10.3691
▁가고	-10.3691
▁일본의	-10.3691
▁빛을	-10.3692
몰입	-10.3694
▁어울리지	-10.3697
어색	-10.3702
▁정도면	-10.3703
것보다	-10.3705
▁찍고	-10.3706
▁결론	-10.3708
▁아역	-10.3709
▁환경	-10.371
▁특	-10.3716
개그	-10.3716
▁끌고	-10.3717
▁강렬	-10.3723
▁가득한	-10.3726
▁담은	-10.3738
▁과장	-10.3742
▁읽어	-10.3743
▁기적	-10.3745
▁갓	-10.3749
트리	-10.3751
할것	-10.3753
▁파리	-10.376
▁기대이상	-10.3761
톱	-10.3761
닉	-10.3763
▁오프닝	-10.3763
ᄁ	-10.3763
▁리얼리티	-10.3763
▁황당한	-10.3764
▁감흥	-10.3766
굴	-10.377
▁천국	-10.3771
▁여자애	-10.3771
자고	-10.3772
져요	-10.3774
널	-10.3775
없나	-10.3776
M	-10.3776
▁않았지만	-10.3777
빛	-10.3777
▁살인마	-10.3777
했었	-10.3778
▁액션씬	-10.3778
콜	-10.3779
▁괜찮았	-10.3779
화이팅	-10.3779
걍	-10.3779
할수있	-10.3782
▁서울	-10.3782
관객	-10.3783
▁미쳤	-10.3785
▁귀엽다	-10.3785
수는	-10.3786
▁좋다고	-10.3788
▁최고의영화	-10.3791
▁어쩌면	-10.3803
▁영화라니	-10.3806
▁손발	-10.3806
높은	-10.3809
▁잘만들	-10.3809
▁쿠	-10.381
▁전쟁의	-10.3811
▁안될	-10.3811
▁낫	-10.3812
▁허술한	-10.3814
▁소화	-10.3816
류영화	-10.3817
▁심한	-10.3823
▁자동차	-10.3824
▁액션신	-10.3827
▁받고	-10.3832
배우가	-10.3833
겼	-10.3835
▁아들이	-10.3838
▁사실을	-10.3839
st	-10.384
▁놀랍	-10.385
▁의사	-10.385
▁잼있음	-10.3856
▁난리	-10.3857
지요	-10.3858
▁그것이	-10.3859
▁갖다	-10.3859
같아	-10.3859
애들이	-10.3861
▁이보다	-10.3862
▁언	-10.3864
▁대단하	-10.3871
▁좋을듯	-10.3873
▁잊을수	-10.3884
▁보시면	-10.3888
▁생각도	-10.3895
라지만	-10.3902
▁박진감	-10.3903
▁만난	-10.3905
V	-10.3907
렷	-10.3907
▁눈물나	-10.3908
▁묻어	-10.3909
액	-10.391
▁본건데	-10.391
와의	-10.391
U	-10.391
▁늦게	-10.391
▁정우성	-10.3911
▁동시에	-10.3911
▁민폐	-10.3912
▁답이	-10.3912
▁마지막장면	-10.3914
보네	-10.3914
기도하고	-10.3914
▁지금의	-10.3918
때마다	-10.3919
▁억지감동	-10.392
▁거품	-10.392
▁재미없을	-10.3921
▁놓치	-10.3921
▁재미없다고	-10.3924
갓	-10.3925
▁보았는데	-10.3926
▁적당한	-10.3928
앤	-10.3929
헐	-10.3932
스토리도	-10.3935
▁즐	-10.394
▁인터넷	-10.3947
▁알려	-10.3947
▁정신없	-10.395
가면서	-10.395
▁인간은	-10.3951
▁땅	-10.3951
▁시작부터	-10.3952
▁만들어서	-10.3953
▁아니었다	-10.3957
제대로	-10.3957
▁우려먹	-10.396
▁영화라는	-10.396
▁제목을	-10.3965
▁데이	-10.3965
소름돋	-10.3967
▁장진	-10.3972
볼수있	-10.3976
▁영화였음	-10.3982
웃겨	-10.3988
▁케	-10.3992
볼수	-10.3998
▁되네요	-10.3999
여주	-10.4003
▁빅	-10.4005
인들	-10.401
되나	-10.4011
▁시나리오가	-10.4015
▁아깝네	-10.4016
례	-10.4021
▁목소리가	-10.4021
아들	-10.4022
▁듣	-10.4024
▁썼	-10.4025
놈이	-10.4028
▁한국영화의	-10.4032
▁그것을	-10.4034
▁봐야지	-10.4034
▁소장	-10.404
하자면	-10.4043
닐	-10.4043
▁액션과	-10.4043
▁최소	-10.4046
적이지	-10.4046
▁흘러	-10.4053
▁돌리	-10.4058
ᅮᅮᅮ	-10.4058
빗	-10.4059
숭	-10.406
▁스티븐	-10.406
▁명불허전	-10.406
▁깡패	-10.406
▁내생애	-10.406
▁가까운	-10.406
▁블랙코미디	-10.4061
▁전반적으로	-10.4061
▁이런류의	-10.4062
▁역량	-10.4063
▁은근히	-10.4063
▁장난하냐	-10.4065
▁이번에	-10.4066
▁죽고	-10.4068
▁기존	-10.4068
▁마지막엔	-10.4069
▁재미있는데	-10.4069
분동안	-10.4072
▁세번	-10.4075
▁팀	-10.408
▁영원한	-10.4081
대단	-10.4082
불쌍	-10.4082
▁축구	-10.4085
▁탄탄하고	-10.4086
▁만들었나	-10.4087
▁잡아	-10.4088
▁읽고	-10.4092
보지말	-10.4092
▁아깝네요	-10.4095
▁짐캐리	-10.4096
▁짝이	-10.4097
▁답답함	-10.4105
▁왜곡	-10.4107
잃	-10.4107
뿐이다	-10.4107
극장에서	-10.4108
수없는	-10.4111
▁분들이	-10.4111
▁스포츠	-10.4115
멋있	-10.4117
▁스토리전개	-10.4118
제로	-10.4119
▁명연기	-10.4132
적이다	-10.4136
▁무섭고	-10.4136
험	-10.4137
느낌이	-10.4137
▁멋지	-10.4137
▁잼없	-10.4139
부터가	-10.4143
것같은데	-10.4145
▁범	-10.4149
▁할말	-10.4153
였지	-10.4163
본사람	-10.4174
내용은	-10.4177
▁곰	-10.4183
▁없으면	-10.4183
▁교훈도	-10.4186
▁공감할	-10.4191
▁포스터만	-10.4192
▁믿기지	-10.4195
▁굴	-10.4203
이긴	-10.4206
칙	-10.4211
눌	-10.4211
▁아무생각없이	-10.4211
▁역겨운	-10.4211
▁누나	-10.4212
▁좋았을텐데	-10.4213
▁땜에	-10.4214
▁상징	-10.4215
▁신의	-10.4216
▁전개와	-10.4217
▁이해불가	-10.422
주지	-10.422
▁전체적인	-10.422
▁벤	-10.4221
▁느낌은	-10.4223
▁적절한	-10.4225
장면은	-10.4226
▁생각난다	-10.4229
▁만들어낸	-10.4231
▁볼만합니다	-10.4231
▁치유	-10.4231
▁매력에	-10.4232
▁강간	-10.4236
▁초등학교	-10.4237
▁사람이라면	-10.4239
시나리오	-10.4239
포인트	-10.424
긴장감	-10.424
▁잠시	-10.4241
...........	-10.4243
▁등장인물들	-10.4244
범죄	-10.4246
▁어쩌	-10.4246
하실	-10.4246
▁생명	-10.4247
▁봤는데도	-10.4247
여운이	-10.4247
it	-10.4247
▁양아치	-10.4249
▁친구랑	-10.4249
▁남기	-10.4256
▁슈	-10.4257
▁사랑합니다	-10.4261
없구	-10.4263
▁가족의	-10.4273
평가	-10.4276
▁돼지	-10.428
▁한개도	-10.4287
▁사람들에게	-10.4291
▁시대의	-10.4295
▁ᄃᄃᄃ	-10.4299
▁부실	-10.43
▁싶었다	-10.4302
▁나이가	-10.4308
▁지겹	-10.4308
▁한방	-10.4312
글자	-10.4316
재미도	-10.4318
장애	-10.4319
▁찍는	-10.432
▁반전에	-10.4326
브라	-10.4326
▁나무	-10.4333
▁학	-10.4335
▁여배우들	-10.4346
▁김치	-10.4348
▁나오는데	-10.4348
▁널	-10.435
▁재난	-10.4351
▁짐	-10.4351
▁따지	-10.4355
▁보는거	-10.4359
▁류승범	-10.4365
▁쏟아	-10.4365
▁웰메이드	-10.4365
▁어두운	-10.4365
▁왠만한	-10.4367
▁이것보단	-10.4368
내내	-10.4369
▁요새	-10.437
▁명작은	-10.4372
광고	-10.4374
찾아	-10.4375
웨이	-10.4375
▁담긴	-10.4377
▁아진짜	-10.4378
▁고독	-10.4378
▁진지한	-10.4378
나왔	-10.4382
▁니들	-10.4383
▁줬	-10.4385
배우들이	-10.4389
▁인류	-10.4392
방식	-10.4393
▁내리	-10.4394
▁미국의	-10.4395
▁빛나는	-10.4396
▁영화예요	-10.4396
푸	-10.4397
▁최소한	-10.4397
▁무섭지	-10.4399
▁이해할수	-10.4401
▁안보는게	-10.4401
빌	-10.4402
쳤다	-10.4403
▁브루스	-10.4403
▁즐기	-10.4403
노답	-10.4407
힘들	-10.4409
▁신인	-10.4416
▁ᄌ	-10.4419
▁진한	-10.4422
▁따위	-10.4424
▁볼려고	-10.4427
▁누군지	-10.4428
▁귀여움	-10.443
▁흥	-10.4434
▁아프다	-10.4434
▁찾아서	-10.4442
신이	-10.4444
▁때리	-10.4444
100	-10.4446
▁희	-10.4452
▁보이지	-10.4452
▁씹	-10.4456
▁미스	-10.4459
19	-10.4464
▁농	-10.4465
▁예술영화	-10.4466
▁오글	-10.4466
▁형제	-10.4469
▁여친	-10.4473
▁찌질	-10.4477
▁하나하나가	-10.4477
할지	-10.4478
▁다신	-10.4482
▁허무한	-10.4483
▁H	-10.4487
▁쩔어	-10.4487
▁남성	-10.4491
▁헬	-10.4492
올라	-10.4496
찾	-10.4497
▁본듯	-10.4498
▁상관없	-10.4503
에비해	-10.4507
아요	-10.4508
▁때마다	-10.4514
해주고	-10.4517
픽	-10.4518
컬	-10.4521
▁movie	-10.4521
▁이병헌	-10.4521
▁호기심	-10.4521
▁말아야	-10.4522
▁인생은	-10.4522
▁고뇌	-10.4523
어지는	-10.4528
▁못보겠다	-10.4532
▁아만다	-10.4534
▁첨부터	-10.4535
이딴	-10.4538
▁놀란	-10.4541
▁극중	-10.4541
▁알았음	-10.4542
12	-10.4542
▁워	-10.4543
버렸	-10.4545
▁울면서	-10.4545
▁작가의	-10.4552
▁거기다	-10.4554
▁부족함	-10.4555
학교	-10.4556
감독은	-10.4559
칼	-10.456
편에서	-10.4561
P	-10.4562
비디오	-10.4562
▁매력적	-10.4563
▁꼽	-10.4566
▁유치해서	-10.4571
▁느껴지	-10.4571
▁느낌이다	-10.4574
▁뜬금없는	-10.4574
▁분장	-10.4575
▁보아	-10.4575
▁생에	-10.4577
▁반영	-10.4578
▁하시	-10.4584
▁동네	-10.4585
시간동안	-10.4586
동생	-10.4586
▁것만	-10.4587
▁14	-10.4596
▁배경으로	-10.4597
받을	-10.4599
안된다	-10.4605
▁재밋음	-10.4606
자식	-10.4607
▁소재의	-10.461
▁허술	-10.4612
▁P	-10.4612
▁초반부	-10.4613
답게	-10.4614
▁책으로	-10.4618
▁품	-10.4619
존나	-10.4623
▁밤에	-10.4627
▁없는게	-10.4628
▁시간에	-10.4629
둥	-10.4631
가며	-10.4632
타고	-10.4637
▁특별	-10.4639
닌	-10.4642
스토리가	-10.4642
데요	-10.4643
처리	-10.4647
하지마	-10.4665
▁육	-10.4667
었네	-10.4675
엽	-10.4678
뚝	-10.468
랴	-10.468
▁러브라인	-10.468
▁달달	-10.4682
▁2012	-10.4683
▁절망	-10.4683
▁그림체	-10.4684
▁의도가	-10.4685
답니다	-10.4685
▁괜찮았음	-10.469
▁유지	-10.4691
▁풋풋한	-10.47
센	-10.4702
▁심각	-10.4707
보여	-10.4709
▁거지같은	-10.4709
라인	-10.471
▁실감	-10.4711
▁매미	-10.4718
▁빠져서	-10.4719
▁이럴	-10.4723
캐스팅	-10.4723
▁ᄡ	-10.4724
▁방식	-10.4726
갈수록	-10.4727
▁웃는	-10.4728
▁볼것	-10.4728
▁배급사	-10.4728
는대	-10.473
▁끝나서	-10.4732
▁그렇지만	-10.4736
같아요	-10.4737
▁장애인	-10.4737
자신	-10.4738
재미있어요	-10.4738
수를	-10.4739
▁영화속	-10.474
▁그지	-10.4742
감동적	-10.4746
▁내돈	-10.4756
▁액션을	-10.4757
으려고	-10.4767
▁ᄏᄏᄏᄏᄏᄏᄏᄏ	-10.4768
▁끝났	-10.4769
보내	-10.477
▁맞나	-10.477
▁아무도	-10.477
▁W	-10.4775
살이	-10.4776
멜로	-10.4777
드가	-10.4778
뻔한	-10.4778
▁견	-10.4783
▁싶었던	-10.479
▁전화	-10.4791
▁잘만들었다	-10.4792
렬	-10.4795
▁장면들이	-10.4795
▁실망이	-10.4798
▁쪽	-10.4808
보임	-10.481
법한	-10.4818
ed	-10.4819
▁무엇	-10.4821
▁재밌다는	-10.4829
라는걸	-10.4831
▁도망	-10.4838
할수가	-10.4839
했을때	-10.4839
am	-10.484
컨	-10.4841
에다가	-10.4841
딘	-10.4841
▁놀랐다	-10.4841
렀	-10.4841
룰	-10.4841
▁EBS	-10.4841
▁드디어	-10.4841
▁뛰어나	-10.4841
▁화장실	-10.4842
▁언젠가	-10.4843
▁감독과	-10.4843
화가	-10.485
▁던져	-10.485
사의	-10.485
▁개콘	-10.4852
▁있었으면	-10.4853
▁폐지	-10.4854
이예요	-10.4855
꺼야	-10.4857
▁깔	-10.4857
상영	-10.4858
▁모르지만	-10.486
때문	-10.486
보이는	-10.4862
미가	-10.4864
점주	-10.4869
▁나을듯	-10.487
▁안에	-10.4873
▁연출력이	-10.4874
흑	-10.4876
▁조선	-10.4876
서야	-10.4876
▁빨갱이	-10.4877
이유	-10.4878
대를	-10.488
▁장난아니	-10.488
L	-10.4882
▁괜찮게	-10.4883
터짐	-10.4884
▁임창정	-10.4886
▁베드신	-10.4886
▁내용에	-10.4886
볼까	-10.4889
그렇게	-10.4892
▁다행이다	-10.4892
싸움	-10.4892
▁살다	-10.4893
롤	-10.4894
선택	-10.4897
▁자기가	-10.4903
▁수입	-10.4904
▁공감도	-10.4907
▁그리워	-10.4907
아무리	-10.4907
▁여신	-10.4908
▁줘야	-10.4908
▁소개	-10.4915
잖아요	-10.4916
▁괜찮고	-10.4918
▁안본	-10.492
▁도시	-10.492
▁냉	-10.4921
▁것에	-10.4923
▁않은데	-10.4926
▁ᄆ	-10.4926
오글	-10.4927
▁완	-10.4927
▁가히	-10.4929
월드	-10.493
▁드네요	-10.493
▁요소가	-10.4935
▁자랑	-10.494
셔야	-10.494
▁정도가	-10.4941
▁단편	-10.4941
▁쭉	-10.4942
였네요	-10.4942
이어서	-10.4944
려다	-10.4951
아니면	-10.4952
않는다	-10.4956
남는	-10.4957
▁보고나니	-10.4958
이래	-10.4966
▁무대	-10.4968
미치	-10.4969
▁일어나	-10.4972
▁침	-10.4973
▁시키	-10.4976
했을까	-10.4978
오브	-10.4979
▁인상적인	-10.4981
▁뭐하는	-10.4982
▁빠지는	-10.4982
▁운명	-10.4984
▁위로	-10.4985
▁생기	-10.4986
▁되는데	-10.4987
th	-10.4987
▁여인	-10.4992
▁신선함	-10.4992
▁공포를	-10.4995
▁됬	-10.4996
측	-10.5001
멸	-10.5003
찐	-10.5004
닫	-10.5004
ᄎ	-10.5005
긋	-10.5005
ᅢ	-10.5005
▁깊게	-10.5005
욤	-10.5005
▁무거운	-10.5005
▁하이틴	-10.5005
▁낭만	-10.5006
▁도둑	-10.5007
좋네요	-10.5007
▁은근	-10.5007
너무너무	-10.5009
있어요	-10.5009
▁만들었을까	-10.5011
▁재미있었습니다	-10.5011
▁드림	-10.5014
았습니다	-10.5014
있으면	-10.5015
▁진지하게	-10.5017
▁말하려는	-10.5018
▁재밌었던	-10.5023
▁보았던	-10.5025
▁잘한다	-10.5028
▁비행기	-10.5028
▁미안하다	-10.5032
▁기대하지	-10.5035
▁깔끔한	-10.5038
▁컴퓨터	-10.5041
▁언제까지	-10.5045
▁가족애	-10.5046
지나	-10.5052
었지	-10.5054
▁이름을	-10.5055
▁떨어	-10.5056
할줄	-10.5057
셀	-10.5059
코믹	-10.5061
▁신비	-10.5067
않고	-10.5067
그럼	-10.5068
▁ᄒᄃᄃ	-10.5079
▁안본다	-10.5092
할거	-10.5093
▁드라마입니다	-10.5096
▁동영상	-10.5096
애들은	-10.5096
막히	-10.51
▁재미있었	-10.5105
▁나오네	-10.5105
▁망할	-10.5109
▁꼭보세요	-10.511
만은	-10.5112
였다면	-10.5116
델	-10.5118
제작	-10.5118
외엔	-10.5119
▁빠졌	-10.5121
▁뭐고	-10.5123
▁러브	-10.5127
▁조금은	-10.513
할수있는	-10.513
▁내용의	-10.5132
▁삭제	-10.5134
▁웃기는	-10.5136
그러나	-10.5137
아까움	-10.5144
편까지	-10.5146
15	-10.5147
댄	-10.5149
▁살았	-10.5151
▁마지막이	-10.5154
곳이	-10.5155
▁ᅲᅲᅲᅲ	-10.5168
▁들어간	-10.5168
균	-10.517
▁참나	-10.5172
▁신하균	-10.5172
▁박보영	-10.5172
▁라이언	-10.5172
▁무간도	-10.5172
▁스파이	-10.5173
▁생각해보게	-10.5174
▁개그맨	-10.5177
▁말그대로	-10.5177
머니	-10.5177
▁인상적이	-10.5185
le	-10.5186
▁미스터리	-10.5186
합시다	-10.5186
▁여전	-10.5187
▁알았네	-10.5187
▁한다는	-10.5187
▁했더니	-10.5187
가장	-10.5188
▁덤	-10.5196
▁연기하는	-10.5197
▁염	-10.5199
▁늘어	-10.5201
▁과학	-10.5201
▁기준	-10.5203
재미있다	-10.5203
▁베이	-10.5205
하군	-10.5206
▁순수하고	-10.5206
▁학생	-10.5208
흠	-10.521
▁조연들	-10.5211
뭐지	-10.5213
자들이	-10.5215
▁했음	-10.5215
간에	-10.5219
▁버리고	-10.5219
흥	-10.5219
▁넘넘	-10.522
▁않았던	-10.5221
▁속이	-10.5222
▁사랑스럽다	-10.5222
지말자	-10.5225
▁요즘은	-10.5225
시오	-10.5229
것같네요	-10.5232
▁깎	-10.5233
뭘	-10.5233
개인적으로	-10.5234
탑	-10.5234
섬	-10.5234
▁넘어가	-10.5234
잊	-10.5234
바람	-10.5236
▁새끼	-10.5238
확실	-10.5241
▁링	-10.5247
▁뜬금없이	-10.5247
▁캐릭터들이	-10.525
시키고	-10.5255
에게는	-10.5256
▁미국식	-10.5257
▁형편없	-10.5258
▁분량	-10.526
고싶어	-10.526
▁정신이	-10.526
▁빼곤	-10.5263
▁대부	-10.5264
▁표현할	-10.5264
▁보라고	-10.5269
보네요	-10.5271
해줘서	-10.5273
년대에	-10.5274
▁이거보다	-10.5277
는거지	-10.5278
▁밋밋	-10.5281
▁잔혹	-10.5285
멜	-10.5285
▁감각	-10.5286
오래	-10.5289
▁어이없다	-10.5292
광구	-10.5296
심을	-10.5302
▁프	-10.5304
겹	-10.5305
▁봤어	-10.5306
▁막판	-10.5309
먹었	-10.5309
▁전문	-10.5311
생각을	-10.5314
▁당연	-10.5316
▁숨은	-10.532
▁뭐임	-10.532
잖	-10.5324
▁날아	-10.5324
뭐야	-10.5326
맞고	-10.5326
맞음	-10.5326
▁쩌는	-10.533
▁다시보기	-10.533
▁불쌍하	-10.5338
벼	-10.5341
▁비쥬얼	-10.5341
▁박중훈	-10.5341
▁칭찬	-10.5342
▁둘째치고	-10.5342
▁니콜	-10.5342
▁역겹다	-10.5342
▁잃은	-10.5343
▁픽사	-10.5343
나름	-10.5344
▁흡입력	-10.5344
짜리	-10.5345
▁쏘	-10.5346
고요	-10.535
맘	-10.5351
▁극장에	-10.5352
▁오글오글	-10.5355
▁떡	-10.5358
▁같지	-10.536
천원	-10.536
▁ᄒᄒᄒᄒ	-10.5361
인걸	-10.5366
▁어설프다	-10.5371
▁평화	-10.5371
▁오락	-10.5374
▁감정이입	-10.5375
▁첨이다	-10.5378
아이들	-10.538
▁기대이하	-10.5389
▁절로	-10.5389
소녀	-10.5389
▁일주일	-10.5395
▁났	-10.5398
▁한번더	-10.5399
활	-10.5401
싫다	-10.5406
웃김	-10.5406
몬	-10.5407
▁오랜만	-10.5408
▁소장하고	-10.5412
▁시작해서	-10.5413
▁바뀌	-10.5414
▁책임	-10.5415
▁나와야	-10.5416
▁없다고	-10.5417
▁짜증나게	-10.542
▁알수있	-10.5422
않는	-10.5423
▁뛰어넘는	-10.5423
하겠습니다	-10.5429
▁및	-10.5437
▁캐릭터를	-10.5438
드리	-10.544
▁것들이	-10.5443
▁연기력에	-10.5455
▁이야	-10.5457
▁199	-10.5459
함에	-10.5459
▁전투	-10.546
미국	-10.546
혼자	-10.5461
▁당신이	-10.5462
▁몰라	-10.5468
거라고	-10.5469
▁거리	-10.5472
역할	-10.5474
▁빠져들	-10.5474
▁같았다	-10.5475
▁슬퍼	-10.548
쩔	-10.5481
▁답답하다	-10.5485
▁하나님	-10.5494
▁하하	-10.5506
▁탐	-10.551
▁여자친구	-10.5513
랩	-10.5513
▁뒤죽박죽	-10.5514
▁스타워즈	-10.5514
▁알파치노	-10.5514
▁왕조현	-10.5514
▁클래식	-10.5514
▁명복을	-10.5514
▁비호감	-10.5514
▁Good	-10.5514
▁워낙	-10.5514
▁향연	-10.5514
▁이별	-10.5514
▁감명깊게	-10.5514
▁길이	-10.5515
립니다	-10.5516
▁부활	-10.5516
▁그려낸	-10.5516
▁어디가	-10.5517
▁따름	-10.5517
▁개봉당시	-10.5517
성에	-10.5518
▁사람들을	-10.5519
▁좋겠습니다	-10.5519
▁에효	-10.5519
▁상어	-10.5519
▁엄청나게	-10.552
▁마시길	-10.5521
▁형편없는	-10.5521
▁낫겠다	-10.5524
▁재미있었음	-10.5526
▁최후	-10.5527
▁소통	-10.553
▁이딴영화	-10.5531
▁시기	-10.5532
X	-10.5534
▁울었	-10.5535
어진	-10.5537
▁멋지게	-10.5542
▁주지	-10.5543
발연기	-10.5547
▁감동적이네요	-10.555
▁끝도	-10.555
▁모습은	-10.5554
▁타란티노	-10.5556
줄알았다	-10.5559
이었는데	-10.556
▁최고네요	-10.5561
▁인물들	-10.5561
▁검	-10.5563
하기엔	-10.5563
있었는데	-10.5564
▁살아야	-10.5569
▁도데체	-10.5571
▁촌	-10.5574
까봐	-10.5584
둔	-10.5585
포스터	-10.5587
▁알리	-10.5589
▁잠을	-10.559
▁맡은	-10.559
▁R	-10.56
못함	-10.5612
▁그들이	-10.5615
안하고	-10.5623
▁보겠다	-10.5623
▁아무튼	-10.5626
긴다	-10.5626
어용	-10.5629
▁정상	-10.5633
▁있긴	-10.5633
▁어디로	-10.5636
▁프리	-10.5637
돈주고	-10.564
▁빈약	-10.564
▁흘러가는	-10.5641
en	-10.5641
▁작위적	-10.5643
보고나서	-10.5647
있네요	-10.565
▁의문이	-10.5651
아직도	-10.5651
▁오글거리는	-10.5657
▁고등학교	-10.5657
▁뻔한스토리	-10.5661
in	-10.5667
랫	-10.5672
▁역사에	-10.5674
▁후에	-10.5674
점부터	-10.568
▁더빙이	-10.568
▁마리	-10.5681
▁시도는	-10.5686
▁뭐하자는	-10.5688
다큐	-10.5689
벅	-10.5689
▁새벽	-10.5689
▁디카프리오	-10.5689
▁스타뎀	-10.569
▁소름끼치는	-10.569
▁묘한	-10.5691
▁나타나	-10.5692
▁가능성	-10.5692
▁아침	-10.5692
▁로빈	-10.5693
것인가	-10.5694
▁속았다	-10.5696
후에	-10.5697
▁섬세한	-10.5699
▁믿음	-10.5706
▁어이없음	-10.5707
▁재미있었는데	-10.5709
느끼	-10.5709
▁귀여워요	-10.571
▁충격적인	-10.5711
보던	-10.5711
▁스크린	-10.5711
▁다운받아서	-10.5712
▁케미	-10.5712
▁작화	-10.5712
▁공유	-10.5713
▁있으나	-10.5714
▁뉴	-10.5718
▁말투	-10.572
▁싶어서	-10.5723
▁독특하고	-10.5723
▁감독도	-10.5723
잭슨	-10.5728
▁나올때	-10.5728
▁아이들에게	-10.573
점만점에	-10.573
▁위트	-10.5731
▁원하는	-10.5731
겠어	-10.5738
▁자고	-10.5743
시킬	-10.5746
▁뭐라고	-10.5748
덕에	-10.5748
▁다시금	-10.5749
▁무한	-10.5749
▁사회적	-10.5751
자기	-10.5752
▁더러워	-10.5754
▁영상도	-10.5755
▁아버지의	-10.5761
▁있었고	-10.5764
▁일본인	-10.5765
꽃	-10.5766
N	-10.577
사실	-10.5771
▁욕이	-10.5773
as	-10.5783
▁기대한	-10.5785
있습니다	-10.5789
▁이상하다	-10.5792
주제	-10.5792
▁재밌게봤어요	-10.5795
▁코믹영화	-10.5799
▁힘을	-10.5799
▁최악의영화	-10.5802
▁충분한	-10.5809
않은	-10.581
▁두시간	-10.5812
▁이제는	-10.5816
▁본것	-10.582
았어요	-10.5821
▁미녀	-10.5823
▁가시	-10.5824
텐	-10.5826
▁팬들	-10.5833
▁글을	-10.5835
▁노인	-10.5837
▁말고는	-10.5838
▁슬	-10.5839
지루하고	-10.584
본적	-10.5845
▁읽는	-10.585
▁철학적	-10.5851
▁되야	-10.5853
▁됐다	-10.5856
▁정도는	-10.5857
▁프랑스영화	-10.5859
였을	-10.586
잡고	-10.5862
낀	-10.5863
▁슬픈영화	-10.5864
았으면	-10.5867
닷	-10.5868
▁늙어	-10.5868
▁살렸다	-10.5868
▁시종일관	-10.5868
혔	-10.5868
▁여러모로	-10.5868
▁닥치고	-10.5868
▁한효주	-10.5868
▁킬러	-10.5868
▁미스캐스팅	-10.5868
▁레옹	-10.587
아니고	-10.587
았지만	-10.587
▁오로지	-10.5871
▁말인가	-10.5872
▁로망	-10.5874
▁대학	-10.5874
구리	-10.5878
al	-10.5879
▁최고라고	-10.5879
▁그런거	-10.5881
성과	-10.5882
▁키스	-10.5884
▁장난하나	-10.5884
▁아련하	-10.5885
▁살아있는	-10.5887
▁16	-10.5891
▁멋졌	-10.5892
▁입장에서	-10.5894
나보다	-10.5894
▁가짜	-10.5895
안에서	-10.5897
▁우린	-10.59
라는게	-10.5905
못해	-10.5907
▁캐스팅이	-10.5909
▁우선	-10.5911
▁옛날영화	-10.5912
▁직	-10.5915
▁감명	-10.5918
느냐	-10.5919
▁완벽하다	-10.5919
▁지키	-10.592
▁것인가	-10.5925
어여	-10.5925
▁말밖에	-10.5925
▁땡	-10.5927
▁방해	-10.593
미화	-10.5931
▁17	-10.5933
▁삶과	-10.5933
다르	-10.5936
▁전편보다	-10.594
▁만화영화	-10.5941
수준이	-10.5946
▁캐릭터도	-10.595
▁네티즌	-10.5951
빼곤	-10.5953
프로그램	-10.5954
거에요	-10.5955
▁칠	-10.5956
면에서	-10.5957
▁세월이	-10.5957
▁세상에서	-10.5964
50	-10.5971
▁보지마셈	-10.5971
▁돈아까워	-10.5972
전혀	-10.5976
▁별로였다	-10.5976
기술	-10.5978
물로	-10.5978
▁몬	-10.5979
받아	-10.5981
▁천사	-10.5981
인게	-10.5982
하고싶은	-10.5984
오르	-10.5986
▁끝을	-10.5989
▁범죄자	-10.599
ᄏᄏᄏᄏᄏᄏᄏᄏᄏᄏᄏᄏ	-10.5992
▁예술이	-10.5993
작이라	-10.5995
트가	-10.5998
▁아니잖아	-10.6006
▁선동	-10.6017
▁느껴지지	-10.6017
▁드라마중	-10.6018
▁안나온다	-10.6031
쩜	-10.6031
하고싶다	-10.6032
웨	-10.6033
려다가	-10.6033
버전	-10.6034
란다	-10.604
▁사람에게	-10.6042
▁살리지	-10.6044
싫어	-10.6044
렉	-10.6046
스러워	-10.6047
▁만들다	-10.6047
▁빠른	-10.6048
▁아이들의	-10.6049
▁아마추어	-10.605
됫	-10.605
▁강동원	-10.605
▁바탕으로	-10.605
▁섬뜩	-10.605
▁떡밥	-10.605
▁혁명	-10.6051
▁직업	-10.6052
▁난해한	-10.6053
▁오래전에	-10.6053
외로	-10.6053
외에는	-10.6054
▁말씀	-10.6058
곳에	-10.6059
▁조낸	-10.6061
▁하며	-10.6061
▁모욕	-10.6063
▁매번	-10.6068
▁쿨	-10.6068
▁당장	-10.607
▁재방	-10.607
▁승부	-10.6072
신분들	-10.6073
▁욕먹	-10.6075
▁충분하다	-10.6077
였구나	-10.6079
자들의	-10.608
▁x	-10.6082
▁모르겠네	-10.6084
▁사랑스럽고	-10.6085
느니	-10.6085
▁잼있네요	-10.6087
▁산만하고	-10.6087
아라	-10.6088
▁억지스럽고	-10.6089
▁김수현	-10.6089
▁뭐여	-10.6094
보게되	-10.6095
▁영화네	-10.6101
놨네	-10.6102
▁비교해	-10.6102
▁아기	-10.6108
!!!!!!	-10.6109
▁백인	-10.6109
▁발음	-10.6111
같지	-10.6113
로우	-10.6115
▁받았다	-10.6116
▁신이	-10.6125
▁들게	-10.6126
꺼면	-10.613
치면	-10.6132
▁긴장감을	-10.6134
▁단점	-10.6134
▁예수	-10.6138
▁멋져	-10.6138
즐	-10.6139
ᄇ	-10.614
휘	-10.614
▁안나오는	-10.614
R	-10.6141
▁현실은	-10.6141
버스	-10.6142
▁났다	-10.6144
▁재미없네요	-10.6148
관람	-10.6155
놀이	-10.6155
▁주연배우	-10.6157
▁시리즈의	-10.616
허무	-10.616
재미없어	-10.6165
▁스릴러물	-10.6165
▁솔직	-10.6167
▁죽인	-10.6167
▁미소가	-10.6169
▁하다니	-10.6169
떨어진	-10.6171
▁인내심	-10.6174
▁중년	-10.6175
당하고	-10.6179
▁당신의	-10.618
귀신	-10.6183
▁수준을	-10.6184
으로만	-10.6185
▁역사상	-10.6187
▁이해도	-10.6187
▁진짜로	-10.6191
▁잘해	-10.6192
▁흥미를	-10.6192
▁만들어라	-10.6197
지루하다	-10.6197
하더니	-10.6202
살때	-10.6204
▁버린	-10.6204
▁할때	-10.6205
▁어쩌다	-10.6209
▁준비	-10.6209
▁코드	-10.6209
점으로	-10.6209
▁흘리	-10.6209
▁보아도	-10.6216
▁이도저도	-10.6216
▁아이유	-10.6218
▁사랑하고	-10.6218
▁상황이	-10.6218
쩌	-10.6219
▁조금만	-10.622
▁보는것	-10.6225
되길	-10.6225
시대에	-10.6226
▁소년	-10.6227
▁혐오	-10.6231
능력	-10.6232
ᅩ	-10.6234
▁영화인줄	-10.6234
핀	-10.6235
▁빕니다	-10.6235
▁표현이	-10.6235
▁두고두고	-10.6236
▁배꼽	-10.6237
▁똑같이	-10.6239
▁감동적이에요	-10.6239
▁풀어낸	-10.6243
도좋고	-10.6245
▁권력	-10.6245
▁울었어요	-10.6245
죽는	-10.6246
비추	-10.6247
▁왔습니다	-10.6247
▁개똥	-10.6248
모르고	-10.6249
▁한심하다	-10.6253
▁못하겠다	-10.6254
▁좋으나	-10.6254
▁상황을	-10.6257
▁흥분	-10.6259
▁부산	-10.626
앉	-10.626
▁나아	-10.6263
특집	-10.6266
▁보단	-10.6267
▁짜리	-10.6267
믿	-10.6269
▁낮은지	-10.6277
살인	-10.6278
▁기대가	-10.628
▁유발	-10.6282
▁비현실적	-10.6284
리아	-10.6284
▁원숭이	-10.6291
만듬	-10.6293
남아	-10.6294
더군	-10.6295
▁니가	-10.6296
봐야지	-10.63
▁심하다	-10.6302
이었어요	-10.6302
▁올라가	-10.6305
▁좋아하지만	-10.6305
▁맞추	-10.6314
▁나음	-10.6315
▁추천하고	-10.6315
투성이	-10.6321
▁보기가	-10.6323
같아서	-10.6325
▁잔인함	-10.6329
▁것들	-10.6332
최고다	-10.6333
트로	-10.6333
춤	-10.6333
졸작	-10.6334
하나도	-10.6335
경찰	-10.6336
▁무서움	-10.6351
▁관심이	-10.6353
▁넣어	-10.6355
▁맞다	-10.6355
▁후하게	-10.6357
행복	-10.6358
바라	-10.636
▁나머지는	-10.6362
▁이것보다	-10.6364
형제	-10.6366
었을까	-10.6366
▁봉	-10.6367
아까운	-10.6369
아쉽	-10.6369
▁했을까	-10.6369
▁아동	-10.6372
▁보여줄	-10.6372
▁쩌	-10.6373
점이나	-10.6373
▁든	-10.6378
▁믿어	-10.6378
▁J	-10.6379
려요	-10.6383
▁보고싶어	-10.6388
깝	-10.639
▁실사	-10.6393
▁구성도	-10.6397
▁쩔	-10.6403
▁무료	-10.6403
▁보고있는데	-10.6403
빠르	-10.6406
웠음	-10.6409
▁아파	-10.641
애가	-10.6412
윈	-10.6413
▁관련	-10.6414
▁is	-10.6418
▁족	-10.6422
뚱	-10.6423
▁즐거움	-10.6424
퀸	-10.6424
▁엔딩크레딧	-10.6424
▁유치찬란	-10.6424
넬	-10.6424
솜	-10.6424
▁마찬가지	-10.6424
효과	-10.6424
▁온갖	-10.6424
▁ᄌᄂ	-10.6424
▁극혐	-10.6425
▁그럴싸	-10.6425
스토	-10.6425
com	-10.6427
▁의도는	-10.6427
▁시험	-10.6427
▁재앙	-10.6428
하러	-10.6428
▁방향	-10.6428
▁다른영화	-10.6429
리스트	-10.6431
▁모자라	-10.6432
▁김혜수	-10.6434
▁비록	-10.6435
▁개꿀잼	-10.6435
▁세계관	-10.6436
▁땐	-10.6436
▁웃었다	-10.6437
▁한가지	-10.644
▁쉬운	-10.6442
부리	-10.6444
재밋다	-10.6445
▁커서	-10.6452
▁조잡한	-10.6454
▁한동안	-10.6456
▁눈으로	-10.6459
▁전기	-10.6461
▁몰아	-10.6462
▁화질	-10.6462
▁나열	-10.6466
▁고문	-10.6466
▁아까워서	-10.6467
▁뻔하다	-10.6467
당신	-10.6467
었구나	-10.6468
80	-10.6468
▁행복하게	-10.6471
▁부인	-10.6473
▁무섭게	-10.6476
▁스파이더맨	-10.6481
타임	-10.6485
▁캐릭	-10.6486
못한	-10.6486
▁신화	-10.6491
미친	-10.6492
▁찾기	-10.65
됩니다	-10.6504
▁망쳐놓	-10.6507
주고싶	-10.6508
▁전개는	-10.6512
판이	-10.6515
▁후반부에	-10.6521
▁민족	-10.6521
▁남는게	-10.6522
▁부탁	-10.6522
▁넘어서	-10.6524
여배우	-10.6526
▁밑	-10.6527
▁사라지	-10.6528
맹	-10.6529
치기	-10.653
뻔했다	-10.6531
▁수록	-10.6531
판타지	-10.6531
TV	-10.6532
다니는	-10.6537
▁줄이야	-10.6539
▁귀여웠	-10.6539
결국	-10.6539
▁완성	-10.6544
▁영화라서	-10.6547
생김	-10.6556
이랄까	-10.6563
알아	-10.6567
여행	-10.657
ᄃᄃᄃ	-10.6571
하길래	-10.6572
수밖에	-10.6574
자꾸	-10.6578
▁서양	-10.6578
므	-10.6584
▁공포가	-10.6596
▁짱이다	-10.6599
▁연기잘하	-10.6605
▁to	-10.6607
▁한시간	-10.6608
▁부분은	-10.6609
▁높이	-10.661
방에서	-10.661
▁공주	-10.6611
쿵	-10.6614
▁킬링	-10.6616
뜸	-10.6616
▁안타까움	-10.6616
▁감성팔이	-10.6616
로서는	-10.6617
▁슈퍼맨	-10.6618
스티	-10.662
▁영화라지만	-10.6621
▁에라이	-10.6622
▁4.44	-10.6623
▁마냥	-10.6625
▁몇년	-10.6625
▁만점에	-10.6625
▁괜찮았던	-10.6625
▁화려하	-10.6625
히는	-10.6627
▁자연스럽게	-10.6627
▁지옥	-10.6628
ut	-10.6629
보려	-10.6631
▁얘	-10.6632
▁스포	-10.6633
▁이만한	-10.6634
갈때	-10.6639
▁기발한	-10.6639
▁언어	-10.6641
▁고증	-10.6643
▁로맨틱코미디	-10.6643
▁주온	-10.6646
▁완벽하게	-10.6648
▁여기에	-10.6649
▁웃겼다	-10.6652
▁남아있	-10.6653
▁배우들을	-10.6656
리즈	-10.6657
▁학생들	-10.6658
▁티비로	-10.6662
제일	-10.6663
▁보게되는	-10.6666
▁글고	-10.6668
▁잔잔함	-10.667
▁만드네	-10.6672
둥이	-10.6675
▁중심	-10.668
▁이거보단	-10.6683
▁액션만	-10.6688
▁싱	-10.669
▁니들이	-10.6691
▁했으나	-10.6693
▁하세요	-10.6694
▁살아남	-10.6696
▁아쉬워요	-10.6702
재밌고	-10.6703
▁했는지	-10.6704
▁오지	-10.6707
▁원작과	-10.6708
해줄	-10.6709
▁웃을	-10.6712
▁될수	-10.6716
▁일반인	-10.672
줘야지	-10.6725
썼	-10.6726
튀	-10.6731
얼마나	-10.6732
▁재밋는	-10.6732
학생	-10.6732
▁마시	-10.6736
싫	-10.6737
▁하기엔	-10.6741
▁버려	-10.6741
심이	-10.6742
났음	-10.6743
▁짤	-10.6743
▁잘생겼	-10.6747
▁건가	-10.6747
▁제작자	-10.6748
빠진	-10.6748
▁했나	-10.6753
▁돌아보게	-10.6754
▁인생영화	-10.6755
▁별점이	-10.6755
▁하도	-10.6756
▁루즈	-10.6759
▁담고	-10.676
▁싶습니다	-10.6763
▁r	-10.6764
치고는	-10.6765
렵	-10.6767
분들은	-10.6768
하하하하	-10.6771
▁조잡	-10.6772
..............	-10.6773
▁이라는	-10.6773
▁끝날	-10.6774
▁필요가	-10.6775
스크	-10.6775
피디	-10.6777
▁오는	-10.6778
▁아니라면	-10.6783
것만으로도	-10.6784
▁평을	-10.6785
▁끔	-10.679
보셈	-10.6791
맘에	-10.6793
▁실망이다	-10.6793
▁여자를	-10.6793
ᄏᄏᄏᄏᄏᄏ	-10.6798
▁이영화의	-10.6801
닮	-10.6802
개가	-10.6803
낭	-10.6805
▁느끼고	-10.6805
▁제작비가	-10.6808
랭	-10.681
▁영화보다가	-10.6811
▁나왔던	-10.6811
▁껐다	-10.6812
▁오랫동안	-10.6812
띠	-10.6812
▁머릿속	-10.6812
▁피아노	-10.6812
▁애초에	-10.6812
▁공간	-10.6812
▁전성기	-10.6813
▁미스테리	-10.6813
▁케빈	-10.6813
▁상큼	-10.6813
▁웃음을	-10.6814
▁바닥	-10.6815
▁닮았	-10.6815
리오	-10.6815
▁얻어	-10.6817
▁우는	-10.6817
▁음악은	-10.6817
▁힘들어	-10.6818
분짜리	-10.6818
▁사이코	-10.6819
▁들지	-10.6819
▁태국	-10.682
해지고	-10.6821
▁털	-10.6823
▁감동적입니다	-10.6823
▁몰입도도	-10.6829
▁없던	-10.6832
▁앞에서	-10.6833
▁극본	-10.684
▁성룡의	-10.6841
속으로	-10.6844
▁괜찮네요	-10.6846
▁있었음	-10.6846
▁또라이	-10.6847
▁관객이	-10.6849
▁명성에	-10.685
구역	-10.6855
▁채워	-10.6855
안되고	-10.6855
▁느껴졌다	-10.6856
▁필요한가	-10.6856
▁느껴질	-10.6856
▁매주	-10.6859
▁배우분들	-10.6859
▁거기	-10.6862
그대로	-10.6864
있었던	-10.6868
▁예고	-10.6872
▁낚인	-10.6873
▁외국인	-10.6877
마저도	-10.6878
해야할	-10.6879
▁짱구	-10.6879
▁타임	-10.6881
주기도	-10.6883
빠져	-10.6886
▁본격	-10.6886
▁본능	-10.6889
▁가족을	-10.689
▁일을	-10.6896
답다	-10.6897
▁가야	-10.6903
놈은	-10.6905
▁거슬	-10.6906
▁들어서	-10.6907
▁빠져들게	-10.6907
▁무기	-10.6908
▁정리	-10.6913
▁엔	-10.6916
아버지	-10.6922
▁해외	-10.6922
▁무엇이	-10.6923
연기를	-10.6924
거든	-10.6926
▁드라마로	-10.6931
▁눈치	-10.6932
▁뛰어넘	-10.6936
▁알게되	-10.6938
▁딸이	-10.6941
▁오해	-10.6942
▁심오	-10.6945
병맛	-10.6946
저런	-10.6946
▁짧	-10.6948
지루해	-10.6952
자면	-10.6953
▁드러	-10.6955
개는	-10.6957
▁알려주는	-10.6958
▁오그라들	-10.6959
편집	-10.6962
왔던	-10.6964
이후로	-10.6964
분정도	-10.6968
▁알아야	-10.6969
▁이상은	-10.6971
과정	-10.6972
▁아무나	-10.6975
▁전율	-10.6977
▁도와	-10.6981
▁익숙	-10.6981
▁지루함을	-10.6981
메이	-10.6986
▁독립	-10.6988
▁제목에	-10.6989
▁버렸다	-10.699
들이나	-10.6998
▁허허	-10.6999
▁벽	-10.7004
▁추가	-10.7006
아쉬웠	-10.701
덩	-10.7012
쟈	-10.7012
▁고등학생	-10.7012
▁세련된	-10.7012
▁뒤늦게	-10.7012
▁한석규	-10.7012
깃	-10.7012
▁김희선	-10.7012
▁원피스	-10.7012
▁데이빗	-10.7012
마리	-10.7012
▁오그라드는	-10.7013
▁바란다	-10.7015
▁자연스러운	-10.7016
vs	-10.7016
▁억지스런	-10.7018
깐	-10.7019
▁영상은	-10.702
▁의미도	-10.702
▁음향	-10.7021
있는영화	-10.7021
▁불쌍해	-10.7024
▁만들어주	-10.7025
▁처음본다	-10.7026
내려	-10.7026
▁복선	-10.7026
▁괜찮아	-10.703
▁그대	-10.7031
▁절대로	-10.7032
▁성인이	-10.7036
함은	-10.7037
▁구분	-10.7043
▁안보면	-10.7044
▁화끈한	-10.7047
했어도	-10.7048
▁보고싶은데	-10.7048
보소	-10.705
▁웃겨서	-10.7051
▁엄정화	-10.7056
▁해야지	-10.7056
▁쓰러	-10.7056
달라	-10.7057
분들께	-10.7058
▁밋밋한	-10.706
ic	-10.706
▁해준다	-10.7064
▁의미있는	-10.7064
▁녹	-10.7067
떨어지	-10.7069
▁젊	-10.707
▁사라	-10.7071
▁편하게	-10.7072
히고	-10.7076
▁막상	-10.7077
▁개념	-10.7079
동화	-10.7079
ch	-10.7085
▁역작	-10.7085
역사	-10.7085
학년때	-10.7085
▁죽었	-10.7091
▁있냐	-10.7092
▁열라	-10.7107
▁사과	-10.7109
▁흑	-10.7109
▁부족하고	-10.7111
▁남자는	-10.7113
모를	-10.7114
▁멋짐	-10.7117
물론	-10.7122
▁사실이	-10.7122
나왓	-10.7123
긴했지만	-10.7126
▁감독에게	-10.7126
건만	-10.7133
▁잼있는	-10.7134
▁드라마에	-10.7134
▁높지	-10.7138
▁위험	-10.7138
▁엉망이	-10.7138
▁멋있고	-10.7139
멀	-10.714
▁길을	-10.714
K	-10.7143
▁커버	-10.7143
▁모든것이	-10.7143
▁그이상	-10.7144
틈	-10.7144
댓글	-10.7144
바로	-10.7145
▁폼	-10.7146
▁센스	-10.7149
같애	-10.7151
▁젖	-10.7155
나면	-10.716
▁한사람	-10.7162
▁미쳐	-10.7166
재밋음	-10.7167
것들이	-10.7178
▁나오기	-10.718
▁안나옴	-10.7181
보려고	-10.7182
나올때	-10.7187
▁무협영화	-10.7187
▁대박이다	-10.719
▁만들기	-10.7197
되게	-10.7198
더라고요	-10.7198
▁쌍	-10.7199
야말로	-10.7199
▁의해	-10.7199
줘요	-10.72
조아	-10.7201
▁듣는	-10.7202
▁느낀다	-10.7206
들끼리	-10.7208
▁어째	-10.721
제가	-10.7213
▁늑대	-10.7216
펜	-10.7216
쩍	-10.7216
▁늙은	-10.7216
▁런닝타임	-10.7216
▁봤고	-10.7216
▁짬뽕	-10.7216
▁크레딧	-10.7216
▁호불호가	-10.7216
뚫	-10.7216
▁스페인	-10.7216
▁테이큰	-10.7216
▁설경구	-10.7216
▁완젼	-10.7216
▁수면제	-10.7217
▁제시카	-10.7217
▁2015	-10.7219
▁찬양	-10.7219
▁치밀	-10.722
▁재탕	-10.7223
▁진부하	-10.7223
▁시골	-10.7224
▁환장	-10.7224
▁거짓	-10.7229
▁재밌었습니다	-10.7229
▁히어로물	-10.7233
▁성형	-10.7233
▁채우	-10.7235
▁얘기를	-10.7236
졌음	-10.7236
▁모습에	-10.7237
▁시체	-10.724
버렸네	-10.724
▁답답해	-10.7246
▁최고에요	-10.7247
▁않습니다	-10.7247
▁후속편	-10.7248
▁주인공들이	-10.7248
밖	-10.7249
▁모방	-10.725
▁완성도가	-10.7251
셔서	-10.7256
▁있겠지만	-10.7256
▁당연한	-10.7256
▁안감	-10.7257
할려고	-10.7257
▁하자	-10.726
▁생각만	-10.726
알고	-10.7261
들한테	-10.7262
▁시청자들	-10.7263
▁현실적이고	-10.7266
판을	-10.727
▁니네	-10.7271
▁기타	-10.7273
▁봐줄만	-10.7273
▁문제를	-10.7281
▁제대로된	-10.7285
▁정체성	-10.7287
▁잔잔	-10.7287
▁낮네요	-10.7288
차원	-10.7288
▁그럴듯	-10.7289
▁상업영화	-10.7296
▁활	-10.7296
▁상처를	-10.73
▁최고최고	-10.7302
믿고	-10.7305
구먼	-10.7311
▁시리즈를	-10.7314
▁했습니다	-10.7323
▁메이	-10.7323
▁불가	-10.7324
▁집중도	-10.7329
▁꿈과	-10.733
▁현실적이	-10.7332
▁남아있는	-10.7333
어디	-10.7338
는것이	-10.7339
▁정부	-10.7342
▁조용	-10.7343
▁충격이	-10.7345
▁설정은	-10.735
▁살아있	-10.7351
▁광기	-10.7352
땡	-10.7355
▁간지	-10.7357
CG	-10.7357
▁의한	-10.7359
웠던	-10.7361
다운받	-10.7362
어떤	-10.7363
▁물어	-10.7363
............	-10.737
▁받아야	-10.7373
▁되서	-10.7375
▁생각은	-10.7375
▁액션물	-10.738
▁가족과	-10.738
벗	-10.738
달라고	-10.7382
같은데	-10.7383
소름	-10.7384
▁한숨	-10.7386
▁지나가	-10.7391
▁공포는	-10.7393
▁역사적	-10.7394
올려	-10.7394
▁오랜	-10.7398
▁ᄏᄏᄏᄏᄏᄏᄏᄏᄏ	-10.7399
그런데	-10.7403
녀석	-10.7405
▁기억나	-10.7409
아오	-10.7411
엑	-10.7415
▁첩보	-10.7415
하는듯	-10.7417
▁두명	-10.7417
중국	-10.7421
냄	-10.7423
홈	-10.7424
▁흘렸	-10.7424
ᄊ	-10.7424
▁겨울왕국	-10.7424
▁박찬욱	-10.7424
믄	-10.7424
츄	-10.7424
▁그냥저냥	-10.7424
▁손예진	-10.7424
▁나루토	-10.7424
뱀	-10.7424
▁픽션	-10.7424
▁어딘가	-10.7424
▁드니로	-10.7424
▁가까이	-10.7426
스카	-10.7426
▁생존	-10.7427
거같아	-10.7428
▁새삼	-10.7429
▁심장이	-10.7431
됬다	-10.7433
▁여태	-10.7434
▁구조	-10.7435
점주기도	-10.7437
보러	-10.7439
▁마블	-10.7439
하기는	-10.7439
▁안가는	-10.7441
▁초반엔	-10.7442
▁개인적인	-10.7442
▁락	-10.7443
▁영화인것	-10.7444
어쩌	-10.7445
▁회상	-10.7446
▁미학	-10.7446
▁봐주	-10.7447
▁감정선	-10.7447
돈이	-10.7448
▁기대된다	-10.7451
▁한다고	-10.7452
▁바라는	-10.7455
▁파이	-10.7458
▁사람과	-10.7458
▁본건	-10.7461
▁아이를	-10.7461
끝나고	-10.7461
▁원조	-10.7462
▁않아요	-10.7467
▁이런식으로	-10.7469
▁애니매이션	-10.747
성우	-10.7471
▁두개	-10.7471
▁보기싫	-10.7473
▁전율이	-10.7474
회부터	-10.7474
▁멜로영화	-10.7476
▁재수없	-10.7479
▁지경	-10.7479
돋	-10.7479
을뿐	-10.7479
▁죽음을	-10.7482
든가	-10.7483
▁기대했던	-10.7483
▁점에서	-10.7484
.............	-10.7484
실화	-10.7487
▁만들었으면	-10.7491
??????	-10.7494
여주인공	-10.7501
▁대사도	-10.7505
▁간직	-10.7505
▁난해하	-10.7505
▁감성을	-10.7506
▁회사	-10.7506
▁뺏	-10.7506
하지않고	-10.7506
▁과정이	-10.7508
▁첨으로	-10.7508
▁스릴감	-10.7514
드네요	-10.7517
찡	-10.7518
▁나오네요	-10.752
▁호흡	-10.7521
▁즐겨	-10.7523
영화제	-10.753
것같음	-10.7531
▁되었습니다	-10.754
될까	-10.7541
너무나	-10.7543
▁99	-10.7547
▁좋더라	-10.7551
▁즐거웠	-10.7557
없지	-10.7561
형사	-10.7561
만원	-10.7562
▁걸까	-10.7562
붕	-10.7563
▁중독	-10.7568
▁나니	-10.7572
영화보다	-10.7573
▁믿는	-10.7573
덕분에	-10.7574
넘치는	-10.7574
그나마	-10.7574
레스	-10.7576
▁여자들이	-10.7579
▁연주	-10.7581
▁게스트	-10.7582
▁말아먹	-10.7584
▁이영화에	-10.7587
▁취향이	-10.7591
▁만들어야	-10.7594
▁정체	-10.7594
▁너무하네	-10.7595
▁대결	-10.7598
▁성의	-10.7599
▁스토리나	-10.76
아닌데	-10.7602
하려면	-10.7604
▁옆에	-10.7605
볼때	-10.7605
겨울	-10.7607
▁이하도	-10.7608
▁긴장감과	-10.7613
▁분위기는	-10.7617
으시	-10.7619
것같아	-10.762
ost	-10.762
▁모양	-10.7623
게만드는	-10.7628
▁적은	-10.763
▁봐야한다	-10.7634
▁귀신이	-10.7635
탱	-10.7636
듦	-10.7636
램	-10.7637
▁듭니다	-10.7637
▁봤나	-10.7637
▁송승헌	-10.7637
▁아이언맨	-10.7637
▁영웅본색	-10.7637
▁2.22	-10.7637
▁팝콘	-10.7637
▁흥미롭게	-10.7637
쇄	-10.7637
▁정주행	-10.7637
▁오페라	-10.7637
▁외로움	-10.7637
▁아바타	-10.7637
▁왕가위	-10.7637
▁전개에	-10.7639
시키지	-10.7641
▁담겨	-10.7641
그저	-10.7642
▁허구	-10.7644
▁삐	-10.7645
맞아	-10.7646
▁경악	-10.7646
▁가장한	-10.7649
▁심각하게	-10.7649
않음	-10.7649
▁멋져요	-10.7655
▁동화같은	-10.7657
▁점이	-10.7657
▁깜	-10.7659
▁감동적이었다	-10.766
▁레오	-10.7662
▁귀여워서	-10.7662
누구	-10.7664
▁만들었냐	-10.7664
▁와서	-10.7665
▁또보고싶	-10.7667
분들이	-10.7668
▁구경	-10.767
판에	-10.7671
▁아버지가	-10.7671
▁튀	-10.7671
복수	-10.7672
▁강추합니다	-10.7672
겠는가	-10.7676
▁러닝타임이	-10.7678
▁진부하다	-10.7678
▁흉내내	-10.7679
▁포함	-10.7681
▁작품이라	-10.7683
▁권상우	-10.7684
▁약한	-10.7684
▁어린아이	-10.7685
▁스토리로	-10.7686
낮은	-10.7688
▁안되네	-10.769
▁망가	-10.7693
▁일본에서	-10.7696
위주	-10.7698
▁욕을	-10.7699
▁이딴거	-10.77
▁편인데	-10.77
▁지겨워	-10.7703
▁잊지못할	-10.7703
▁우리에게	-10.7703
▁애정	-10.7705
명을	-10.7706
돌려	-10.7706
편과	-10.7708
스틱	-10.7708
▁벌어	-10.7711
좀비	-10.7714
▁차승원	-10.7715
삼류	-10.7717
▁머냐	-10.7718
수작	-10.7721
▁전라도	-10.7722
▁머야	-10.7722
▁걸작이다	-10.7723
▁재밌지	-10.7724
대고	-10.7725
▁대역	-10.7725
▁애니는	-10.7726
▁당황	-10.7726
에휴	-10.7736
주시	-10.7737
▁다름	-10.7741
▁공룡	-10.7742
▁나한테	-10.7752
▁세월	-10.7753
같네요	-10.7767
주네	-10.7772
▁못했던	-10.7775
▁전설이	-10.7775
▁연습	-10.7777
av	-10.7778
▁억지스럽	-10.7778
네유	-10.7781
▁줘	-10.7783
▁이렇게까지	-10.7783
▁반감	-10.7785
▁25	-10.7786
▁남자들	-10.7788
없었다	-10.7791
떼	-10.7795
분도	-10.7796
시청률	-10.7796
▁내용전개	-10.7797
▁이딴게	-10.7797
예술	-10.7798
초딩	-10.7799
sh	-10.7802
▁싶다면	-10.7803
▁명작임	-10.7804
보지마세요	-10.7804
▁삶은	-10.7807
레기	-10.7811
▁먹어	-10.7817
▁창피	-10.7818
▁참여	-10.7823
▁아름답	-10.7824
아무	-10.7831
거니	-10.7831
충격	-10.7833
▁예측	-10.7834
▁긴장감은	-10.7835
▁싶음	-10.7836
여운	-10.7838
하겠지만	-10.784
▁앉아	-10.784
▁알려주	-10.7842
▁걸로	-10.7842
▁아픔	-10.7843
▁쫓	-10.7843
▁동심	-10.7845
까지도	-10.7849
표정	-10.7851
▁허나	-10.7852
여자가	-10.7853
옳	-10.7853
웟	-10.7854
▁군더더기	-10.7854
▁도라에몽	-10.7854
▁스필버그	-10.7854
▁엉망진창	-10.7854
▁점수준것들	-10.7854
▁다이하드	-10.7854
▁구혜선	-10.7854
▁최민수	-10.7855
▁나머진	-10.7855
▁심리묘사	-10.7855
▁람보	-10.7856
남매	-10.7856
땜시	-10.7857
▁유행	-10.7858
▁밝혀	-10.7858
▁웃으며	-10.7859
▁보낸다	-10.7859
▁커피	-10.786
▁진실을	-10.7861
▁치료	-10.7861
▁과장된	-10.7862
▁자세	-10.7862
▁반응	-10.7863
▁택시	-10.7864
▁아깝습니다	-10.7865
▁번역	-10.7866
▁일찍	-10.7868
▁미안해	-10.7869
▁웃다가	-10.787
▁어설프게	-10.7872
▁힘들었다	-10.7874
▁영상미도	-10.7875
▁남기는	-10.7876
괜찬	-10.7878
▁현실에	-10.7879
▁훈훈	-10.7879
▁공연	-10.788
▁밝	-10.788
많고	-10.7881
▁인연	-10.7885
▁말해	-10.7885
▁오직	-10.7887
▁결국엔	-10.7887
▁여유	-10.7889
▁경우	-10.789
▁결국은	-10.7891
하나요	-10.7896
조차도	-10.7899
▁정석	-10.79
▁주고싶다	-10.7902
▁이전	-10.7904
눈물이	-10.7907
▁어차피	-10.7908
▁갖게	-10.7908
▁좋아하지	-10.791
할정도로	-10.791
년간	-10.791
▁씁쓸	-10.7911
▁훈훈하고	-10.7914
▁사람만	-10.7915
▁말았다	-10.7916
▁뜬금없	-10.7917
▁외면	-10.7917
기억이	-10.7919
▁지금보면	-10.7925
심한	-10.7931
▁주인공들의	-10.7933
▁헉	-10.794
▁인식	-10.7944
뛰	-10.7946
▁나올까	-10.7947
▁주세요	-10.7947
▁안봐서	-10.7949
주고싶은	-10.795
▁영상미와	-10.795
▁손가락	-10.7951
낫다	-10.7952
▁몰입하게	-10.7953
▁자위	-10.7954
하였다	-10.7956
▁엔딩은	-10.7959
▁후반부로	-10.7959
▁찍을	-10.7959
이기에	-10.7962
▁이어지는	-10.7965
▁보구	-10.7965
▁싫은	-10.7965
▁허접하고	-10.7968
보여주	-10.797
▁마니	-10.7971
아까운영화	-10.7976
▁어우	-10.7977
▁영환	-10.7977
▁즐길	-10.7979
▁추억을	-10.7981
▁다시봤는데	-10.7981
평론가	-10.7981
▁만드냐	-10.7982
점대가	-10.7983
으러	-10.7984
결말이	-10.7985
▁안봄	-10.7987
▁최고인듯	-10.7989
▁캐리	-10.799
▁성적	-10.7991
스탈	-10.7992
세여	-10.7992
낚	-10.7999
빠지	-10.8001
부를	-10.8002
꼽	-10.8006
▁면이	-10.8007
▁아직까지도	-10.8011
야겠다	-10.8013
▁필요하다	-10.8013
▁느껴졌	-10.8013
▁싫어하는	-10.8014
봣다	-10.8015
멍	-10.8017
뉴	-10.8018
▁장르를	-10.8018
쩝	-10.8023
▁되면	-10.8025
쥬	-10.8026
▁검색해	-10.8026
잇엇	-10.8027
▁면에서	-10.8028
▁드라마다	-10.8029
▁보이고	-10.803
▁많네	-10.8031
▁대사와	-10.8032
▁이런것도	-10.8035
▁고어	-10.8039
▁봤었	-10.804
보신분	-10.8041
는건가	-10.8044
▁최고인	-10.8046
조연	-10.8048
▁음악을	-10.8049
▁울어	-10.8051
▁우울한	-10.8056
줄알았는데	-10.8059
듣고	-10.8062
▁뛰	-10.8065
▁가슴아프	-10.8066
장에서	-10.8066
프라	-10.8068
진행	-10.8071
▁재밋고	-10.8072
▁않으	-10.8072
밋	-10.8072
컴	-10.8076
쌓	-10.8076
▁가볍지	-10.8077
▁싸이코패스	-10.8077
▁카메론	-10.8077
얄	-10.8077
▁김명민	-10.8077
▁깨달음	-10.8077
▁지극히	-10.8077
스러울	-10.8077
▁멘탈	-10.8077
▁흥미롭지	-10.8077
▁컬트	-10.8077
▁커녕	-10.8077
▁소리가	-10.8078
듣	-10.8079
ᄏᄏᄏᄏᄏᄏᄏ	-10.808
다보니	-10.808
▁욕나온다	-10.808
▁될듯	-10.808
▁패션	-10.8081
▁낮추	-10.8082
▁흥미진진한	-10.8083
▁국산	-10.8085
▁공허	-10.8086
▁소품	-10.8087
▁예뻐서	-10.8088
▁향한	-10.8088
▁날리	-10.8089
▁기억난다	-10.809
웃긴	-10.809
▁이루어	-10.8091
▁모순	-10.8091
▁하하하	-10.8093
▁우승	-10.8095
▁본듯한	-10.8096
김구라	-10.8097
▁비해서	-10.8098
▁로마	-10.8098
▁go	-10.8099
▁못따라	-10.81
▁알지	-10.8102
말도	-10.8103
▁영화제목	-10.8104
▁보는동안	-10.8106
▁환상적	-10.8106
▁g	-10.8107
▁왔는데	-10.8107
▁이것은	-10.8113
▁불쌍해서	-10.8114
▁감성이	-10.8114
▁기법	-10.8115
한텐	-10.8116
본거	-10.8117
▁경계	-10.8119
▁영원	-10.8128
큼	-10.8131
▁중국영화	-10.8131
보기엔	-10.8137
▁메세지를	-10.8137
▁찍지	-10.8138
▁영화였는데	-10.8138
시네	-10.814
▁연상	-10.8142
▁빈약한	-10.8143
▁동감	-10.8145
입장	-10.8148
▁저급	-10.8148
모델	-10.815
있다면	-10.8151
▁바라보는	-10.8154
▁부분에서	-10.8155
▁오글거림	-10.8158
▁네이버평점	-10.816
로서의	-10.8164
▁한개	-10.8172
▁영화중에서	-10.8173
▁표정이	-10.8174
슬프	-10.8177
▁시간과	-10.8179
▁청년	-10.8182
잘못	-10.8183
입니까	-10.8184
▁알바가	-10.8188
주었다	-10.819
▁풀어내	-10.819
른다	-10.8197
인물	-10.8199
보니깐	-10.82
▁머리속	-10.8202
▁세대	-10.8202
하하	-10.8203
국민	-10.8203
▁입장	-10.8204
시장	-10.8204
▁졸잼	-10.8206
엇음	-10.8207
▁떨어져	-10.8209
▁인물들의	-10.8211
▁와닿지	-10.8211
▁뻔하	-10.8211
▁대사들	-10.8212
드리고	-10.8216
였네	-10.8218
▁최악임	-10.8219
▁싶었는데	-10.8227
싶은데	-10.8227
▁잼없다	-10.8229
버린다	-10.8231
▁씁쓸하	-10.8233
▁화가나	-10.8234
▁시대적	-10.8234
하구만	-10.8239
세상에	-10.8239
념	-10.824
▁감동입니다	-10.8242
떡	-10.8242
취향	-10.8247
샘	-10.8254
▁소재만	-10.8255
애니메이션	-10.8255
폴	-10.8255
아직	-10.8255
티비	-10.8256
갑자기	-10.8257
결혼	-10.8258
첫	-10.8258
▁아닌것	-10.8262
▁연기만	-10.8262
나오네	-10.8263
▁캐스팅은	-10.8268
▁봤지	-10.827
최악의	-10.8273
얻	-10.8277
▁본방	-10.8278
다는걸	-10.8285
껀	-10.8288
삭	-10.8288
▁하나는	-10.8289
장군	-10.8289
▁시리즈가	-10.8296
▁빠질	-10.8296
▁한줄	-10.8297
▁내시간	-10.8297
찮	-10.8298
▁초반에는	-10.8302
뜬	-10.8302
되네	-10.8303
▁봤는지	-10.8304
▁섞어	-10.8304
▁어쨌든	-10.8304
▁학창시절	-10.8304
꽁	-10.8304
삘	-10.8304
졋	-10.8304
▁간간히	-10.8304
▁소피마르소	-10.8304
▁힙합	-10.8304
쇠	-10.8304
▁웬만하면	-10.8304
▁드래곤볼	-10.8304
▁지저분	-10.8304
▁손색이	-10.8304
▁이정재	-10.8304
▁ᅲᅮ	-10.8304
▁총체적	-10.8305
▁가져다	-10.8305
▁십점	-10.8306
정도는	-10.8307
▁감이	-10.8308
▁저평가	-10.8308
하나하나	-10.8309
▁황금	-10.8309
▁열광	-10.831
▁빨간	-10.8311
▁의견	-10.8312
좋겠다	-10.8313
▁냉정	-10.8313
▁쏘우	-10.8313
▁여태까지	-10.8314
▁이야기의	-10.8316
▁중반부터	-10.8316
▁지루했음	-10.8316
▁여운도	-10.8317
▁천만	-10.8318
공부	-10.8319
▁야하지도	-10.8319
▁인권	-10.8319
▁거기서	-10.8321
▁숲	-10.8321
▁향기	-10.8322
▁감동적임	-10.8324
▁있었습니다	-10.8325
▁캐릭터는	-10.8327
▁조아	-10.833
▁노래는	-10.8331
▁당시엔	-10.8332
▁처음이네	-10.8332
▁인간적으로	-10.8335
▁끝남	-10.8337
▁영향을	-10.8339
▁이은주	-10.8339
▁법정	-10.8343
겼다	-10.8347
▁원작은	-10.8347
▁어디까지	-10.8347
▁잘하네요	-10.8348
▁에로물	-10.8354
▁기사	-10.8355
▁쥬	-10.8355
▁장소	-10.8359
▁궁금해	-10.8362
작가님	-10.8365
▁설명이	-10.8367
▁웃기지	-10.8367
▁만든건지	-10.8367
습니까	-10.8368
▁약하다	-10.837
▁이따위로	-10.837
▁보지도	-10.837
▁아픔을	-10.8372
▁시대가	-10.8373
200	-10.8374
사장	-10.8374
▁좋구	-10.8376
▁말은	-10.8376
▁틀리	-10.8378
▁고작	-10.8378
하시고	-10.8378
꺼라	-10.838
편부터	-10.8381
▁좋아했던	-10.8382
▁어울리	-10.8388
▁군인	-10.8398
▁말라	-10.8406
따구	-10.8406
▁의도를	-10.8423
▁형식	-10.8426
▁애매	-10.8427
▁영화같다	-10.843
싶네요	-10.8432
드립니다	-10.8433
▁대표	-10.8433
만들지	-10.8436
▁한국어	-10.8443
▁쪼	-10.8444
취급	-10.8446
▁안되나	-10.8447
▁여주인공의	-10.8449
▁죽는다	-10.845
▁새로	-10.8451
▁식상하다	-10.8452
▁버전	-10.8452
▁혼란	-10.8458
es	-10.8458
▁생생	-10.8466
▁자체로	-10.8469
없는데	-10.8469
▁모르겟	-10.8473
▁하나가	-10.8478
돌이	-10.8481
티가	-10.8481
▁흉내	-10.8487
▁강력	-10.8488
▁정신병	-10.849
▁돋보이	-10.8491
옛날	-10.8494
▁플	-10.8495
et	-10.8497
높아	-10.8498
죽이고	-10.8499
마무리	-10.8499
폭력	-10.8503
un	-10.8505
거같네요	-10.8506
▁뭣	-10.8511
▁틈	-10.8514
▁중학교	-10.8518
하죠	-10.8521
▁셋	-10.8521
▁깨닫	-10.8523
쩐다	-10.8524
뒤에	-10.8524
이기도	-10.8524
▁살인자	-10.8527
▁잡는	-10.8529
▁못만들	-10.853
▁이성	-10.8531
풋	-10.8536
덴	-10.8537
렛	-10.8537
▁국어책	-10.8537
▁기다렸	-10.8537
▁다크나이트	-10.8537
▁미장센	-10.8537
▁엑스맨	-10.8537
쩡	-10.8537
▁김민종	-10.8537
▁최민식	-10.8537
▁아련한	-10.8537
▁강아지	-10.8537
▁8.5	-10.8538
▁관람객	-10.8538
▁안성기	-10.8539
하는건지	-10.8539
▁말이필요없다	-10.854
▁몰락	-10.854
▁에릭	-10.854
▁시간아까워	-10.8541
▁미친듯이	-10.8541
▁신세계	-10.8544
▁재방송	-10.8545
▁등장하는	-10.8546
▁미술	-10.8551
▁믿지	-10.8552
▁뭐랄까	-10.8553
▁러브스토리	-10.8553
▁적극	-10.8554
▁이기적인	-10.8558
▁뉴스	-10.8558
▁소중하	-10.856
감은	-10.8561
▁성경	-10.8561
▁더욱더	-10.8563
▁없어도	-10.8564
▁OOOO	-10.8564
▁배울	-10.8565
▁알게된	-10.8565
▁정통	-10.8568
▁크다	-10.8569
게다가	-10.8569
노출	-10.8571
▁없애	-10.8571
▁끄는	-10.8572
▁신경쓰	-10.8573
▁순진	-10.8577
▁믿을게	-10.8578
떨어지는	-10.8582
선생님	-10.8583
▁항	-10.8587
▁애니를	-10.8592
보였다	-10.8592
호러	-10.8592
▁개소리	-10.8593
까지만	-10.8597
▁전지현	-10.8601
▁그시절	-10.8603
그때	-10.8604
▁있으	-10.8604
▁본적이	-10.8605
울리	-10.8606
겠는데	-10.861
▁남의	-10.8613
▁베일	-10.8615
▁있기	-10.8615
케이	-10.8617
집에서	-10.8617
▁익	-10.8619
▁K	-10.8621
▁아리	-10.8621
인들의	-10.8623
▁덕	-10.8626
▁부자	-10.8626
들이랑	-10.8628
▁데뷔작	-10.863
▁없으니	-10.8631
▁통해서	-10.8632
▁아이고	-10.8634
때까지	-10.8634
▁잘했다	-10.8636
이란게	-10.8637
▁이어지	-10.864
겨서	-10.8641
▁뻥	-10.8642
▁별로네요	-10.8645
▁재밋어	-10.8648
▁한계를	-10.865
▁남자배우	-10.8652
번에	-10.8653
▁흐르	-10.8655
라는데	-10.8656
▁쓰지	-10.8656
▁연기로	-10.8658
▁심오한	-10.8658
▁통쾌한	-10.8663
▁마법	-10.8666
▁제목은	-10.8666
▁지금이나	-10.8669
▁호감	-10.8674
▁반갑	-10.8674
졌으면	-10.8681
▁상영관	-10.8686
했었다	-10.8687
주고싶다	-10.8691
대체	-10.8692
▁다리	-10.8694
▁불가능	-10.8698
한국영화	-10.87
▁때는	-10.8706
거랑	-10.8706
같네	-10.8709
할수없는	-10.8709
▁길다	-10.8709
사극	-10.8712
▁자아	-10.8716
▁왔다	-10.8717
▁했어요	-10.8718
▁킬링타임용으로도	-10.8718
▁기억남	-10.872
말고는	-10.8723
▁훈훈하	-10.8724
▁때가	-10.8729
무서워	-10.8736
암튼	-10.874
무서운	-10.8741
볼때마다	-10.8742
부분은	-10.8744
▁소리만	-10.8745
▁벨	-10.8746
▁데려다	-10.8749
▁보게되었	-10.8751
▁나올수	-10.8754
오랜만에	-10.8755
▁아류	-10.8756
천재	-10.8756
것도아니고	-10.8759
▁여배우의	-10.876
▁태어나	-10.8761
▁이후에	-10.8762
▁없을까	-10.8765
륜	-10.877
▁별거	-10.877
말이필요없	-10.8771
읍	-10.8773
뚜	-10.8775
▁찢어	-10.8775
▁차태현	-10.8775
▁트랜스포머	-10.8775
▁흐지부지	-10.8775
▁MBC	-10.8775
▁박평식	-10.8775
▁황정민	-10.8775
▁사무라이	-10.8775
▁신세경	-10.8775
▁멈추	-10.8775
▁임청하	-10.8775
▁엽문	-10.8775
▁함부로	-10.8775
▁다니엘	-10.8775
▁납치	-10.8775
▁증명	-10.8775
▁모자란	-10.8775
▁갖춘	-10.8776
▁농담	-10.8777
▁각각	-10.8777
▁첫번째	-10.8778
힘든	-10.8778
끝내	-10.8781
▁아침드라마	-10.8781
▁허탈	-10.8781
▁피곤	-10.8781
▁택	-10.8783
▁애국심	-10.8783
▁꺼져	-10.8783
재미없는	-10.8783
▁태양	-10.8783
▁텐데	-10.8784
▁우리나라에서	-10.8785
▁모독	-10.8785
▁줄거리가	-10.8786
▁부각	-10.8786
▁오글거려서	-10.8786
들리	-10.8786
▁기억을	-10.8789
▁만났	-10.879
▁쓰레기를	-10.8791
▁재미없었음	-10.8791
▁감동이다	-10.8792
정보	-10.8793
▁연기력과	-10.8795
▁최대	-10.8796
이라는게	-10.8796
▁대학생	-10.8797
▁자격	-10.8798
▁울림	-10.8799
▁k	-10.8801
▁임신	-10.8801
us	-10.8801
▁작품중	-10.8803
▁의미없는	-10.8805
▁초반부터	-10.8805
▁못하네	-10.8805
▁새록새록	-10.8806
▁이따구로	-10.8807
▁굉장한	-10.8809
일때	-10.8809
▁달리는	-10.881
장님	-10.8813
▁많음	-10.8814
▁보고싶네요	-10.8815
▁돌아오	-10.8815
▁타인	-10.8816
모자	-10.8817
지않게	-10.8818
!!!!!!!!	-10.882
몇번	-10.8821
▁선사	-10.8821
▁상상력이	-10.8823
▁웃겼	-10.8824
▁사라진	-10.8825
▁o	-10.8829
▁이것저것	-10.8834
▁시간은	-10.8835
▁돈아깝다	-10.8835
▁붕	-10.8839
▁다보고	-10.8841
팬이라	-10.8842
▁적당하다	-10.8843
▁욕만	-10.8843
▁마무리가	-10.8844
▁인생에서	-10.8848
스럽지	-10.8849
▁비하	-10.8851
▁공포감	-10.8852
▁싶으면	-10.886
▁세상의	-10.8866
하잖아	-10.8867
▁엘리	-10.8867
▁마누라	-10.8869
▁환상적인	-10.8873
금지	-10.8874
▁까는	-10.888
한건지	-10.888
앗다	-10.8885
▁곡	-10.8885
▁싸우	-10.8888
대장	-10.8888
▁명작이라고	-10.8895
▁이영화보고	-10.8898
▁한거	-10.8899
▁어이없고	-10.89
▁불쾌한	-10.89
▁메세지가	-10.8906
▁나온거	-10.8909
작전	-10.8911
더스	-10.8911
ay	-10.8919
▁좋겠	-10.8926
이형	-10.8928
▁것과	-10.8928
▁나면	-10.8928
닼	-10.893
▁재주	-10.8932
▁님들	-10.8933
전체	-10.8934
▁행복해	-10.8938
▁되어야	-10.8938
▁스텝	-10.8943
억울	-10.8946
▁참고로	-10.8954
▁기회	-10.8956
▁지우	-10.8969
부분도	-10.897
▁장르의	-10.8971
▁멋진영화	-10.8974
▁최하	-10.8976
있을까	-10.8978
짧	-10.898
지루한	-10.898
같은거	-10.8983
될듯	-10.8983
▁마지막은	-10.8985
▁향수	-10.8987
셨다	-10.8987
500	-10.8988
▁좋아하시는	-10.899
로맨스	-10.899
받아서	-10.899
▁돈으로	-10.899
특유의	-10.899
우리나라	-10.8991
깜	-10.8991
남주	-10.8998
▁운동	-10.8999
▁듣기	-10.8999
▁떠오르는	-10.9001
▁인도영화	-10.9001
간만에	-10.9006
아까워	-10.9006
것에	-10.9006
▁데미	-10.9007
▁분위기를	-10.9009
지않나	-10.901
멋진	-10.9011
중간에	-10.9013
▁남긴	-10.9013
▁제목과	-10.9014
싼	-10.9015
혐	-10.9017
흉	-10.9018
▁놈들	-10.9018
▁어설퍼	-10.9019
▁에드워드	-10.9019
▁이탈리아	-10.9019
▁정확히	-10.9019
▁톰크루즈	-10.9019
펠	-10.9019
줫	-10.9019
▁공중파	-10.9019
▁더더욱	-10.9019
▁오우삼	-10.9019
▁장동건	-10.9019
▁이연희	-10.9019
▁완죤	-10.9019
▁흑역사	-10.9019
▁아쉬웠지만	-10.9019
▁스킵	-10.9019
▁전도연	-10.9019
▁색깔	-10.9019
▁색다르	-10.902
재밌는	-10.902
▁깜놀	-10.902
어수선	-10.9021
▁2005	-10.9021
▁퇴보	-10.9022
▁돈낭비	-10.9022
▁감옥	-10.9022
▁지브리	-10.9022
밖엔	-10.9023
▁이민기	-10.9024
▁학살	-10.9027
▁복수극	-10.9028
▁200	-10.9029
▁유령	-10.903
▁어떠한	-10.9032
▁많은것을	-10.9034
▁백배	-10.9034
유발	-10.9035
아닌가	-10.9036
▁녹아	-10.9036
▁발연기에	-10.9042
▁제왕	-10.9044
씩이나	-10.9045
▁그들을	-10.9047
▁틀어주	-10.9049
▁남고	-10.9049
▁짜릿	-10.9052
▁보는사람	-10.9054
▁슬펐다	-10.9055
돈으로	-10.9056
타령	-10.9057
▁신데렐라	-10.9058
는것을	-10.9058
겠다고	-10.9059
▁힘내	-10.9059
▁따뜻해	-10.906
▁유리	-10.9061
▁잼나요	-10.9061
▁가상	-10.9062
▁저리	-10.9064
▁주연의	-10.9065
▁날려	-10.9067
설명	-10.9069
▁선생	-10.907
달아	-10.907
▁빠지게	-10.9071
▁아카데미	-10.9072
▁재미만	-10.9074
▁추천한다	-10.9081
ᄏᄏᄏᄏᄏᄏᄏᄏᄏ	-10.9082
▁변신	-10.9083
ve	-10.9086
▁생각나게	-10.9088
▁색채	-10.909
▁다크	-10.9091
▁안타까웠	-10.9092
▁남기고	-10.9099
▁명작이네요	-10.9099
▁나고	-10.9099
으세요	-10.9099
데스	-10.91
▁잔인하고	-10.91
▁쏴	-10.9101
시네요	-10.9101
▁장난감	-10.9101
▁다행이	-10.9102
자연	-10.9105
▁메리	-10.9108
▁낚였네	-10.9109
직한	-10.9112
▁도움이	-10.9118
▁않네	-10.912
▁웃긴다	-10.9124
▁주먹	-10.9124
울음	-10.9125
▁조정	-10.9126
▁재밌게봤는데	-10.9129
▁반도	-10.9131
보라	-10.9132
하는것도	-10.9133
▁만화를	-10.9136
간지	-10.9141
모르겠다	-10.9143
▁ᄇ	-10.9144
▁단역	-10.9144
▁심정	-10.9144
▁만날	-10.9145
년동안	-10.9146
위에	-10.9146
▁특이한	-10.9149
▁안나오고	-10.9149
▁댄스	-10.9153
빼고는	-10.9157
!!!!!!!!!	-10.9159
누가	-10.9159
▁미래를	-10.9163
님은	-10.9165
감상	-10.9168
▁남친	-10.917
귀엽	-10.9173
므로	-10.9174
▁추천해	-10.9184
볼려고	-10.9186
▁무난	-10.9187
▁끔찍	-10.9187
▁터지는	-10.9188
▁깔끔	-10.919
▁편의	-10.9191
감동받	-10.9191
러스	-10.9192
▁결과는	-10.9192
▁아름다웠	-10.9195
몰라	-10.9199
스코	-10.9204
혀서	-10.9204
달리	-10.9206
▁평소	-10.9206
▁다시보게	-10.9207
▁벗어나	-10.9209
▁못해서	-10.921
화면	-10.9213
▁만세	-10.9216
재밋엇	-10.9217
뿐인	-10.9219
어야지	-10.922
▁끝난다	-10.9222
▁사회의	-10.9223
▁신선하	-10.9224
▁못본	-10.9224
▁정말정말	-10.9228
직원	-10.9228
▁다른건	-10.9233
별점	-10.9233
▁담아	-10.9233
셨으면	-10.9234
▁라스트	-10.9234
▁비교하면	-10.9239
그래픽	-10.9242
▁혜	-10.9243
쿨	-10.9243
잘봤습니다	-10.9244
ᄉᄇ	-10.9245
라곤	-10.9247
냄새	-10.9248
▁하고싶은	-10.9248
▁300	-10.9248
녕	-10.9251
하던지	-10.9254
▁듬	-10.9255
내용을	-10.9258
▁석	-10.9258
▁만화가	-10.926
것들은	-10.926
밧	-10.9261
었을텐데	-10.9263
엉성	-10.9264
즐겁	-10.9264
딜	-10.9265
▁잊혀	-10.9265
랍	-10.9266
퓨	-10.9268
▁니콜라스	-10.9268
▁늙었	-10.9269
▁매끄럽지	-10.9269
▁엉터리	-10.9269
▁인상깊게	-10.9269
겄	-10.9269
륵	-10.9269
팽	-10.9269
▁아프리카	-10.9269
썬	-10.9269
▁키아누	-10.9269
재밋어요	-10.9269
▁솔까	-10.9269
▁레이첼	-10.9269
▁다세포소녀	-10.9269
▁괜	-10.9269
▁일어날	-10.9269
▁윌리스	-10.9269
▁ᄇᄉ	-10.9269
습니당	-10.9269
ck	-10.927
재미있음	-10.927
▁보일	-10.927
▁보여줌	-10.927
▁경의를	-10.9271
▁낚여서	-10.9271
▁죽기전에	-10.9272
▁2003	-10.9273
▁잔잔하지만	-10.9273
▁실패작	-10.9277
▁극찬	-10.9277
▁애들도	-10.9278
▁노튼	-10.9279
▁젊음	-10.9279
▁존잼	-10.9279
▁드문	-10.928
스토리는	-10.9281
▁영광	-10.9281
▁질문	-10.9282
▁집단	-10.9284
이였음	-10.9284
▁분명히	-10.9285
▁한번씩	-10.9285
▁게임을	-10.9285
겠다는	-10.9285
▁카피	-10.9286
할텐데	-10.9286
▁특수	-10.9286
▁긴박감	-10.9286
만함	-10.9286
▁유치하기	-10.9288
▁탁월한	-10.9288
▁사람마다	-10.9289
ᄀᄀ	-10.929
▁슬퍼요	-10.9291
▁직장	-10.9291
▁드물	-10.9292
▁죽일	-10.9293
주인공이	-10.9295
▁어케	-10.9297
!!!!!!!	-10.93
▁재밌기만	-10.9301
▁강력추천	-10.9304
▁하지마라	-10.9305
▁이상으로	-10.9307
되다니	-10.9314
▁김태희	-10.9318
중딩	-10.9321
▁산다	-10.9322
▁베리	-10.9323
스릴	-10.9326
▁말아먹은	-10.9328
▁소지섭	-10.9331
▁자체도	-10.9333
지르는	-10.9334
점도아깝다	-10.9337
▁클라스	-10.9338
▁높은지	-10.9338
순수	-10.9338
▁하던데	-10.9344
▁흘러가	-10.9347
▁인디	-10.9347
▁토니	-10.9352
가아니라	-10.9354
▁징	-10.9355
▁ᄏᄏᄏᄏᄏᄏᄏᄏᄏᄏᄏ	-10.9359
▁예술가	-10.9361
▁아름다웠다	-10.9363
op	-10.9364
어른	-10.9366
▁우리나라의	-10.9366
▁강하게	-10.9367
께요	-10.9368
줘도	-10.9368
▁불륜을	-10.9369
▁개같은	-10.9369
졌던	-10.937
▁지들	-10.9372
▁혼자서	-10.9373
▁아니네	-10.9378
나오면	-10.9383
줄알았	-10.9386
찍는	-10.9388
▁허무함	-10.9389
▁아빠가	-10.939
▁안남	-10.9392
▁줘도	-10.9393
▁다음편	-10.9401
▁편견을	-10.9401
ᄒᄒᄒᄒ	-10.9404
60	-10.9406
▁결말까지	-10.9408
엿다	-10.941
선수	-10.9413
▁된다는	-10.9417
▁진정성	-10.9421
▁드라마라고	-10.9423
▁존스	-10.9426
▁이해되	-10.9428
▁작가는	-10.943
▁마크	-10.9435
척하는	-10.9438
▁가라	-10.9442
▁나오는거	-10.9446
▁쯧쯧	-10.9447
▁해리	-10.9447
▁첨에	-10.9449
ᄒᄒᄒᄒᄒ	-10.945
▁공감대	-10.9451
없어요	-10.9451
▁밀어	-10.9456
▁영화내내	-10.9456
▁조폭영화	-10.9457
ᄃᄃᄃᄃ	-10.9461
▁설정과	-10.9464
▁성룡이	-10.9465
▁모아	-10.9466
▁수사	-10.9468
기법	-10.9469
점만점	-10.9473
▁교회	-10.948
▁생각했던	-10.9485
▁머리를	-10.9486
▁ᄃ	-10.9487
팬이	-10.9489
▁돈과	-10.949
이유가	-10.9494
▁또봐도	-10.9497
옷	-10.9506
▁출신	-10.9507
쫌	-10.9507
벤	-10.9508
▁컷	-10.9508
넘어	-10.9511
그렇다	-10.9511
▁앞서	-10.9514
▁주제는	-10.9516
했더니	-10.9518
▁왓	-10.9523
▁실화라는	-10.9524
퀴	-10.9524
밉	-10.9525
핫	-10.9525
밍	-10.9525
깡	-10.9525
▁The	-10.9525
▁끝판왕	-10.9525
윽	-10.9525
▁여기저기	-10.9525
▁정당화	-10.9525
▁다운로드	-10.9525
▁의외의	-10.9525
내서	-10.9525
▁찬사를	-10.9526
▁사기꾼	-10.9526
▁가슴아픈	-10.9526
▁7.5	-10.9526
▁2004	-10.9527
▁초능력	-10.9528
▁중학생	-10.9528
▁범인이	-10.9529
▁원작소설	-10.953
▁고마운	-10.9531
▁198	-10.9532
인것같다	-10.9533
▁장혁	-10.9533
▁존경합니다	-10.9534
▁이따구	-10.9537
▁안타깝네요	-10.9537
▁울었습니다	-10.9538
▁폰	-10.9539
▁어색함	-10.954
▁기록	-10.9542
▁다른사람	-10.9543
▁피어	-10.9544
▁나오다니	-10.9545
노동자	-10.9545
▁몰랐는데	-10.9547
▁재미나게	-10.9548
▁재현	-10.9549
▁건강	-10.955
▁평가를	-10.9551
▁예산	-10.9552
▁초중반	-10.9552
▁겉멋만	-10.9552
▁하던가	-10.9553
▁안좋은	-10.9553
점주고	-10.9556
▁필요없음	-10.9556
▁아니네요	-10.9558
▁아이들은	-10.9558
봣어요	-10.9558
▁상당한	-10.9559
▁슬프네요	-10.956
잡는	-10.9562
▁없었는데	-10.9562
▁별하나	-10.9563
▁500	-10.9565
시간을	-10.9565
▁넓	-10.9566
PD	-10.9569
▁섹	-10.9569
▁에러	-10.9569
▁차마	-10.9571
▁피식	-10.9571
▁즉	-10.9574
▁해피	-10.9574
원래	-10.9577
그림	-10.9579
▁사라져	-10.9579
▁재미있어서	-10.958
▁답답해서	-10.9582
▁안타깝	-10.9587
주의자	-10.9587
▁조기종영	-10.9589
▁빌리	-10.959
편으로	-10.9591
쟁	-10.9592
▁소재에	-10.9594
자막	-10.9595
아침	-10.9596
작렬	-10.9596
▁시끄럽	-10.9597
▁남들	-10.9599
▁돈만	-10.96
▁존재하는	-10.9601
▁시점	-10.9602
나무	-10.9603
갔으면	-10.9604
만들엇	-10.9605
한건가	-10.9605
▁스타일이	-10.9606
이유는	-10.9609
▁구원	-10.9609
하느라	-10.9614
▁세트	-10.9616
이아니라	-10.9616
▁멋있어	-10.9617
el	-10.962
프리	-10.9628
ᄍᄍᄍ	-10.9629
▁꺼내	-10.9633
▁클라라	-10.9634
쪽으로	-10.9636
▁볼만한데	-10.9639
같았	-10.9643
▁짱짱맨	-10.9646
밑에	-10.9647
▁어린이들	-10.9649
▁짜증나네	-10.965
▁저주	-10.9652
▁따뜻함	-10.9654
다시보고싶	-10.9655
▁재밌었고	-10.9656
▁하니	-10.9659
▁남는건	-10.966
날때	-10.9661
▁만듬	-10.9665
▁남았	-10.9666
▁in	-10.9666
발랄	-10.9669
▁아담	-10.9673
▁현실에서	-10.9676
▁지가	-10.9676
▁장면만	-10.9677
▁뿌리	-10.9681
당하는	-10.9682
일단	-10.9683
▁거슬리	-10.9684
▁여배우가	-10.9685
▁찾을	-10.969
▁킬링타임용도	-10.9692
▁일본판	-10.9694
시면	-10.9696
▁내놓	-10.9698
▁뽑아	-10.9702
내리	-10.9703
하더라도	-10.9704
▁관심을	-10.9705
▁역할을	-10.9705
▁과거를	-10.9706
맛이	-10.9706
위를	-10.9707
▁모르나	-10.9711
▁웃음과	-10.9716
▁배우와	-10.9721
▁스릴이	-10.9724
▁재치	-10.9725
▁날라	-10.9725
▁it	-10.9727
었다고	-10.9749
평점은	-10.975
낸다	-10.975
▁퀄리티가	-10.9751
▁보물	-10.9752
▁쓰레기네	-10.9753
▁등록	-10.9754
것같습니다	-10.9754
▁만으로도	-10.9757
▁캐릭터와	-10.9758
▁영화라는게	-10.9759
▁재미없었	-10.976
저리	-10.9762
갔는데	-10.9771
하라는	-10.9771
▁말아	-10.9771
▁극단적	-10.9772
▁나와도	-10.9774
▁아쉬워	-10.9774
▁선택한	-10.9776
귀여워	-10.9777
삐	-10.9778
촬영	-10.9778
걷	-10.9782
▁굳굳	-10.9783
걸작	-10.9783
전개가	-10.9785
뢰	-10.9785
▁펼쳐	-10.9785
▁중후반	-10.9786
쎄	-10.9787
Y	-10.9787
▁블루	-10.9788
뱅	-10.9788
영웅	-10.9788
드래곤	-10.9788
랙	-10.9788
넷	-10.9788
뎁	-10.9788
▁팀버튼	-10.9788
▁홧팅	-10.9788
빤	-10.9788
푼	-10.9788
▁송지효	-10.9788
▁2013	-10.9788
▁모성애	-10.9788
▁타이틀	-10.9788
▁성유리	-10.9788
▁인종차별	-10.9788
▁아이러니	-10.9788
▁혹평	-10.9789
▁눈요기	-10.979
▁뉴욕	-10.979
▁크리스찬	-10.979
▁짐승	-10.9791
신선	-10.9792
▁어딜	-10.9792
▁성찰	-10.9792
였으나	-10.9793
▁바꾼	-10.9793
창있네	-10.9793
나봐요	-10.9793
▁지나친	-10.9793
▁억지설정	-10.9794
▁절반	-10.9794
펙트	-10.9794
차별	-10.9794
페이스	-10.9796
▁강제	-10.9798
▁마틴	-10.9799
▁주관적	-10.98
▁제정신	-10.9801
▁유혹	-10.9801
▁불법	-10.9801
▁외국영화	-10.9801
▁몇번이나	-10.9802
▁대표적인	-10.9803
▁불행	-10.9804
▁캐스팅도	-10.9804
▁일탈	-10.9805
▁우왕	-10.9806
▁스토리라인	-10.9807
▁요약	-10.9808
▁어렸을적	-10.9808
후반	-10.9808
전달	-10.9809
▁알려준	-10.9809
▁끝은	-10.9809
▁서극	-10.9812
▁볼만했는데	-10.9813
▁경제	-10.9816
▁우아	-10.9816
18	-10.9816
▁같네	-10.9816
▁도중에	-10.9818
▁한글	-10.9818
▁없구나	-10.9821
▁남발	-10.9821
▁오글거리	-10.9825
▁재밌당	-10.9825
볼껄	-10.9826
▁알겠지만	-10.9828
▁초등학교때	-10.9832
▁좋아하네요	-10.9832
▁예쁘게	-10.9835
활동	-10.9836
▁이뻐	-10.9836
왔습니다	-10.9837
겁니까	-10.9841
되요	-10.9843
▁잔인하	-10.9846
▁찍으	-10.9852
▁시원한	-10.9852
▁처음이네요	-10.9852
▁28	-10.9853
▁배가	-10.9853
합니까	-10.9853
▁미국판	-10.9856
▁최초의	-10.9856
▁아니라서	-10.9856
▁재밋는데	-10.9856
▁더럽다	-10.9857
▁낯	-10.9857
▁재밋네요	-10.9857
▁있나요	-10.9861
▁지배	-10.9863
▁남자를	-10.9864
졌어요	-10.9864
여야	-10.9867
▁그지같은	-10.9867
영화였다	-10.987
▁봐줄	-10.9873
하기까지	-10.9878
하시네요	-10.9879
▁버릴	-10.9879
▁하는건	-10.988
▁꿈꾸는	-10.9881
▁한번쯤은	-10.9883
▁무서울	-10.9885
▁같지만	-10.9889
▁되어서	-10.9893
▁성룡영화	-10.9896
▁설정에	-10.9897
▁무리수	-10.99
▁싹	-10.99
▁할말을	-10.9901
▁밑도	-10.9904
▁우리나라에	-10.9904
▁분위기에	-10.9905
많다	-10.9906
▁정점	-10.9907
▁대사는	-10.991
잇고	-10.9917
▁그런영화	-10.9918
해야한다	-10.9918
▁지루하기만	-10.9925
▁존재감	-10.9927
되는영화	-10.9928
▁끊어	-10.9928
▁자유를	-10.9928
▁졸작이다	-10.9928
▁배려	-10.9931
장면에서	-10.9932
장면도	-10.9935
▁강시	-10.9936
▁싶지만	-10.9938
▁기독교인	-10.9938
으리	-10.9938
▁저러	-10.994
인척	-10.9941
▁좋아한다	-10.9947
▁흐름이	-10.995
▁만들었네	-10.995
▁개인적으로는	-10.9952
▁문제는	-10.9954
▁제시	-10.9956
▁충실	-10.9958
▁잡고	-10.9961
im	-10.9963
▁당시에는	-10.9967
▁지루함이	-10.997
▁번을	-10.997
▁롤	-10.9971
▁애가	-10.9974
알바들	-10.9977
▁위에	-10.9978
▁드러나	-10.9982
▁명작이라	-10.9986
액션영화	-10.9987
▁대사를	-10.9989
▁놓은	-10.9995
▁상실	-11.0001
이었고	-11.0001
▁광팬	-11.0005
▁메시지가	-11.0005
지마세요	-11.0007
▁달콤	-11.0008
▁표정연기	-11.0008
저는	-11.001
였다니	-11.0017
▁오르	-11.0017
기준	-11.0023
▁욕하는	-11.0023
본영화중	-11.0025
▁아닌지	-11.0028
끼고	-11.0031
등급	-11.0036
섯	-11.0039
뜬금	-11.0043
려야	-11.0048
랏	-11.0048
▁칭	-11.0049
▁재밌게본	-11.005
꿀	-11.005
탐	-11.0051
낭비	-11.0051
했냐	-11.0052
▁터지	-11.0053
▁시나리오도	-11.0054
그렇지	-11.0055
▁돈은	-11.0056
아름다운	-11.0056
ᄐ	-11.0058
템	-11.0058
긍	-11.0058
쭈	-11.0058
쯔	-11.0058
▁드림웍스	-11.0058
▁똑바로	-11.0058
둬	-11.0058
룸	-11.0058
핏	-11.0058
▁송혜교	-11.0058
▁어둡고	-11.0058
▁조승우	-11.0058
▁태어난	-11.0058
▁강지환	-11.0058
▁오인혜	-11.0058
▁정신나간	-11.0058
필름	-11.0059
▁임수정	-11.0059
▁닥터	-11.0059
▁감수성	-11.0059
▁사로잡	-11.0059
▁best	-11.0059
나왔으면	-11.0059
▁힘내세요	-11.006
하루	-11.006
▁불과	-11.006
▁모티브	-11.006
▁잃어	-11.006
▁자본주의	-11.0061
ᄂᄂ	-11.0061
▁절제된	-11.0062
▁문득	-11.0062
▁접근	-11.0064
▁가해자	-11.0064
▁출현	-11.0065
▁출발	-11.0065
마냥	-11.0067
▁못생겼	-11.0067
▁쓰레기임	-11.0068
▁토끼	-11.0068
라이브	-11.0069
▁확실한	-11.0071
▁총알	-11.0072
▁않아도	-11.0072
▁대단히	-11.0073
따윈	-11.0074
▁있겠지	-11.0074
▁대실망	-11.0075
▁중간부터	-11.0076
▁예술성	-11.0079
▁찾아볼	-11.0081
▁돋보인다	-11.0085
▁울었던	-11.0086
▁남자라면	-11.0086
▁않으면	-11.0088
이해가	-11.0089
시죠	-11.009
▁발레	-11.009
▁있어도	-11.0091
▁슬프지만	-11.0093
▁현실적으로	-11.0098
▁안좋아	-11.0098
▁따라한	-11.0098
▁주제도	-11.0102
▁강조	-11.0102
▁최고였습니다	-11.0103
▁부럽다	-11.0103
▁전락	-11.0104
▁힘들게	-11.0104
▁오글거리고	-11.0104
▁부디	-11.0106
▁웃음만	-11.0107
▁소유	-11.0108
변화	-11.011
ᄍ	-11.0111
슬프다	-11.0113
▁혹	-11.0113
▁좋아하고	-11.0113
▁글쎄요	-11.0116
▁안된	-11.0116
▁상업	-11.0116
▁고맙습니다	-11.0118
▁명성을	-11.0118
21	-11.0119
▁인간적인	-11.0121
▁아까워요	-11.0123
실력	-11.0127
▁건질	-11.013
▁멀리	-11.0131
▁끝날때	-11.0136
▁향해	-11.0136
▁솔직한	-11.014
▁팍팍	-11.0142
40	-11.0143
▁보시	-11.0143
괜찮은	-11.0153
▁장미	-11.0153
크리	-11.0156
▁후기	-11.0156
▁머리에	-11.0157
▁복잡한	-11.0157
▁생각한	-11.0158
▁중국인	-11.0158
아쉽다	-11.016
▁나참	-11.016
▁스토리지만	-11.0162
▁최대의	-11.0163
마라	-11.017
ol	-11.017
▁이해하지	-11.0172
▁히로	-11.0172
▁철학적인	-11.0174
▁존재한다	-11.0174
▁개봉을	-11.0176
▁장면과	-11.0176
영씨	-11.0176
▁마르	-11.0177
▁이혼	-11.0177
▁더럽고	-11.018
▁예고편이	-11.018
▁높네	-11.0181
▁들어도	-11.0183
▁한대	-11.0185
조작	-11.0188
▁나은듯	-11.0191
▁너무재밌어요	-11.0193
▁매력적이다	-11.0193
▁잃지	-11.0195
왓	-11.0198
▁신기한	-11.0199
▁허접하다	-11.0203
ma	-11.0204
▁아쉽고	-11.0206
▁배경과	-11.0207
공주	-11.0207
90	-11.021
▁영상미는	-11.021
▁진부함	-11.0213
▁쩌네	-11.0218
▁매력있는	-11.022
할수도	-11.0221
▁둔	-11.0222
▁일본영화는	-11.0224
▁해주세요	-11.0227
감성	-11.023
la	-11.0233
▁예고편만	-11.0235
자체도	-11.0239
▁그런건	-11.0243
▁무게	-11.0243
▁첨이네	-11.0244
모습이	-11.0248
때메	-11.025
생각해	-11.0252
▁부르는	-11.0254
▁똥을	-11.0255
▁이유로	-11.0261
▁터져	-11.0263
▁뭉	-11.0269
ne	-11.0269
▁행복을	-11.027
▁격투	-11.0274
▁.....	-11.0281
▁ᄍ	-11.0281
시스	-11.0281
▁조조	-11.0282
▁기억될	-11.0282
▁냄새	-11.0282
할정도	-11.0283
▁캐릭터의	-11.0283
겟네	-11.0284
▁공감을	-11.0289
하나로	-11.0289
▁되나	-11.0291
우드	-11.0292
일수도	-11.0293
래야	-11.0294
랍니다	-11.0298
▁콜	-11.0302
▁안했는데	-11.0304
▁부담	-11.0306
▁매력은	-11.0306
▁주원	-11.0307
아이가	-11.0308
략	-11.0308
하고픈	-11.0308
▁거다	-11.0309
▁가치도	-11.0313
▁사랑으로	-11.0315
▁고수	-11.0328
▁얘들	-11.0331
기만하고	-11.0331
▁피터	-11.0332
▁공포도	-11.0332
써서	-11.0334
첩	-11.0334
펑	-11.0336
썸	-11.0336
▁고스란히	-11.0336
▁뮤직비디오	-11.0336
▁양동근	-11.0336
▁원주율	-11.0336
▁파워레인저	-11.0336
▁주상욱	-11.0336
▁홍금보	-11.0336
mbc	-11.0336
▁두려움	-11.0336
▁뜨거운	-11.0336
떄문에	-11.0336
▁환타지	-11.0336
▁ebs	-11.0336
▁한쿡영화	-11.0336
▁비정상	-11.0336
챙겨	-11.0336
▁웅장	-11.0337
▁신민아	-11.0337
앵글	-11.0337
▁무너지	-11.0337
▁잃어버린	-11.0337
그녀	-11.0337
▁즐겁고	-11.0338
▁나쁘진	-11.0338
하듯	-11.0338
▁놀랬	-11.0338
묵	-11.0339
배속으로	-11.0339
▁가끔씩	-11.034
▁비롯	-11.034
▁신념	-11.034
▁유지태	-11.034
▁비싼	-11.034
히어로	-11.0341
▁성숙	-11.0345
▁그럼에도	-11.0345
▁타락	-11.0345
▁걸어	-11.0345
▁고딩	-11.0345
tv	-11.0346
▁선정적	-11.0346
ri	-11.0347
왜이럼	-11.0348
왜이래	-11.0349
▁마다	-11.0349
바닥	-11.0351
슬퍼	-11.0351
▁원표	-11.0351
▁보나	-11.0351
▁넘어선	-11.0352
▁뻔히	-11.0354
▁안녕	-11.0354
조각	-11.0354
▁고인의	-11.0355
▁않았음	-11.0358
봣음	-11.0361
한마디로	-11.0363
▁애국	-11.0364
세대	-11.0364
▁잼없음	-11.0365
▁받아들이	-11.0365
번이나	-11.0366
▁훌륭함	-11.0367
▁중학교때	-11.0368
▁짧게	-11.037
▁개독	-11.0374
소장	-11.0375
▁희망이	-11.0375
▁초기	-11.0378
생겼	-11.0383
▁사실적으로	-11.0384
▁감동도없고	-11.0385
▁되었는데	-11.0388
▁포켓몬	-11.0389
▁따뜻	-11.0393
▁일생	-11.0394
것일까	-11.0395
▁목숨	-11.0395
랬는데	-11.0395
해야하는	-11.0401
▁졸음	-11.0401
▁이쁘게	-11.0402
짓거리	-11.0402
겠냐	-11.0404
묘사	-11.0405
▁잔잔하면서도	-11.0406
▁재미있네	-11.041
▁몸을	-11.0411
마음이	-11.0412
▁다큐를	-11.0415
▁기대되는	-11.0419
▁담아내	-11.0422
▁물건	-11.0426
▁그들은	-11.0433
줄거리	-11.0434
▁아침에	-11.0434
▁먹먹한	-11.0439
▁화려	-11.044
없지만	-11.0443
평점을	-11.0445
수가없다	-11.0448
▁다시보고싶은	-11.0449
▁메시지를	-11.045
▁드라마네요	-11.045
▁불편함	-11.045
영화관에서	-11.0452
▁전부다	-11.0452
▁김성	-11.0453
▁코드가	-11.0455
떨어졌	-11.0455
▁와닿는	-11.0455
▁보셈	-11.0458
▁구멍	-11.0458
▁틈이	-11.0461
분만	-11.0464
▁엉성함	-11.0468
기대하고	-11.0469
▁있어보이	-11.0469
▁속은	-11.0471
사진	-11.0472
이젠	-11.0475
▁이상함	-11.0477
▁별로인	-11.0479
▁다음으로	-11.048
▁조명	-11.0481
▁없었고	-11.0487
반전이	-11.0487
▁한장면	-11.049
달까	-11.0492
▁말았	-11.0493
▁그래픽이	-11.0495
ᄏᄏᄏᄏᄏᄏᄏᄏᄏᄏᄏᄏᄏ	-11.0499
▁실패한	-11.0505
▁김재	-11.0508
▁사라졌	-11.051
▁어울	-11.0511
▁표현했다	-11.0513
▁짱나	-11.0516
▁구성과	-11.0518
▁안봐	-11.0518
▁깍	-11.0518
▁굿굿굿	-11.052
좋아서	-11.052
봣습니다	-11.0524
▁셀	-11.0527
▁몰입되	-11.0527
▁되기	-11.0529
▁섹시한	-11.0531
▁잠자	-11.0536
▁재밌게봤다	-11.0536
▁이정도로	-11.0536
▁곱	-11.0537
▁하긴	-11.0545
겐	-11.0547
▁읽은	-11.055
▁결말에	-11.0567
갠	-11.057
▁것들을	-11.0572
▁시간아깝	-11.0573
줬으면	-11.0575
▁저게	-11.0576
▁맘이	-11.0582
▁머가	-11.0583
갖	-11.0584
선생	-11.0585
네용	-11.0586
본게	-11.0587
▁켄	-11.0588
▁낫지	-11.0589
▁몸이	-11.0589
▁걸리	-11.0595
부대	-11.0598
올린	-11.0599
▁될것	-11.06
▁외치	-11.06
▁웃기네	-11.0603
만해도	-11.0608
▁영화계의	-11.0608
칭	-11.0609
▁보러가	-11.0611
▁누워	-11.0616
보이는데	-11.0616
▁보고싶어요	-11.0619
팩	-11.0621
쯧	-11.0622
썰	-11.0622
▁엉덩이	-11.0622
▁인터뷰	-11.0622
▁찝찝한	-11.0622
▁컨저링	-11.0622
▁클리셰	-11.0622
꺄	-11.0622
▁뚝뚝	-11.0622
▁서프라이즈	-11.0622
▁임권택	-11.0622
▁김강우	-11.0622
▁어우러진	-11.0622
▁흥미롭고	-11.0622
▁구역질	-11.0622
▁불후의	-11.0622
▁일베충	-11.0623
▁이범수	-11.0623
▁퍼즐	-11.0623
▁증말	-11.0623
▁특징	-11.0623
▁말았어야	-11.0624
테니	-11.0625
▁은퇴	-11.0625
▁언론	-11.0625
up	-11.0626
싶을때	-11.0626
▁어떡	-11.0627
▁움직이는	-11.0627
▁친절	-11.0628
▁전편의	-11.0628
▁활용	-11.0629
마인드	-11.063
▁추락	-11.063
벽	-11.063
XX	-11.063
▁지들끼리	-11.063
일세	-11.0631
▁24	-11.0631
무엇	-11.0632
▁여튼	-11.0632
▁간절	-11.0633
▁우익	-11.0634
개연성	-11.0634
깍	-11.0634
점대라니	-11.0635
꽝	-11.0635
▁잘생기고	-11.0636
네이버	-11.0637
▁여왕	-11.0637
▁어이없어서	-11.0637
흐름	-11.0638
▁없었으면	-11.0639
▁먹먹하다	-11.0639
▁반전영화	-11.0639
▁노력이	-11.0641
▁환자	-11.0642
유쾌	-11.0642
▁훌륭하	-11.0643
▁좋아한다면	-11.0643
▁볼만해요	-11.0645
좋았어요	-11.0646
보고있어요	-11.0646
▁자극적이	-11.0646
성룡	-11.0647
다시봐도	-11.0648
▁만들려고	-11.0648
▁때문이다	-11.0649
아이돌	-11.065
▁알게해준	-11.065
원주고	-11.0651
티비에서	-11.0651
▁이나영	-11.0652
▁사랑스럽	-11.0652
별루	-11.0653
▁않았으면	-11.0654
▁아니냐	-11.0654
만드네	-11.0655
▁좋았어	-11.0655
▁공포영화가	-11.0656
▁갔는데	-11.0656
▁분위기도	-11.0658
▁빛이	-11.0658
▁아동용	-11.0658
▁심히	-11.0659
▁좋아해요	-11.0659
▁관객에게	-11.0659
해낸	-11.0662
관련	-11.0663
역겹	-11.0664
▁소수	-11.0667
보지마라	-11.0667
인거같다	-11.0671
▁전투씬	-11.0673
순위	-11.0677
▁효	-11.0678
같았음	-11.0679
▁어린이용	-11.068
등등	-11.0681
저질	-11.0683
▁윤아	-11.0683
▁아오이	-11.0684
▁엄마랑	-11.0686
▁상영시간	-11.0687
▁ᄏᄏᄏᄏᄏᄏᄏᄏᄏᄏ	-11.0688
▁가식	-11.0691
▁튀어	-11.0695
▁하는것	-11.0697
▁적이	-11.0697
▁지적	-11.07
집중	-11.07
▁정도다	-11.0701
▁죽기	-11.0701
▁황당하	-11.0702
▁재미있었고	-11.0706
▁다른거	-11.0706
▁앙	-11.0706
▁저희	-11.0709
▁만든것	-11.071
만든영화	-11.0711
매우	-11.0711
▁산만하	-11.0712
▁안보는	-11.0713
같지만	-11.0715
▁중반부	-11.0718
▁나온다는	-11.0719
예고	-11.0721
미안	-11.0724
▁플레이	-11.0728
라기	-11.0734
인간들	-11.0736
▁던지는	-11.0736
▁빨아	-11.0737
▁난국	-11.0738
▁후반에	-11.0739
▁메인	-11.0739
▁N	-11.074
▁의식	-11.0742
엇어요	-11.0743
▁안되서	-11.0747
▁조지	-11.0749
▁수준이하	-11.0749
▁잠들	-11.0752
▁달아	-11.0754
▁허무하게	-11.0757
▁남았다	-11.0758
▁한숨만	-11.0758
▁정화	-11.0762
해놓고	-11.0765
하곤	-11.0768
▁미이라	-11.0769
▁엄마의	-11.0774
▁생각하지	-11.0775
▁죽인다	-11.0775
▁재미있다고	-11.0778
▁아쉽긴	-11.0779
돌리	-11.078
▁모야	-11.0785
점정도가	-11.0788
보며	-11.0789
쳐먹	-11.0789
▁노래를	-11.079
▁스케일이	-11.079
▁모르겟다	-11.0793
▁밀려	-11.0795
▁보이지만	-11.0796
하시면	-11.0799
▁나왔음	-11.08
▁망쳐	-11.0801
몰입도	-11.0803
▁no	-11.0803
▁인물의	-11.0804
▁배경도	-11.0805
▁심리를	-11.0806
만족	-11.0807
▁비극적	-11.0813
▁심심한	-11.0815
▁있는듯	-11.0821
빠지고	-11.0823
▁죽을뻔	-11.0824
▁무서웠다	-11.0826
▁짱임	-11.0826
▁제작사	-11.0827
▁이완	-11.0827
▁귀여	-11.083
▁하려는	-11.0831
▁보진	-11.0831
▁연기까지	-11.0831
▁으아	-11.0839
이영화는	-11.0839
하지않은	-11.0841
▁주제에	-11.0848
▁성우들	-11.085
드릴	-11.0851
해줘	-11.0856
영환줄	-11.0858
▁심각한	-11.0859
▁조금씩	-11.086
남편	-11.0862
▁봤었다	-11.0865
is	-11.0867
배우님	-11.087
▁집어	-11.0871
▁초딩이	-11.0873
▁대상	-11.0875
▁각자	-11.0886
되니	-11.0888
▁뻔뻔	-11.089
▁않았나	-11.0899
자들은	-11.09
하더군요	-11.09
싶어서	-11.0901
▁노력한	-11.0902
▁개발	-11.0903
▁전작의	-11.0905
▁그지같	-11.0906
흡	-11.0907
새롭	-11.0908
▁졸려	-11.091
▁죄송	-11.0911
둑	-11.0911
▁어설프	-11.0912
▁평점조절	-11.0914
▁감흥이	-11.0914
▁만나는	-11.0914
▁리메이크작	-11.0916
쉴	-11.0916
앨	-11.0916
▁미야자키	-11.0916
▁서스펜스	-11.0916
▁에일리언	-11.0916
▁용두사미	-11.0916
▁웹툰	-11.0916
▁펭귄	-11.0916
▁허무맹랑	-11.0916
▁베트남	-11.0916
▁멘붕	-11.0916
▁놀래키	-11.0916
▁큐브	-11.0916
▁러셀	-11.0916
▁세련되	-11.0916
▁일요일	-11.0916
▁엠마	-11.0916
▁영상으로	-11.0917
하겠지	-11.0917
못보겠	-11.0917
▁일깨워주는	-11.0918
귀요미	-11.0918
질때	-11.0918
▁영화자체는	-11.0918
▁단편영화	-11.0918
▁콜린	-11.092
있냐	-11.092
▁빠져드는	-11.0921
▁알았더니	-11.0921
▁조용히	-11.0921
▁끼워	-11.0923
부턴	-11.0923
▁자세히	-11.0924
▁닮아	-11.0924
▁보느니	-11.0924
▁놀라울	-11.0924
▁역쉬	-11.0924
년후	-11.0924
▁부분을	-11.0925
▁지루했어요	-11.0926
▁지났지만	-11.0926
▁고찰	-11.0927
▁영화평	-11.0928
▁물씬	-11.0928
▁해도해도	-11.0932
▁않았을까	-11.0932
▁다니는	-11.0932
▁소름돋았	-11.0933
▁딱딱	-11.0935
쌍	-11.0935
썩	-11.0936
셋	-11.0936
▁용감	-11.0936
농	-11.0937
핵	-11.0937
▁무슨말이	-11.0938
▁차별	-11.0938
▁나누	-11.0938
거든요	-11.0939
더럽게	-11.0939
▁도통	-11.0939
교육	-11.0939
▁깔끔하고	-11.0939
▁웃게	-11.0941
완벽	-11.0941
cg	-11.0941
씨리즈	-11.0942
▁웃길	-11.0943
▁엉성하다	-11.0943
▁헐크	-11.0946
▁됐는데	-11.0948
▁말해주는	-11.0948
져야	-11.0948
▁최고였어요	-11.0949
예능	-11.0949
▁공감가는	-11.0949
▁찾아볼수	-11.095
▁호소	-11.0953
▁괜찮을	-11.0953
▁허술하고	-11.0953
▁별로였음	-11.0955
▁생각나네요	-11.0956
▁주목	-11.0957
▁No	-11.0958
▁무서워서	-11.0958
멘트	-11.0959
▁비중	-11.0959
▁존내	-11.096
지경	-11.0961
각본	-11.0961
▁재밌는영화	-11.0962
▁동호	-11.0962
영상미	-11.0963
▁놈이	-11.0965
▁사나이	-11.0965
▁사망	-11.0967
▁나왔는데	-11.0969
▁망쳤다	-11.097
있을때	-11.0971
하지마세요	-11.0972
▁http	-11.0972
▁달콤한	-11.0973
유머	-11.0973
▁뻔해서	-11.0974
어스	-11.0975
재미있는	-11.0978
영환	-11.0978
▁그만좀	-11.0979
▁기차	-11.0979
▁시선으로	-11.0983
▁드러내	-11.0983
홍보	-11.0984
▁슬펐	-11.0984
▁씨네	-11.0985
▁스피드	-11.0989
▁주려	-11.0996
▁위기	-11.0997
▁예술적	-11.0997
엿음	-11.0999
▁지식	-11.0999
▁볼거없	-11.1
▁화려하고	-11.1004
▁막장으로	-11.1004
▁두배우	-11.1006
▁지루하네	-11.1009
▁선동영화	-11.101
▁후회함	-11.1011
어울리는	-11.1012
▁많지만	-11.1013
▁어울려	-11.1016
▁짜증났	-11.1016
▁마마	-11.1017
▁산만	-11.1017
▁전쟁을	-11.1018
▁구성은	-11.1018
▁돌려줘	-11.1018
이란걸	-11.1019
▁시나리오를	-11.1021
▁남자와	-11.1024
▁죽었다	-11.103
▁되돌아	-11.1032
▁위험한	-11.1032
▁재미있었던	-11.1032
▁예뻐	-11.1033
▁수백	-11.1034
웃기고	-11.1036
▁중반까지	-11.104
▁가치를	-11.1041
▁나왔을	-11.1043
▁다음에	-11.1043
▁훌륭하고	-11.1044
▁말하면	-11.1044
▁뭔가요	-11.1045
▁산만한	-11.1048
겠군	-11.1051
▁고마	-11.1051
▁대비	-11.1055
심리	-11.1056
이건뭐	-11.1058
말던가	-11.1059
▁찾고	-11.106
▁개봉하는	-11.1061
내놔	-11.1062
▁성우가	-11.1066
▁취향은	-11.1068
▁데려	-11.1071
않았다	-11.1072
▁방법이	-11.1075
▁미국에서	-11.1075
▁저거	-11.1076
▁나온다고	-11.1076
▁밀라	-11.1077
께서	-11.1079
▁충격을	-11.1079
▁본영화중	-11.1084
▁상관	-11.1085
▁먹먹해	-11.1086
▁것만으로도	-11.1088
▁약해	-11.1088
▁동정	-11.1094
코드	-11.11
▁있으니	-11.1102
빠짐	-11.1103
▁감동적으로	-11.1104
▁놔	-11.1109
동물	-11.1114
▁오오	-11.1116
기때문에	-11.112
▁보신	-11.112
같으니	-11.1124
▁애인	-11.1125
▁아기자기	-11.1126
끼들	-11.1127
▁뽀	-11.113
▁괜찮네	-11.1135
만들고	-11.1137
▁만들어준	-11.1138
▁보기에도	-11.1138
되면서	-11.1153
▁개잼	-11.1153
재미는	-11.1153
하군요	-11.1154
페이지	-11.1154
▁초딩들	-11.1154
▁차이가	-11.1157
▁반개	-11.1158
▁복수를	-11.1158
▁보여주지	-11.116
▁애잔	-11.116
씬에서	-11.1161
▁않는데	-11.1166
곳에서	-11.1173
▁꼭봐야	-11.1177
▁뭐든	-11.1178
▁부럽	-11.1179
▁소름돋는	-11.1182
▁so	-11.1183
▁2010	-11.1185
▁부른	-11.1187
▁울게	-11.119
▁개인의	-11.1194
▁기괴	-11.1198
해가는	-11.1202
켓	-11.1205
걸까요	-11.1207
▁먼지	-11.1207
즌	-11.1208
방울	-11.1208
▁먹을	-11.1208
▁시간대	-11.1209
▁말이필요	-11.1209
거예요	-11.1212
아내	-11.1212
▁엽기	-11.1215
볼걸	-11.1216
하라고	-11.1216
감명깊	-11.1217
▁아쉬울	-11.1217
쿡	-11.1218
퀄	-11.1219
헝	-11.1219
뱉	-11.1219
▁ocn	-11.1219
▁내러티브	-11.1219
▁묻혀	-11.1219
▁보냅니다	-11.1219
▁오리지널	-11.1219
▁오타쿠	-11.1219
▁크리스토퍼	-11.1219
긔	-11.1219
뒀	-11.1219
벙	-11.1219
엎	-11.1219
재밌게봤습니다	-11.1219
췄	-11.1219
▁박신양	-11.1219
▁하이킥	-11.1219
▁관람불가	-11.1219
▁엉엉	-11.1219
▁ᄅᄋ	-11.1219
▁저절로	-11.1219
▁잠수함	-11.1219
▁흡사	-11.1219
▁록키	-11.1219
▁do	-11.1219
▁빅뱅	-11.1219
▁귀찮	-11.122
▁새롭게	-11.122
▁묘미	-11.122
▁유아인	-11.122
▁생략	-11.122
▁어울린다	-11.122
▁재발견	-11.122
▁간첩	-11.122
▁온몸	-11.1221
▁이승기	-11.1221
▁손색없	-11.1222
▁잃고	-11.1222
▁증거	-11.1222
▁적절히	-11.1222
▁깨알	-11.1222
▁대표작	-11.1223
▁구리다	-11.1224
헌터	-11.1225
▁기대됩니다	-11.1225
▁빡치	-11.1226
▁멋잇	-11.1227
▁공존	-11.1227
▁오로라	-11.1228
▁시간아까움	-11.1228
▁동료	-11.1228
세우	-11.1229
▁재료	-11.1229
▁느린	-11.1229
동아리	-11.123
▁잔인하기만	-11.1231
야되는데	-11.1231
▁씨발	-11.1231
▁만들어주세요	-11.1231
▁언급	-11.1232
▁가르쳐	-11.1232
▁보고있어요	-11.1235
잘하고	-11.1235
▁하드	-11.1236
▁너무좋아	-11.1237
▁장나라	-11.1237
재미잇	-11.1237
▁전세계	-11.1238
▁알수없는	-11.1239
▁모르겠는데	-11.1239
▁떠오르	-11.1242
▁내보내	-11.1243
▁보다보다	-11.1245
해준다	-11.1246
▁말이필요없는	-11.1246
▁98	-11.1248
낙	-11.1249
▁무어	-11.1251
느와르	-11.1253
▁마초	-11.1255
▁별기대	-11.1255
▁헛웃음만	-11.1256
▁실소	-11.1256
▁달고	-11.1259
▁쏙	-11.1259
그자체	-11.1263
▁지어	-11.1264
▁몽환적인	-11.1265
▁예상치	-11.1268
았고	-11.1268
▁영화관에	-11.1269
나쁜	-11.1269
▁필수	-11.1272
▁민망하	-11.1272
안돼	-11.1273
▁이연걸의	-11.1274
역으로	-11.1276
▁장근석	-11.1277
▁영화에서는	-11.1278
테러	-11.128
ᄏᄏᄏᄏᄏᄏᄏᄏ	-11.1281
▁잘살	-11.1281
▁오글거려	-11.1281
▁어색하다	-11.1284
▁상상을	-11.1291
이쁘고	-11.1293
▁잇는	-11.1293
▁위대함	-11.1297
▁공식	-11.1298
▁보고있는	-11.1298
▁우리들의	-11.13
▁고발	-11.13
▁드리	-11.13
▁뻔해	-11.1302
졌습니다	-11.1302
▁몫	-11.1304
이쁘다	-11.1304
▁무언가를	-11.1305
▁티가	-11.1306
▁요소를	-11.1308
▁못된다	-11.131
▁검은	-11.131
▁더빙판	-11.1312
▁사형	-11.1312
▁정치적	-11.1312
▁자본	-11.1313
▁기회가	-11.1314
▁웃겼음	-11.1314
▁받아서	-11.1315
▁ᅵ	-11.1315
지금까지	-11.1321
같습니다	-11.1324
파티	-11.1325
▁인간들이	-11.1328
줬는데	-11.1328
광수	-11.1331
▁걸린	-11.1333
▁사이에서	-11.1334
죽어	-11.1335
채널에서	-11.1336
마음에	-11.1336
▁않았고	-11.1337
▁당하는	-11.134
▁상식	-11.1341
▁모여	-11.1343
▁거부감이	-11.1345
고싶지	-11.1346
▁별점을	-11.1347
▁무겁지	-11.1348
죽이는	-11.1352
꺼다	-11.1352
▁재밌지도	-11.1353
▁모른	-11.1359
▁누구도	-11.1361
ter	-11.1361
▁없는듯	-11.1362
▁과정을	-11.1363
▁악평	-11.1365
▁최고라는	-11.1366
▁감독님의	-11.1369
▁너는	-11.1372
폭탄	-11.1374
▁안되는데	-11.1378
▁메세지는	-11.1385
재밋게	-11.1389
라며	-11.1389
▁풋풋	-11.139
▁있는것	-11.139
▁인물이	-11.1392
어진다	-11.1392
▁할배	-11.1393
친구들	-11.1396
▁제목부터	-11.1397
▁당할	-11.1398
▁후한	-11.1398
▁해적	-11.1399
▁스릴러를	-11.1402
▁불만	-11.1404
▁보는듯	-11.1404
▁압도	-11.1405
▁허접함	-11.1405
▁놀이	-11.1407
▁봐야겠다	-11.1407
는것은	-11.1411
▁한수	-11.1411
▁것인지	-11.1411
▁뭔데	-11.1412
회를	-11.1417
▁모습과	-11.1418
▁수애	-11.142
▁신선하다	-11.1421
▁꿈꾸	-11.1424
▁슬픔이	-11.1428
▁낚이	-11.1431
▁전작에	-11.1432
▁수준급	-11.1434
약한	-11.1436
키스	-11.1436
▁대사들이	-11.1438
신듯	-11.144
123	-11.1448
디스	-11.1448
씨와	-11.145
시켜주	-11.1451
▁남긴다	-11.1452
없었	-11.1453
▁세상은	-11.1454
나왔다	-11.1456
▁들어오	-11.1457
▁비현실적인	-11.1459
부부	-11.146
모습을	-11.1461
▁비교가	-11.1462
99	-11.1464
▁왕자	-11.1464
뭔지	-11.1469
▁화끈	-11.1473
▁감정이입이	-11.1475
▁이런드라마	-11.1477
▁춤추	-11.1478
▁지금까지도	-11.1479
▁보소	-11.1482
놀래	-11.1483
▁덕에	-11.1486
▁비중이	-11.149
뤄	-11.149
▁어른들이	-11.1493
팝	-11.1493
ie	-11.1494
▁헛웃음	-11.1495
▁ᄏᄏᄏᄏᄏᄏᄏᄏᄏᄏᄏᄏᄏᄏ	-11.1497
봣던	-11.1498
▁겉멋	-11.1498
▁처절	-11.1499
풀이	-11.1499
됬는데	-11.15
▁달달한	-11.1504
빼	-11.1504
▁나빠	-11.1505
▁지지	-11.1506
되었던	-11.1507
▁마음속	-11.1508
▁암울	-11.1508
▁공짜	-11.1512
아아아	-11.1515
▁죽을때	-11.1515
▁정신을	-11.1515
보길	-11.1518
롯	-11.1527
▁묵	-11.1527
댓	-11.1529
콤	-11.153
뎀	-11.1531
늬	-11.1531
펴	-11.1531
멈	-11.1531
q	-11.1532
꾹	-11.1532
뉘	-11.1532
샷	-11.1532
쏠	-11.1532
Z	-11.1532
▁두근두근	-11.1532
▁매트릭스	-11.1532
▁슬래셔	-11.1532
▁엑소시스트	-11.1532
▁채플린	-11.1532
▁파라노말	-11.1532
▁혹성탈출	-11.1532
댕	-11.1532
쌈	-11.1532
콕	-11.1532
▁김하늘	-11.1532
▁양조위	-11.1532
▁이스트우드	-11.1532
핳	-11.1532
흙	-11.1532
▁불면증	-11.1532
댐	-11.1532
▁이동욱	-11.1532
▁미치도록	-11.1532
▁섭외	-11.1532
▁사다코	-11.1532
▁나타내	-11.1532
▁잘만들어진	-11.1532
▁묘하게	-11.1532
▁그들만의	-11.1532
씁니다	-11.1532
▁촬영기법	-11.1533
▁스콧	-11.1533
▁아닌가요	-11.1533
▁기분좋게	-11.1534
▁별한개도	-11.1534
▁패턴	-11.1534
▁저녁	-11.1534
▁닮은	-11.1534
▁맛깔	-11.1534
▁고질라	-11.1534
▁용가리	-11.1534
▁꼽을	-11.1535
▁묻어나는	-11.1535
자마자	-11.1535
▁당최	-11.1535
▁느리고	-11.1535
▁재평가	-11.1535
▁맞춘	-11.1536
▁계시	-11.1536
▁케이트	-11.1536
▁웬만한	-11.1536
올림	-11.1536
▁시나리오에	-11.1537
▁아까웠던	-11.1537
▁과잉	-11.1538
mo	-11.1539
▁악플	-11.1539
▁응원합니다	-11.154
이런거	-11.154
▁속아서	-11.1542
▁생각해서	-11.1542
▁창조	-11.1544
▁아니겠지	-11.1545
▁신나게	-11.1545
▁느낌이랄까	-11.1545
▁무얼	-11.1547
▁열정이	-11.1549
▁많았던	-11.1551
못할	-11.1553
▁지금껏	-11.1553
▁이번엔	-11.1553
▁종영	-11.1553
▁별다른	-11.1556
▁일베	-11.1556
▁허술하다	-11.1556
붕괴	-11.1556
▁심심해서	-11.1558
▁아쉽네	-11.1562
▁고향	-11.1563
▁장애	-11.1565
▁졸면서	-11.1565
▁또보고	-11.1565
14	-11.1566
▁뻔하지만	-11.1566
▁도망가	-11.1567
▁멋있어요	-11.1567
켄	-11.1569
▁곳에서	-11.157
▁불편하다	-11.1571
▁마녀	-11.1571
별로다	-11.1572
깎	-11.1572
아줌마	-11.1573
카메라	-11.1573
▁몇개	-11.1573
찍어	-11.1574
▁사회에	-11.1575
▁아이와	-11.1576
▁진작	-11.1576
▁말아라	-11.1576
▁안든다	-11.1576
▁선수	-11.1576
하하하	-11.1576
▁저급한	-11.1576
▁저기	-11.1577
▁지리	-11.1578
▁중요하다	-11.1578
▁연장	-11.1579
낮아서	-11.158
▁재미가없다	-11.158
▁낮음	-11.1581
▁다문화	-11.1581
제작비	-11.1584
▁안타깝고	-11.1587
▁현실성이	-11.1587
▁만들겠다	-11.1587
▁주체	-11.1588
▁검사	-11.1588
▁이념	-11.1589
먼저	-11.1589
▁출연자	-11.1591
▁모든것을	-11.1591
▁마케팅	-11.1591
▁총질	-11.1592
▁생각하며	-11.1593
▁만드네요	-11.1594
받는다	-11.1594
▁원인	-11.1596
▁돋보였	-11.1597
▁씁쓸한	-11.1597
▁얘기가	-11.1598
테이	-11.16
▁화려함	-11.1601
▁만점을	-11.1606
이었지만	-11.1607
▁거울	-11.1607
▁순정	-11.1608
▁존중	-11.1608
▁이해하고	-11.161
▁최저	-11.161
햇던	-11.161
▁좋아지는	-11.1611
▁명성	-11.1612
▁작위적인	-11.1616
계를	-11.1618
▁끓	-11.1619
▁케이지	-11.162
▁아니죠	-11.1621
▁맞지않	-11.1624
▁있었다니	-11.1624
▁노예	-11.1625
시대를	-11.1626
ᄏᄏᄏᄏᄏᄏᄏᄏᄏᄏᄏ	-11.1626
▁많네요	-11.1626
▁진주	-11.1627
못했다	-11.1627
▁충실한	-11.1628
▁각자의	-11.1631
▁첫장면	-11.1635
▁질리	-11.1637
▁잔혹한	-11.1639
▁내인생최고의	-11.1647
안좋	-11.1651
을위해	-11.1651
돋네	-11.1652
▁꿈에	-11.1652
볼만한	-11.1657
▁어찌나	-11.166
▁나가는	-11.166
▁상영관이	-11.1665
▁느끼지	-11.1666
▁흑흑	-11.1668
▁가자	-11.1672
해놓은	-11.1676
▁쓰렉	-11.1678
▁똑같다	-11.1679
약간	-11.168
ul	-11.1689
말도안되	-11.1689
▁청춘의	-11.1693
▁이영화에서	-11.1695
▁합쳐	-11.1696
포스	-11.1697
▁낚이지	-11.1701
▁외계인이	-11.1703
▁출연하는	-11.1703
▁다섯	-11.1708
이었다면	-11.171
해주길래	-11.1713
▁머지	-11.1714
버렸음	-11.1717
▁센	-11.1721
▁어느것	-11.1723
▁마구	-11.1724
▁안봤다	-11.1731
▁예수님	-11.1733
▁작품인데	-11.1734
▁썼다	-11.1735
것이지	-11.1735
놈들은	-11.1737
▁넣은	-11.174
▁있겠다	-11.1741
▁아프고	-11.1741
시킨다	-11.1742
▁밑에분	-11.1745
숨	-11.1748
▁잘하네	-11.1749
▁찌질한	-11.1754
▁작품성이	-11.1766
▁한건지	-11.1768
다니고	-11.1769
▁나오게	-11.1774
▁처음임	-11.1782
▁없다는게	-11.1782
▁더럽	-11.1783
▁결론이	-11.1783
▁짝이없	-11.1789
▁한없이	-11.1789
▁재미있지	-11.1791
보이고	-11.1792
▁쉐	-11.1794
▁상황에	-11.18
주의를	-11.1805
▁한순간	-11.1808
얘	-11.1814
좋은데	-11.1814
찍은	-11.1818
▁ᄏᄏᄏᄏᄏᄏᄏᄏᄏᄏᄏᄏᄏᄏᄏ	-11.1819
▁읽어보	-11.1819
▁뗄	-11.1823
토록	-11.1825
제국	-11.1826
연기자	-11.1829
팬이지만	-11.1839
뷰	-11.1839
묶	-11.1842
▁주인	-11.1846
끝에	-11.1853
팍	-11.1854
쌀	-11.1854
▁KBS	-11.1854
▁가볍고	-11.1854
▁식스센스	-11.1854
▁쏠쏠	-11.1854
▁어설픔	-11.1854
▁역사왜곡	-11.1854
▁콘서트	-11.1854
▁황비홍	-11.1854
댈	-11.1854
샀	-11.1854
샹	-11.1854
ᅦ	-11.1854
▁맙시다	-11.1854
▁클린트	-11.1854
팡	-11.1854
▁나발이고	-11.1854
▁탕웨이	-11.1854
프레데터	-11.1854
▁유머가	-11.1854
▁오그라든다	-11.1854
▁이순신	-11.1854
▁흔히	-11.1854
▁정재영	-11.1854
▁개인적으론	-11.1855
바이러스	-11.1855
ᅩᅩ	-11.1855
▁담아낸	-11.1855
▁아시아	-11.1856
▁누님	-11.1856
▁에로틱	-11.1856
▁0.5	-11.1856
▁둘째	-11.1856
▁과도한	-11.1856
▁결합	-11.1857
▁스텝업	-11.1857
▁찰리	-11.1857
▁그립	-11.1857
▁ᄏᄏᄏᄏᄏᄏᄏᄏᄏᄏᄏᄏᄏ	-11.1858
▁호텔	-11.1858
▁이름값	-11.1858
▁덮	-11.1858
▁지났	-11.1858
▁감동적이었습니다	-11.1859
▁진솔	-11.1859
▁그때의	-11.1859
▁지루하지않고	-11.186
▁환불	-11.186
▁와이어	-11.1861
▁위하여	-11.1861
▁못생긴	-11.1861
할뻔	-11.1862
▁집어넣	-11.1863
▁2001	-11.1863
▁봤었던	-11.1863
▁아닌거	-11.1863
▁가치관	-11.1864
▁따뜻하게	-11.1865
▁줄리아	-11.1865
났던	-11.1866
▁깔끔하게	-11.1866
ᅳᅮ	-11.1866
▁미쳤다	-11.1868
▁내겐	-11.1868
▁멋있었다	-11.1868
▁무척이나	-11.1868
▁스릴있고	-11.1868
▁팬이라면	-11.1869
▁치열	-11.187
▁차원이	-11.1871
좋게	-11.1872
▁실화라니	-11.1873
▁졸려서	-11.1876
▁대책	-11.1876
▁미션	-11.1877
▁볼만했음	-11.1878
▁비참	-11.1879
▁울었네요	-11.1882
▁슬퍼서	-11.1882
▁최초로	-11.1883
▁젊은이들	-11.1884
줘라	-11.1884
헤헤	-11.1884
▁내용으로	-11.1885
▁느꼈던	-11.1887
▁볼만하네요	-11.1887
▁제작된	-11.1888
▁지나서	-11.1889
▁없군	-11.1889
▁내스타일	-11.1891
▁무게감	-11.1893
▁싶은건지	-11.1893
▁치고는	-11.1896
▁소피	-11.1897
▁이건좀	-11.1897
▁김태	-11.19
▁재회	-11.1901
▁외화	-11.1901
낳	-11.1903
코메디	-11.1906
거리고	-11.1906
지못한	-11.1907
▁두근거	-11.1908
쩔어	-11.1908
▁경기	-11.1908
드럽게	-11.1909
▁실망스럽다	-11.191
시간낭비	-11.191
▁좀비물	-11.1911
철학	-11.1912
등록	-11.1914
▁성장영화	-11.1915
▁안타까워	-11.1916
잔인하	-11.1917
극장판	-11.1917
햇지만	-11.1918
빼면	-11.1918
▁오락성	-11.1919
▁전개되는	-11.1921
▁많지	-11.1921
▁김준	-11.1922
▁잊을수가	-11.1922
로봇	-11.1923
▁생각했다	-11.1925
▁런닝맨	-11.1925
▁만드나	-11.1927
▁선전	-11.1927
방법	-11.1928
▁킬링타임으로	-11.1929
좋았음	-11.1932
▁계기가	-11.1934
▁저것도	-11.1934
정권	-11.1935
▁교감	-11.1936
▁떨어진	-11.1937
▁이건진짜	-11.1937
▁남편이	-11.1937
동네	-11.1938
▁만나서	-11.194
▁극장판은	-11.194
훌륭한	-11.1943
▁보는줄	-11.1943
▁꼬맹이	-11.1944
시티	-11.1945
▁기어	-11.1946
▁보여주려	-11.1948
거여	-11.1948
점드립니다	-11.195
▁옆	-11.1952
▁군대에서	-11.1952
▁고래	-11.1953
해줬으면	-11.1953
▁우리집	-11.1954
라이트	-11.1956
▁보석	-11.1956
▁죽이네	-11.1956
▁시청자를	-11.1957
시리즈중	-11.1958
▁집중력	-11.1962
▁보여줬다	-11.1964
▁신부	-11.1966
▁믿을수	-11.1971
▁남주가	-11.1972
▁억지스럽다	-11.1976
▁끝날때까지	-11.1976
하지않는	-11.1978
▁끌려	-11.1979
▁옛다	-11.1983
못한다	-11.1983
▁좋으	-11.1987
▁차지	-11.199
▁곽	-11.1992
▁맺	-11.1992
▁썩은	-11.1992
▁낳은	-11.1994
▁윌	-11.2001
▁분위기와	-11.2003
▁떠들	-11.2004
▁생각해볼	-11.2008
해졌다	-11.2013
박사	-11.2016
▁너네	-11.2024
▁리뷰를	-11.2025
보여주는	-11.2027
보는거	-11.203
▁나이에	-11.2034
▁여정	-11.2034
ᅲᅲᅲᅲᅲ	-11.2036
최고의영화	-11.2043
▁태도	-11.2047
▁질질끌	-11.2049
ᄏᄏᄏᄏᄏᄏᄏᄏᄏᄏ	-11.2072
베리	-11.2073
▁같기도	-11.2074
▁집안	-11.2074
미래	-11.2078
▁과거의	-11.208
▁서우	-11.2082
▁있다는게	-11.2085
▁상황에서	-11.2086
▁진행되는	-11.2091
▁서로를	-11.2091
▁시작한	-11.2093
▁현실이다	-11.2096
▁일드	-11.2105
▁더빙은	-11.2106
▁보러갔	-11.2108
▁잔잔하면서	-11.2108
▁평론	-11.2113
▁me	-11.2116
▁사랑이란	-11.212
▁따뜻해지	-11.2121
▁작품성은	-11.2121
▁장편	-11.2121
▁해야하나	-11.2121
로인해	-11.2123
▁바랬	-11.2124
릇	-11.2131
▁파격적	-11.2133
▁굉장	-11.2136
▁계기	-11.2136
넘들	-11.2139
정돈	-11.214
출신	-11.2142
있어야	-11.2146
▁방황	-11.2146
▁시간때우기	-11.215
가슴이	-11.2151
▁구려	-11.2151
▁봣다	-11.2152
▁한계가	-11.2153
li	-11.2153
▁가려	-11.2155
▁지루하지만	-11.2155
▁두분	-11.2161
▁제작한	-11.2161
▁적절	-11.2161
들어서	-11.2165
▁서사	-11.2167
▁분노가	-11.2168
▁안들어	-11.2168
▁에스	-11.2176
좋아해서	-11.2179
▁구라	-11.2181
마디	-11.2185
덧	-11.2186
뻑	-11.2186
훗	-11.2187
똘	-11.2187
▁강호동	-11.2187
▁very	-11.2187
▁리암니슨	-11.2187
▁뭡니까	-11.2187
▁아메리칸	-11.2187
▁웨슬리	-11.2187
▁충무로	-11.2187
▁휴머니즘	-11.2187
꽂	-11.2187
렐	-11.2187
칩	-11.2187
▁강혜정	-11.2187
▁뭔내용인지	-11.2187
▁브래드피트	-11.2187
▁앞부분	-11.2187
▁줄리엣	-11.2187
냅	-11.2187
웰	-11.2187
횽	-11.2187
▁신현준	-11.2187
▁어떨까	-11.2187
▁어려울	-11.2187
▁흘렀	-11.2187
▁무슨내용인지	-11.2187
▁제외하고	-11.2187
▁묵직한	-11.2188
스캔들	-11.2188
▁침묵	-11.2188
▁슈렉	-11.2188
▁몬스터	-11.2188
▁레이싱	-11.2189
▁어려웠	-11.2189
▁황홀	-11.2189
▁자칫	-11.2189
데다가	-11.219
▁촌스러운	-11.219
▁뛰쳐	-11.219
▁꺼버렸다	-11.219
▁민망한	-11.219
▁프레디	-11.219
▁오싹	-11.219
ent	-11.219
점드림	-11.219
여성	-11.2191
▁갖추	-11.2191
▁때우기	-11.2192
▁이성재	-11.2192
▁총을	-11.2194
▁졸았다	-11.2195
들었다	-11.2196
▁말할것도	-11.2197
▁호평	-11.2198
할게요	-11.2198
▁질투	-11.2199
▁느꼈습니다	-11.2199
▁어쩌라고	-11.22
▁좋아할만한	-11.22
▁창작	-11.22
▁다를게	-11.22
▁도덕	-11.2201
▁바람피	-11.2201
음악도	-11.2201
▁찬란	-11.2202
▁올레티비	-11.2202
▁졸업	-11.2203
버젼	-11.2204
▁아름다웠던	-11.2204
▁객관적으로	-11.2205
잔아	-11.2206
▁알고보니	-11.2206
▁다세포	-11.2206
▁해놓고	-11.2208
아깝네	-11.2211
▁생각나네	-11.2211
▁안보이	-11.2214
▁병원	-11.2214
▁허무하다	-11.2215
▁지내	-11.2217
▁제법	-11.2218
▁있겠	-11.2219
▁거대한	-11.222
▁끝났다	-11.222
▁이러니	-11.222
▁아니었음	-11.2221
▁재밌게봤음	-11.2221
▁파워	-11.2221
▁고백	-11.2221
겠고	-11.2222
됐음	-11.2223
▁거대	-11.2224
▁재미없습니다	-11.2225
릴때	-11.2225
▁놈들은	-11.2228
▁진보	-11.223
▁소문	-11.2231
으라고	-11.2233
▁나이트	-11.2233
▁나았다	-11.2234
▁공감되는	-11.2237
▁조심	-11.2238
클럽	-11.2238
▁심사위원	-11.2241
해줌	-11.2243
▁유치하지만	-11.2243
▁부를	-11.2244
모양	-11.2245
▁남주인공	-11.2246
▁벗어	-11.2246
▁한때	-11.2247
▁힘든데	-11.2247
▁순위	-11.2248
▁이해안가	-11.2248
뽑	-11.225
쉐	-11.225
▁함정	-11.2251
퀄리티	-11.2251
곰	-11.2251
▁싶네	-11.2253
훨씬	-11.2253
▁웃겨요	-11.2253
불륜	-11.2254
▁바뀌는	-11.2256
왜이리	-11.2258
▁깨어	-11.2259
감동적인	-11.226
▁데드	-11.226
보고싶어요	-11.226
▁지대로	-11.226
▁코스프레	-11.2261
키우	-11.2262
존재	-11.2263
▁높은거	-11.2265
▁음모	-11.2267
▁있었나	-11.2268
영환데	-11.2268
▁치우	-11.2269
▁끝나기	-11.227
▁잃었다	-11.2272
로선	-11.2272
중요한	-11.2273
▁못보고	-11.2276
대상	-11.2279
▁뼈	-11.2281
구조	-11.2282
▁재미있던데	-11.2288
▁일본식	-11.2291
▁미소를	-11.2293
▁감당	-11.2293
▁놈들이	-11.2298
▁부여	-11.2298
보다니	-11.23
▁아니란	-11.2301
부분에서	-11.2304
ha	-11.231
▁여자들의	-11.2311
▁안본사람	-11.2311
재밌는데	-11.2312
▁진화	-11.2312
▁맛에	-11.2315
니당	-11.2316
▁평소에	-11.2317
스러웠다	-11.2323
▁잼있어	-11.2325
만들어도	-11.2325
기분이	-11.2329
▁자극하는	-11.233
▁보자고	-11.2331
▁서부영화	-11.2331
▁열자	-11.2332
▁지구를	-11.2333
없으면	-11.2337
▁기대감	-11.2341
▁주제로	-11.2342
▁사람으로	-11.2343
▁없기	-11.2344
▁별반개도	-11.235
아마	-11.2351
찍었	-11.2352
▁날로	-11.2354
▁말하지	-11.2355
▁욕구	-11.2357
▁장르는	-11.2359
아니야	-11.2359
아닌듯	-11.2363
버려서	-11.2363
▁팔아먹	-11.2364
뛰어	-11.237
▁식의	-11.2372
▁인간들은	-11.2373
할때마다	-11.2374
▁좋아하게	-11.2377
해버린	-11.2377
▁기분만	-11.2378
공간	-11.2384
▁고르	-11.2385
▁케이	-11.2386
어느	-11.239
▁난감	-11.2391
▁했어야	-11.2391
▁잼씀	-11.2391
▁다같이	-11.2391
▁자라	-11.2395
전기세	-11.2399
할수밖에	-11.2403
쓴다	-11.2404
▁안하는데	-11.2405
▁뇌가	-11.2406
▁지원	-11.2411
분보고	-11.2415
▁코믹물	-11.2418
▁맞게	-11.2419
▁23	-11.242
▁도움	-11.2421
이쁘	-11.2421
▁메세지도	-11.2423
▁미국영화	-11.2426
보고싶은	-11.243
▁표현하는	-11.2432
▁팔아	-11.2433
▁모냐	-11.2437
▁연기파	-11.2442
애기	-11.2442
▁별루다	-11.2444
▁갈아	-11.2446
하우스	-11.2446
찍고	-11.2447
▁하는건지	-11.2451
낚였	-11.2458
황당	-11.2463
릴수	-11.2464
▁아까웠	-11.2468
만든다	-11.2472
▁연기자들의	-11.2478
▁행위	-11.248
▁말한다	-11.2481
눈에	-11.2481
▁그래픽은	-11.2488
▁떠난	-11.2489
여름	-11.2492
▁장인	-11.2499
▁몇년이	-11.2502
▁감안	-11.2509
▁살기	-11.2511
마치	-11.2512
영환지	-11.2513
▁너희	-11.2518
▁미리	-11.2518
▁어쩌라는	-11.2522
▁없더라	-11.2523
▁긴박	-11.2524
움직이	-11.2527
있으면서	-11.2527
러브	-11.2528
뜯	-11.2528
끗	-11.2532
훼	-11.2532
▁풀었	-11.2532
둡	-11.2532
▁로보캅	-11.2532
▁봤으니	-11.2532
▁스탤론	-11.2532
▁왠만해선	-11.2532
▁인상깊은	-11.2532
▁후덜덜	-11.2532
샌	-11.2532
촉	-11.2532
탔	-11.2532
▁에이리언	-11.2532
▁한예슬	-11.2532
▁홍진호	-11.2532
듀	-11.2532
▁리즈시절	-11.2532
▁불필요한	-11.2532
▁알맹이	-11.2532
▁김혜	-11.2532
▁나중엔	-11.2532
▁콤비	-11.2532
▁kbs	-11.2532
▁and	-11.2532
▁옹박	-11.2532
▁한정된	-11.2533
▁못미치는	-11.2533
▁박해일	-11.2533
▁놓친	-11.2533
▁전문성우	-11.2533
▁로드무비	-11.2533
▁유아용	-11.2533
▁빵터짐	-11.2533
▁와이프	-11.2533
▁루이스	-11.2533
▁체험	-11.2533
▁부끄러운	-11.2534
▁새롭고	-11.2534
▁서부극	-11.2534
▁스티브	-11.2534
▁2008	-11.2534
▁gt	-11.2535
▁이준기	-11.2535
▁실컷	-11.2535
▁my	-11.2536
▁가득찬	-11.2536
▁발휘	-11.2536
았어	-11.2536
▁효민	-11.2536
▁악몽	-11.2537
▁얼른	-11.2537
▁첨본다	-11.2537
▁얻을	-11.2538
▁억지스러움	-11.2538
▁신파극	-11.2538
▁찾았다	-11.2538
▁습작	-11.2538
베르	-11.2538
▁선율	-11.2538
▁현빈	-11.2538
▁깨알같은	-11.2539
▁뇌리에	-11.2539
▁저평가된	-11.254
▁우리네	-11.2542
▁언제쯤	-11.2543
▁추잡	-11.2543
▁생생하게	-11.2546
▁몰입하면서	-11.2547
▁미안하지만	-11.2547
▁끝내주는	-11.2547
▁원빈	-11.255
▁예뻐요	-11.255
▁잘생긴	-11.255
▁히트	-11.2551
▁표본	-11.2553
▁우려	-11.2555
▁암살	-11.2556
하게되는	-11.2556
▁시원하게	-11.2556
▁파악	-11.2556
▁없었습니다	-11.2557
▁미칠	-11.2557
▁깊이가	-11.2561
▁일상을	-11.2562
▁길고	-11.2562
▁비추천	-11.2563
▁울었음	-11.2564
▁건너	-11.2565
▁발생	-11.2566
▁살인을	-11.2567
점준것중에	-11.2567
▁뺨	-11.2568
징그러	-11.2568
▁신나는	-11.2569
▁요소들	-11.2572
재밋게봣	-11.2574
말도안돼	-11.2574
▁기준으로	-11.2575
▁웃어야	-11.2577
▁숀	-11.2578
▁재밌긴	-11.2583
▁전환	-11.2583
햇음	-11.2584
▁없었지만	-11.2584
▁치밀한	-11.2586
▁행동이	-11.2587
▁나에게는	-11.259
었죠	-11.259
▁역할이	-11.259
▁잔인하게	-11.2591
▁무료로	-11.2592
▁무식	-11.2592
▁뭐하냐	-11.2594
▁말해서	-11.2595
▁영화자체가	-11.2595
▁매회	-11.2595
▁참신하고	-11.2596
▁우디	-11.2597
▁백미	-11.2598
▁그리운	-11.2598
bbbb	-11.2599
▁인터스텔라	-11.2599
▁어떻게든	-11.2601
▁류의	-11.2606
대충	-11.2607
매니아	-11.2608
놨다	-11.2608
H	-11.2609
저렇게	-11.2609
톰	-11.2609
▁매년	-11.2611
슬픈	-11.2612
▁넘겨	-11.2613
▁목숨을	-11.2613
▁말할수	-11.2613
▁잠든	-11.2616
▁각인	-11.262
▁요구	-11.262
▁엉망이고	-11.2621
▁수작입니다	-11.2622
▁이끌	-11.2623
▁지워	-11.2623
만드나	-11.2625
줬음	-11.2627
들에겐	-11.2628
▁냄새가	-11.263
▁비난	-11.2631
▁하셨	-11.2632
성향	-11.2633
▁비유	-11.2634
어디서	-11.2634
▁상업적	-11.2636
삭제	-11.2636
▁드라마에요	-11.2638
▁평정	-11.2639
▁쉣	-11.2639
▁제작진들	-11.264
죽고	-11.2641
싸우	-11.2641
혹시	-11.2642
▁본인이	-11.2642
센스	-11.2643
▁실망했다	-11.2644
▁잼있었다	-11.2645
▁미군	-11.2646
짜증난다	-11.2646
중독	-11.2646
▁후회하지	-11.2647
▁안쓰는데	-11.265
하겠네	-11.2654
▁당신들	-11.2656
29	-11.2659
닼ᄏᄏᄏ	-11.266
▁니들은	-11.2665
때문인지	-11.267
▁고려	-11.2674
▁CGV	-11.2674
등장	-11.2675
▁난해하다	-11.2679
▁작년	-11.2681
아아아아	-11.2682
▁안난다	-11.2684
옆에서	-11.2687
던데요	-11.2687
▁먹먹함	-11.2689
▁못잡	-11.2689
▁미인	-11.2689
자리에	-11.2692
해짐	-11.2692
▁만나고	-11.2692
것같아서	-11.2692
▁화해	-11.2695
것인지	-11.2696
▁기억하는	-11.2698
넘게	-11.27
▁밴드	-11.2701
▁오류	-11.2702
▁이걸보고	-11.2702
▁만들기도	-11.2703
기보단	-11.2708
▁관람가	-11.2712
▁영혼을	-11.2719
▁해피엔딩이	-11.2722
▁일어나는	-11.2724
▁조직	-11.2724
▁남지	-11.2725
▁지루할수	-11.2727
▁고통을	-11.2731
om	-11.2732
▁맞추기	-11.2737
▁기분좋은	-11.2738
▁빠져들어	-11.2738
▁교훈이	-11.2742
▁너무좋아요	-11.2742
분명	-11.2747
▁과장되	-11.2755
▁찌질이	-11.2758
▁파일	-11.2759
▁일일	-11.2762
최악의영화	-11.2763
▁갱	-11.2771
▁찡한	-11.2776
학원	-11.2778
▁당한	-11.278
재미없고	-11.2781
▁최초	-11.2782
ok	-11.2782
볼수있는	-11.2783
미스	-11.2784
▁조용한	-11.2788
▁영활	-11.2789
▁크고	-11.2789
세포	-11.2792
하든	-11.2793
▁마주	-11.2794
팬으로서	-11.2795
좋아하는데	-11.2796
▁잘봤다	-11.2796
하는걸	-11.2799
▁볼거리가	-11.28
게끔	-11.2804
돼서	-11.2805
버리네	-11.2807
▁미화하는	-11.2808
▁그랬다	-11.2808
▁눈만	-11.2809
▁전국	-11.2812
듣는	-11.2815
▁좋아했	-11.2818
▁비슷하	-11.282
대작	-11.2821
▁욕나오는	-11.2821
감사	-11.2825
▁성공한	-11.2825
아주아주	-11.2831
▁말하기	-11.2834
모르는	-11.2838
▁잃었	-11.2842
▁싸우고	-11.2844
▁슬프게	-11.2852
▁가졌	-11.2855
▁세계를	-11.2857
▁봤다니	-11.2857
적으론	-11.2857
▁내취향	-11.2858
▁마음속에	-11.2867
▁연관	-11.2868
들어가	-11.287
부끄럽	-11.2875
▁예매	-11.2875
▁만들어졌다	-11.288
▁광주	-11.2882
▁안죽	-11.2883
▁주려고	-11.2886
▁능가	-11.2887
죤	-11.2889
▁페이크	-11.2889
왈	-11.2889
▁까메오	-11.2889
▁멜깁슨	-11.2889
▁안봤지만	-11.2889
▁엑스트라	-11.2889
▁원맨쇼	-11.2889
▁찝찝함	-11.2889
▁크루즈	-11.2889
뺀	-11.2889
젓	-11.2889
쫙	-11.2889
ᄑ	-11.2889
▁love	-11.2889
▁최곱니다	-11.2889
씌	-11.2889
욜	-11.2889
프로젝트	-11.2889
naver	-11.2889
▁무책임	-11.2889
▁문근영	-11.2889
▁장쯔이	-11.2889
도그렇고	-11.2889
▁추악한	-11.2889
▁지겨운	-11.2889
▁부자연스럽	-11.289
▁고소영	-11.289
▁샤론스톤	-11.289
봅시다	-11.289
▁훈련	-11.289
▁미치겠다	-11.289
▁아무래도	-11.289
▁유오성	-11.289
▁페이크다큐	-11.289
▁고현정	-11.289
▁빨리감기	-11.289
▁골때리	-11.289
▁매튜	-11.289
▁외로운	-11.289
써요	-11.289
▁단체로	-11.289
▁한지민	-11.289
▁조선족	-11.2891
▁일어난	-11.2891
▁뒤집어	-11.2891
▁돋보임	-11.2891
▁이건머	-11.2891
▁조인성	-11.2891
뿐더러	-11.2891
▁잔잔하니	-11.2891
▁여진구	-11.2892
▁보여서	-11.2892
▁꺼버림	-11.2892
▁졸업작품	-11.2892
▁쌍욕	-11.2892
▁푸른	-11.2892
괴물	-11.2892
▁상투적	-11.2893
▁하얀	-11.2893
▁육체	-11.2893
▁영화관가서	-11.2894
▁미흡	-11.2894
▁느껴짐	-11.2894
▁화가난다	-11.2894
▁끝내준다	-11.2894
▁대략	-11.2894
▁일대기	-11.2895
▁대형	-11.2895
▁투표	-11.2896
▁회복	-11.2896
▁명곡	-11.2896
▁껏다	-11.2896
▁출연료	-11.2897
▁적응	-11.2898
▁녹화	-11.2898
▁교차	-11.2899
▁몇번이고	-11.29
▁완소	-11.29
▁어느새	-11.2901
▁급전개	-11.2902
▁신앙	-11.2903
▁괴작	-11.2903
▁생겨서	-11.2903
▁대가리	-11.2904
▁않았습니다	-11.2904
▁금방	-11.2908
▁황제	-11.2909
▁이게뭐야	-11.2909
▁장치	-11.2909
▁대변	-11.2909
▁떠올리게	-11.291
▁울나라	-11.2913
▁슴가	-11.2913
별한개	-11.2913
▁않았는데	-11.2913
▁사랑스런	-11.2914
▁능가하는	-11.2914
▁어째서	-11.2915
▁무의미한	-11.2918
박스	-11.2918
▁인종	-11.2918
▁지존	-11.292
▁되는거	-11.292
시킴	-11.2923
▁뛰어나다	-11.2924
▁가는줄	-11.2924
을위한	-11.2924
▁로그인하게	-11.2925
▁잘생김	-11.2927
인줄알았는데	-11.2929
▁사막	-11.2929
▁어색하지	-11.2929
▁구매	-11.293
이라는거	-11.2931
▁작정	-11.2931
▁싸이	-11.2932
▁괜찮던데	-11.2933
▁리얼하게	-11.2933
▁멋있음	-11.2934
▁이모양	-11.2934
▁인기가	-11.2935
단체	-11.2935
▁쌩	-11.2937
▁암울한	-11.2937
하구요	-11.2937
▁좆	-11.2938
▁분명하다	-11.2939
▁연관성	-11.2939
▁훌륭했다	-11.294
▁보았지만	-11.2941
좋을	-11.2941
▁결과물	-11.2942
▁살아있다	-11.2942
유키	-11.2945
▁어린애들	-11.2945
▁된다고	-11.2946
▁흔적이	-11.2947
▁알수가	-11.2947
▁배경은	-11.2948
▁극적인	-11.2952
▁퉤	-11.2953
이었어	-11.2953
인증	-11.2956
▁들려	-11.2957
▁눈빛이	-11.2958
▁불편하고	-11.2961
▁한국형	-11.2961
▁쓰레기라고	-11.2962
▁남자들이	-11.2966
▁극장서	-11.297
여년전	-11.2971
▁확신	-11.2972
▁진정으로	-11.2972
▁관점에서	-11.2975
J	-11.2975
뭉	-11.2976
▁호러물	-11.2977
캬	-11.2978
괜히	-11.2979
ig	-11.298
터지고	-11.2981
펑펑	-11.2981
▁웃기기	-11.2983
감사합니다	-11.2983
▁자제	-11.2984
죽는줄	-11.2984
▁안가고	-11.2985
▁만들었네요	-11.2985
▁봐야함	-11.2988
평생	-11.2988
▁개봉하지	-11.2988
▁한표	-11.299
▁농구	-11.299
▁그외	-11.2991
엉망	-11.2991
흥미	-11.2993
▁실망스럽	-11.2994
▁사연	-11.2995
▁영상물	-11.2998
▁내눈	-11.2999
▁꼬라지	-11.3001
▁코믹한	-11.3005
▁써야	-11.3005
▁깍아	-11.3006
지말아야	-11.3012
▁몰입을	-11.3012
행동	-11.3013
수있을까	-11.3014
▁망상	-11.3015
▁생각하는데	-11.3016
▁반전과	-11.3016
▁망치는	-11.3019
▁뭣도	-11.3019
▁당당	-11.302
▁구하기	-11.3021
▁영구	-11.3021
▁일이다	-11.3021
엇던	-11.3023
기억에남는	-11.3024
티비로	-11.3025
▁생각해도	-11.3027
▁벗기	-11.3027
▁내평점	-11.3027
▁난무	-11.3028
▁수준이다	-11.3029
▁파이팅	-11.3033
▁대단함	-11.3034
젠	-11.3037
▁넘쳐	-11.3038
바보	-11.3041
▁즐기는	-11.3043
▁잣	-11.3043
▁드러난	-11.3044
▁알바생	-11.3046
▁시시한	-11.305
현재	-11.305
▁없었다면	-11.305
▁1000	-11.3051
그것도	-11.3052
될수	-11.3056
갔던	-11.3057
▁현장	-11.3061
▁골라	-11.3061
재밌네요	-11.3065
▁한달	-11.3065
▁평론가들은	-11.3066
▁잊어	-11.3067
▁대단해	-11.3069
낮다	-11.3069
▁처음입니다	-11.3072
죽음	-11.3076
▁닭	-11.3078
같았다	-11.3079
죽겠다	-11.308
▁촌스럽지	-11.308
▁알앗	-11.3082
할수록	-11.3087
졸립	-11.3093
▁흘러도	-11.3093
크로	-11.3093
▁주말에	-11.3094
▁지인	-11.3096
뒤로	-11.31
▁거부감	-11.3108
소재로	-11.3113
ain	-11.3114
▁즐겨보	-11.3121
▁남자들의	-11.3129
▁짠한	-11.3129
싶음	-11.3132
▁감정들	-11.3139
▁그시대	-11.3139
찾기	-11.3144
▁각본과	-11.3146
앜	-11.3147
보는것	-11.3147
!!!!!!!!!!!!	-11.3149
연애	-11.3152
▁관계를	-11.3156
▁그것은	-11.3163
▁못하지만	-11.3163
!!!!!!!!!!!!!!	-11.3166
▁지성	-11.3167
라길래	-11.3169
대결	-11.3174
되야	-11.3176
▁원작보다	-11.3178
▁극과	-11.3181
▁여자와	-11.3186
▁돌아가는	-11.3187
▁동급	-11.3191
▁욕할	-11.3197
▁유쾌함	-11.3197
부분만	-11.3199
라기엔	-11.3199
▁몽환적	-11.3204
▁가리	-11.3207
심장	-11.3212
교회	-11.3214
▁썩어	-11.3216
▁어정쩡	-11.3216
▁잡았	-11.3218
이라지만	-11.3221
▁중간중간에	-11.3221
▁기대치	-11.3222
여자들	-11.3222
▁일깨워	-11.3223
킴	-11.3225
인건지	-11.3226
영화보면서	-11.3227
하다못해	-11.3237
만들기	-11.3244
▁나오던	-11.3244
뿔	-11.3252
▁못볼	-11.3256
▁많았다	-11.326
▁폴워커	-11.326
▁OCN	-11.326
▁듣보잡	-11.326
▁보면볼수록	-11.326
▁안봤으면	-11.326
▁어메이징	-11.326
▁인셉션	-11.326
▁쫄깃	-11.326
괘	-11.326
뇨	-11.326
쑤	-11.326
▁스타일리쉬	-11.326
▁어벤져스	-11.326
▁엄태웅	-11.326
▁유치뽕짝	-11.326
궈	-11.326
시켰다	-11.326
욧	-11.326
펄	-11.326
▁공효진	-11.326
▁로렌스	-11.326
▁브래드	-11.326
▁덴젤	-11.326
▁적나라하게	-11.326
▁지하철	-11.326
▁눈뜨고	-11.326
▁노무현	-11.326
▁정유미	-11.326
▁애절한	-11.326
▁신들린	-11.326
▁즐거워	-11.326
▁토마스	-11.326
▁중딩때	-11.326
▁금요일	-11.326
▁피라냐	-11.326
▁디자인	-11.326
▁최선을	-11.326
▁믿겨지지	-11.326
▁차가운	-11.326
지맙시다	-11.326
▁옹호	-11.326
테잎	-11.326
▁에너지	-11.326
▁떠오른다	-11.326
▁어려워	-11.326
▁가면갈수록	-11.3261
▁나타난	-11.3261
▁똥폼	-11.3261
▁싱겁	-11.3261
▁짧아서	-11.3261
▁나눠	-11.3261
▁시청율	-11.3262
▁즐겁다	-11.3262
▁이민정	-11.3262
▁거슬린다	-11.3262
▁주지훈	-11.3262
▁흥해라	-11.3263
▁가족끼리	-11.3265
▁측면	-11.3265
보고난후	-11.3265
▁독백	-11.3266
▁낯선	-11.3266
▁리암	-11.3266
쩌네	-11.3267
▁실존	-11.3267
▁엔딩곡	-11.3268
▁사랑스러워	-11.3269
▁문학	-11.327
▁타짜	-11.327
▁화끈하게	-11.3271
▁터졌	-11.3271
부조리	-11.3271
▁펑펑울	-11.3271
▁올레	-11.3272
하는건데	-11.3274
▁의존	-11.3274
▁행복해지는	-11.3274
▁승화	-11.3275
▁보시는	-11.3276
▁전형	-11.3276
▁실종	-11.3277
▁키워	-11.3278
▁영구와	-11.3278
▁솔직하게	-11.3278
▁대단합니다	-11.3279
▁알면서도	-11.3279
▁어려서	-11.3279
▁어깨	-11.328
▁이뻐요	-11.3281
하셨어요	-11.3281
▁넘친다	-11.3284
▁아니었으면	-11.3284
▁완벽히	-11.3286
▁아니에요	-11.3286
운동	-11.3287
연기너무잘	-11.3291
▁멋지네요	-11.3291
▁연민	-11.3291
▁안봤는데	-11.3291
성공	-11.3291
▁본후	-11.3295
▁아랫	-11.3296
▁97	-11.3297
▁나왔습니다	-11.3297
444	-11.3297
ly	-11.3298
▁못봐주겠다	-11.3298
▁몰라서	-11.3298
ᅲᅲᅲᅲᅲᅲ	-11.3299
▁자연스럽고	-11.33
▁볼거리도	-11.33
흐흐	-11.3301
되기	-11.3304
▁도박	-11.3305
게아니라	-11.3307
▁몇명	-11.3308
▁허준	-11.3309
▁이뤄	-11.3309
▁꼭봐라	-11.331
▁경쟁	-11.3315
all	-11.3315
▁시간아까운	-11.3315
하네여	-11.3317
▁귀에	-11.332
25	-11.3321
돋보	-11.3323
▁평타	-11.3323
lo	-11.3325
▁아픔이	-11.3328
▁꽃보다	-11.3329
cgv	-11.3334
ap	-11.3336
▁티나	-11.3336
▁죽어서	-11.3337
▁변명	-11.3337
0000	-11.3338
▁허무하고	-11.3339
▁전편에	-11.334
시청	-11.334
▁감동감동	-11.3342
▁후반으로	-11.3342
연결	-11.3343
▁설레임	-11.3344
▁안나와서	-11.3345
▁유사	-11.3346
▁보실	-11.3346
▁따듯하	-11.3346
▁밝은	-11.3346
됐지만	-11.3347
▁로드	-11.3347
▁강요	-11.3352
ᄋᄋᄋ	-11.3353
▁한순간도	-11.3356
▁납득이	-11.3357
누르	-11.3358
슬픔	-11.3358
▁하차	-11.3361
ᅮᅮᅮᅮ	-11.3361
OST	-11.3364
녹	-11.3368
개념	-11.3368
▁음악영화	-11.3368
▁기대합니다	-11.3371
▁끔찍한	-11.3371
▁그땐	-11.3372
▁통일	-11.3373
십니다	-11.3373
결론	-11.3373
▁후회할	-11.3376
실패	-11.3376
남기는데	-11.3376
놈들아	-11.3377
기위한	-11.3383
항상	-11.3384
▁토르	-11.3384
▁진구	-11.3387
왜케	-11.3391
▁인내심을	-11.3391
그려	-11.3391
▁인상적이다	-11.3392
▁미치는	-11.3393
▁내용전개가	-11.3397
재밌었다	-11.3397
▁무서운거	-11.3397
▁죄를	-11.3399
안나온다	-11.3399
살려	-11.3399
▁맞은	-11.34
▁안되네요	-11.3402
▁모두에게	-11.3405
▁그나저나	-11.3408
▁죽지	-11.3409
▁역활	-11.3411
남녀	-11.3415
거라곤	-11.3417
▁보스	-11.3419
▁봤을땐	-11.3422
▁주연배우들	-11.3425
▁살릴	-11.3426
찾았	-11.3428
▁끼어	-11.3432
▁따라서	-11.3433
▁이게왜	-11.3433
▁울뻔	-11.3435
▁뭐죠	-11.3437
슬프고	-11.3439
▁가르	-11.344
이라곤	-11.3441
▁엄마와	-11.3444
▁끝나네	-11.3447
▁소년의	-11.345
▁당신을	-11.345
▁보장	-11.3458
잇다	-11.3459
▁참신함	-11.3461
했던거	-11.3462
돼지	-11.3472
▁거리가	-11.3475
▁무언가가	-11.3475
▁드라마였다	-11.3477
▁진지함	-11.3478
줄알고	-11.349
▁끝나지	-11.349
▁한국말	-11.3492
개판	-11.3493
답지	-11.3494
▁얼굴만	-11.3499
▁사전	-11.35
회장	-11.35
▁시나리오와	-11.3501
▁망한영화	-11.3502
▁빠순이들	-11.3502
▁어이가없	-11.3503
▁마이너스는	-11.3512
▁그정도	-11.3519
▁있는것도	-11.352
결제	-11.3522
나보네	-11.3525
▁아름다움을	-11.3528
▁시선을	-11.3528
보겠다	-11.3529
▁주연으로	-11.3535
▁사정	-11.3535
▁명작인데	-11.3536
▁졸린	-11.3537
▁아역배우	-11.3541
잇어요	-11.3543
▁납득	-11.3544
▁성우를	-11.3545
▁웃기기도	-11.3548
▁사회를	-11.3552
▁두사람	-11.3556
▁나라를	-11.3563
민주	-11.3567
▁아들과	-11.3567
▁포기한	-11.3567
주길	-11.357
무리	-11.3571
생긴	-11.3572
▁쓴다	-11.3575
하더만	-11.3576
▁전작들	-11.3585
▁개미	-11.3596
보게됨	-11.3596
할수있다	-11.3599
미소	-11.3601
▁개떡	-11.3601
것같고	-11.3602
터지는	-11.3607
지마요	-11.361
▁현실적	-11.3615
▁끝장	-11.3618
▁이전에	-11.3621
▁객관적	-11.3624
옵니다	-11.3626
죽이기	-11.363
▁사실적	-11.363
▁볼수없	-11.3631
망작	-11.3634
▁흠잡을	-11.3637
▁웃기긴	-11.3643
렘	-11.3644
▁이웃	-11.3644
캡	-11.3644
▁아날로그	-11.3644
▁어땠을까	-11.3644
▁어중간한	-11.3644
▁옴니버스	-11.3644
▁정신건강에	-11.3644
▁초콜릿	-11.3644
▁톰행크스	-11.3644
갸	-11.3644
썽	-11.3644
쨩	-11.3644
툰	-11.3644
▁끊임없이	-11.3644
▁뚜렷	-11.3644
▁슈스케	-11.3644
▁핸드폰	-11.3644
짖	-11.3644
쪄	-11.3644
▁일으키	-11.3644
▁하루종일	-11.3644
▁조재현	-11.3644
▁캐서린	-11.3644
▁보기드문	-11.3644
▁빡쳐서	-11.3644
▁유역비	-11.3644
▁재해석	-11.3644
▁다녀온	-11.3644
▁뒤통수	-11.3644
▁마피아	-11.3644
▁서서히	-11.3644
▁지진희	-11.3644
▁도입부	-11.3645
▁이종석	-11.3645
▁좌파	-11.3645
▁압박	-11.3645
▁주옥같은	-11.3645
클래스	-11.3645
▁낮춰	-11.3645
▁괜춘	-11.3645
▁토이스토리	-11.3645
▁가만히	-11.3645
▁김수로	-11.3645
▁설렘	-11.3645
▁닌자	-11.3646
▁멋집니다	-11.3646
▁유치원생	-11.3646
▁활약	-11.3646
▁알겠으나	-11.3647
▁아쉬웠다	-11.3647
▁무섭지도않고	-11.3647
▁탐욕	-11.3647
▁정도껏	-11.3647
잔잔	-11.3648
쉽게	-11.3648
▁발견한	-11.365
▁성괴	-11.3651
▁먹먹해지는	-11.3651
▁반성해라	-11.3651
dd	-11.3653
▁짐작	-11.3654
▁반지의	-11.3654
▁할말이없다	-11.3655
▁행복했습니다	-11.3656
하셔서	-11.3656
▁벌어지는	-11.3657
▁고마워요	-11.3657
▁명예	-11.3658
▁질질끄는	-11.3658
▁지났는데	-11.3658
▁담담하게	-11.3658
▁몰래	-11.3659
▁있었을까	-11.3659
놔서	-11.3659
▁다루는	-11.3659
▁미치지	-11.3659
▁연계	-11.3662
▁의심스럽다	-11.3662
▁120	-11.3662
▁나오나	-11.3662
▁정답	-11.3664
▁깨달았다	-11.3664
▁기발	-11.3666
▁양산	-11.3666
거같고	-11.3667
재미없네	-11.3667
▁하필	-11.3668
▁풀어가는	-11.3669
▁재미없었던	-11.367
▁극단적인	-11.3671
▁나쁜놈	-11.3672
▁그리스	-11.3673
▁조커	-11.3674
▁물론이고	-11.3674
▁실망스러운	-11.3675
▁개봉했을때	-11.3675
▁호러영화	-11.3675
▁이룬	-11.3678
!!!!!!!!!!!	-11.3678
▁원망	-11.368
▁통한	-11.3681
▁강인	-11.3681
▁동경	-11.3681
▁언더	-11.3682
편보단	-11.3683
▁하지말	-11.369
▁철없는	-11.3693
소년	-11.3693
▁얻었	-11.3695
▁최대한	-11.3696
▁프레	-11.3696
▁분석	-11.3697
망신	-11.3699
▁때론	-11.3699
기대안했는데	-11.37
▁액션씬이	-11.37
▁낫네	-11.3706
했기에	-11.3709
보았다	-11.3709
▁높냐	-11.3715
▁따른	-11.372
려니	-11.3721
거아닌가	-11.3721
▁최고였음	-11.3724
▁중독성	-11.3725
▁좋아합니다	-11.3728
▁전통	-11.3728
▁된거	-11.3729
▁다가오는	-11.3729
▁확실하	-11.373
▁찍어라	-11.3731
편보고	-11.3731
▁시바	-11.3732
▁서기	-11.3732
▁197	-11.3737
▁사실적인	-11.374
▁암시	-11.374
▁별반	-11.3741
▁잡은	-11.3743
▁그녀는	-11.3743
▁아쉽게	-11.3747
▁오그라	-11.3748
뇌	-11.3748
▁만들었던	-11.3748
▁심했다	-11.3751
채널	-11.3752
▁생각지도	-11.3752
▁시간가는	-11.3755
▁피트	-11.3757
뽀	-11.3759
질질끌	-11.376
곱	-11.3761
안타깝	-11.3761
웬	-11.3761
짠	-11.3761
젖	-11.3762
▁정성	-11.3762
▁괜찮았고	-11.3763
스텝	-11.3763
오히려	-11.3764
▁안되요	-11.3764
꽤	-11.3764
▁이러한	-11.3764
필드	-11.3765
끊	-11.3765
하시는분들	-11.3766
흥행	-11.3766
프트	-11.3767
▁실망스러웠	-11.3767
▁알아서	-11.3768
영활	-11.3769
▁과한	-11.3773
▁배운	-11.3776
▁보이네요	-11.3782
▁보겠	-11.3783
말곤	-11.3785
주시길	-11.3789
그닥	-11.379
무엇보다	-11.379
▁평점높	-11.3791
기다리	-11.3791
보고있는데	-11.3794
▁한편으로	-11.3794
▁기다리고	-11.3797
▁빛나	-11.3802
▁몇일	-11.3802
▁최악입니다	-11.3804
▁안맞고	-11.3808
▁이름으로	-11.381
▁리얼한	-11.381
▁브레	-11.3812
전설	-11.3812
▁찍었다	-11.3816
▁궁금한	-11.3817
▁짱입니다	-11.3821
갖고	-11.3824
▁큰일	-11.3825
▁당황스럽	-11.3831
어렵	-11.3839
끝났으면	-11.384
누님	-11.3841
라는건지	-11.3842
▁반전까지	-11.3844
어주는	-11.3847
▁공리	-11.3849
70	-11.385
놔	-11.3851
▁밥먹	-11.3851
▁유우	-11.3851
▁어처구니가	-11.3853
▁웃어	-11.3862
▁아버지를	-11.3863
리얼	-11.3869
▁흐름을	-11.3869
▁전반	-11.387
▁요소는	-11.3872
했으니	-11.3873
▁실망시키지	-11.3877
많아	-11.3879
▁괴수	-11.388
▁미워	-11.388
행위	-11.3881
졸라	-11.3881
이런걸	-11.3881
▁맞았	-11.3882
같으면	-11.3884
▁나오니	-11.3885
비슷한	-11.3891
상실	-11.3891
▁후에도	-11.3899
보여서	-11.3902
굿굿	-11.3903
▁출연진들	-11.3903
▁심심할때	-11.3909
우울	-11.3911
45	-11.3912
▁내면의	-11.3913
일까요	-11.3914
굿굿굿	-11.3917
▁기부	-11.3931
▁작품이라고	-11.3932
보라고	-11.3933
가능한	-11.3934
▁인물들이	-11.3934
▁소리지르	-11.3945
▁천재다	-11.3951
으려나	-11.3959
거리며	-11.3959
싶습니다	-11.3964
무섭다	-11.3968
▁할일	-11.3969
▁서부	-11.397
부모	-11.3971
되어야	-11.3972
▁건진	-11.398
▁조성	-11.398
바리	-11.3991
▁정서에	-11.3991
생기고	-11.3992
해야하나	-11.3994
▁저예산영화	-11.3998
집어	-11.4003
것두	-11.4009
▁설레는	-11.401
▁탁월	-11.4013
▁못만든	-11.4017
먹음	-11.4018
비슷	-11.4023
▁건물	-11.4024
▁무의미	-11.4025
예상	-11.4026
좋겟다	-11.4027
했구나	-11.4034
▁안나오나	-11.4035
깁니다	-11.4043
맷	-11.4043
▁코믹연기	-11.4044
떠나	-11.4044
맙	-11.4044
▁감독판	-11.4044
턱	-11.4044
훅	-11.4044
▁브루스윌리스	-11.4044
겸	-11.4044
ᅭ	-11.4044
▁맥라이언	-11.4044
▁브라이언	-11.4044
▁스펙타클	-11.4044
▁쌍팔년도	-11.4044
▁아팠다	-11.4044
▁오토바이	-11.4044
▁윌스미스	-11.4044
▁천녀유혼	-11.4044
쌤	-11.4044
얹	-11.4044
퍽	-11.4044
▁빈디젤	-11.4044
▁선입견	-11.4044
▁시스템	-11.4044
▁여실히	-11.4044
▁윤계상	-11.4044
밭	-11.4044
씽	-11.4044
엣	-11.4044
톡	-11.4044
▁숨막히는	-11.4044
▁후유증	-11.4044
▁고맙다	-11.4044
▁소방관	-11.4044
4000	-11.4044
▁장만옥	-11.4044
▁버무려	-11.4044
▁어리석	-11.4044
▁수고하셨습니다	-11.4044
▁지상파	-11.4044
▁사춘기	-11.4044
▁가깝다	-11.4045
▁서세원	-11.4045
▁엑소	-11.4045
▁손꼽히는	-11.4045
▁어디선가	-11.4045
▁스탭	-11.4045
▁테론	-11.4045
▁민주주의	-11.4045
▁다가온다	-11.4045
랍시고	-11.4045
▁빈틈	-11.4046
▁김선아	-11.4046
이라는걸	-11.4046
▁씹노잼	-11.4046
▁쾌감	-11.4046
▁빠져든다	-11.4047
▁피터팬	-11.4048
▁MC	-11.4049
▁상쾌	-11.4049
▁덕후	-11.405
▁다르겠지만	-11.405
▁애썼	-11.405
▁망했는지	-11.4051
▁감동적이었어요	-11.4051
▁엽기적인	-11.4051
▁몇안되는	-11.4052
▁잔잔히	-11.4052
▁아이리스	-11.4052
▁치명적	-11.4052
▁목표	-11.4052
▁동기	-11.4053
▁따듯한	-11.4053
▁팬이라서	-11.4055
먹으면서	-11.4057
▁섬세하고	-11.4058
▁모르겠어요	-11.406
▁암걸리	-11.406
▁린치	-11.406
▁절제	-11.406
▁화난다	-11.4061
▁포장한	-11.4061
▁초등학생때	-11.4061
▁어떨지	-11.4062
▁여자친구랑	-11.4063
스럽네	-11.4065
▁일본애니	-11.4065
였는지	-11.4066
▁늘어지는	-11.4066
▁왕따	-11.4068
었더라면	-11.4068
▁소외	-11.407
잡아먹	-11.407
▁풋풋하고	-11.407
▁오랜만이다	-11.407
▁남김	-11.4072
했을텐데	-11.4072
점이면	-11.4073
▁몰랐던	-11.4075
▁비오는	-11.4075
▁초등	-11.4075
▁숨어	-11.4076
▁짱이에요	-11.4076
마져	-11.4077
▁야한장면	-11.4077
▁틀림없다	-11.4077
▁그러니까	-11.4077
▁대하여	-11.4077
▁싫음	-11.4079
▁촌스럽고	-11.4079
폐지	-11.4082
▁조금이라도	-11.4082
나오는거	-11.4083
▁유쾌하다	-11.4084
단계	-11.4084
▁처절한	-11.4085
▁니콜키드먼	-11.4086
▁기괴한	-11.4087
허허허	-11.4088
▁신기하다	-11.409
▁실화라고	-11.409
▁스크린으로	-11.4091
▁대단하네요	-11.4092
▁에바	-11.4092
▁밋밋하고	-11.4092
▁핵심	-11.4093
▁재연	-11.4094
▁해학	-11.4094
▁비슷하게	-11.4101
▁2007	-11.4101
▁자매	-11.4101
르르	-11.4104
▁근거	-11.4106
민망	-11.4107
▁못하나	-11.4107
▁걸레	-11.4108
▁와닿는다	-11.411
▁망쳐놨	-11.4111
재미가없	-11.4111
▁돌아온	-11.4114
▁좋아했는데	-11.4115
▁전형적	-11.4115
▁이름만	-11.4116
테이프	-11.4116
▁광해	-11.4116
▁미키	-11.4116
▁아버지와	-11.412
▁볼줄	-11.412
▁엉뚱한	-11.4123
▁만들었는데	-11.4123
▁좋아하면	-11.4125
▁밝고	-11.4128
훌륭	-11.4131
▁보다보면	-11.4131
▁넘치고	-11.4131
버그	-11.4133
개월	-11.4138
보지마삼	-11.4138
▁높네요	-11.4138
▁생각밖에	-11.4142
▁않으면서	-11.4146
당함	-11.4147
▁없잖아	-11.4148
▁강추입니다	-11.4148
▁된장	-11.4148
▁싫어서	-11.4149
▁연구	-11.4153
▁쓴거	-11.4154
▁생생한	-11.4154
▁재미난	-11.4156
▁방식이	-11.4158
났습니다	-11.416
지마시길	-11.4162
▁보여주기	-11.4163
브리	-11.4164
▁흥미진진하고	-11.4165
▁어쩌고	-11.4165
▁못보겠네	-11.4168
▁하나경	-11.4169
▁동심을	-11.4169
▁욕하면서	-11.4171
▁화장	-11.4172
갱	-11.4178
▁된다면	-11.4179
넌	-11.418
잭	-11.418
▁속상	-11.418
진정한	-11.4183
▁저때	-11.4184
한마디	-11.4185
▁이슈	-11.4185
몸매	-11.4186
▁멋있게	-11.4186
▁억울하	-11.4189
▁공개	-11.4194
▁한국식	-11.4199
감동적이고	-11.4203
설레	-11.4205
▁운명을	-11.4206
▁잊혀지지않는	-11.4207
명이서	-11.4208
▁기대보다	-11.4211
게스트	-11.4213
▁댓글알바	-11.4214
왠지	-11.4214
▁형성	-11.4215
안나옴	-11.4215
▁보호	-11.422
▁대박입니다	-11.4221
▁칼로	-11.4223
꺼임	-11.4227
▁형편없다	-11.423
▁한국드라마	-11.4233
▁재밌었어	-11.4234
▁위로가	-11.4235
더이상	-11.4237
▁하늘을	-11.4239
▁계신	-11.424
▁질주	-11.424
두번	-11.4243
▁수작임	-11.4246
안됐	-11.425
시기를	-11.4251
되었지만	-11.4253
꼬마	-11.4255
▁약하고	-11.4255
▁기계	-11.4256
잼잇	-11.4261
▁쩔었	-11.4262
추격	-11.4263
▁좋아함	-11.4266
▁부실한	-11.4266
▁주장	-11.4266
▁돌리도	-11.4271
런지	-11.4274
▁무난한	-11.4282
▁잔잔하다	-11.4284
▁심해	-11.4286
▁완성도를	-11.4286
▁바보로	-11.4296
▁않았을	-11.4297
지않음	-11.4304
▁대구	-11.4307
만들면	-11.4307
▁무섭다고	-11.4312
재미있어	-11.4316
▁한국영화중	-11.4316
올때	-11.4317
마른	-11.4319
해야만	-11.4323
▁원제	-11.4325
▁물리	-11.4334
▁잼없어	-11.4335
보여준	-11.4336
너무좋아	-11.4346
착한	-11.4354
▁노리	-11.4354
중심	-11.436
곁	-11.4367
▁강남	-11.4367
장난치	-11.4372
▁최악이네	-11.4375
막장드라마	-11.4386
▁그곳	-11.439
▁인내	-11.439
주는것도	-11.439
했었던	-11.439
없습니다	-11.4391
하려다	-11.4393
보낸	-11.4396
co	-11.4399
다고해서	-11.44
▁사랑하게	-11.4402
과함께	-11.4404
▁위대	-11.4407
▁써라	-11.4407
▁영향	-11.4408
▁붙여	-11.4418
▁절묘	-11.4431
검사	-11.4439
젼	-11.444
▁걸려	-11.4441
▁미스터	-11.4444
▁말리	-11.4446
버렸어	-11.445
밴	-11.4452
모드	-11.4453
없냐	-11.4459
헨	-11.446
엥	-11.4461
릉	-11.4461
햐	-11.4461
▁ever	-11.4461
▁로멘틱	-11.4461
▁로버츠	-11.4461
▁아담샌들러	-11.4461
▁인피니트	-11.4461
▁중구난방	-11.4461
▁카타르시스	-11.4461
▁히치콕	-11.4461
댔	-11.4461
▁맥어보이	-11.4461
▁생뚱맞	-11.4461
▁철저히	-11.4461
갤	-11.4461
윙	-11.4461
▁자존심	-11.4461
▁채민서	-11.4461
▁최진실	-11.4461
▁타이밍	-11.4461
▁훼손	-11.4461
▁신비로운	-11.4461
▁긍정적	-11.4461
▁불멸의	-11.4461
▁압축	-11.4461
▁모니터	-11.4461
▁서인국	-11.4461
▁제레미	-11.4461
▁좌절	-11.4461
▁배드신	-11.4461
▁유익한	-11.4461
질않나	-11.4461
▁느꼇	-11.4461
잘어울려	-11.4461
▁한니발	-11.4461
▁일관성	-11.4461
▁신은경	-11.4461
▁나쁘다	-11.4462
점준거중	-11.4462
▁훈남	-11.4462
▁뒤로갈수록	-11.4462
감우성	-11.4462
▁아키라	-11.4463
▁근육	-11.4463
▁감사드립니다	-11.4463
▁역겹고	-11.4463
단막극	-11.4463
▁2009	-11.4463
▁베낀	-11.4463
읍니다	-11.4464
▁얻은	-11.4464
▁2006	-11.4464
▁통찰	-11.4464
▁모르겠으나	-11.4464
▁사소한	-11.4464
▁오래오래	-11.4464
▁흔하디	-11.4464
▁주제곡	-11.4465
▁파멸	-11.4466
▁본질을	-11.4466
▁돋는다	-11.4466
▁역부족	-11.4466
▁신뢰	-11.4466
▁발톱	-11.4467
▁잔인하지도	-11.4467
▁놀라움	-11.4468
▁외롭	-11.4468
▁무표정	-11.4468
▁고딩때	-11.4468
▁가운데	-11.4468
▁명량	-11.4468
▁생겨	-11.4469
▁담겨있는	-11.4469
▁돋보였던	-11.447
▁필요할까	-11.447
▁2002	-11.4471
버렷	-11.4471
▁시간여행	-11.4472
▁만들어내는	-11.4472
▁괜찮았어요	-11.4473
▁행운	-11.4475
▁뭐하러	-11.4477
▁팬티	-11.4478
▁재미없던데	-11.448
▁버티	-11.448
▁쿠바	-11.448
▁실체	-11.448
▁나혼자	-11.4481
기승전결	-11.4481
bs	-11.4481
▁싶어지는	-11.4482
▁몰려	-11.4482
했더라면	-11.4483
하셨습니다	-11.4484
▁기술력	-11.4484
▁실망감	-11.4484
인칭	-11.4487
▁오줌	-11.4487
▁바라며	-11.4488
▁눈물난다	-11.4488
▁그래두	-11.4491
껀데	-11.4491
리즘	-11.4493
▁사람으로서	-11.4494
▁예상되는	-11.4495
▁동참	-11.4495
▁낚임	-11.4498
▁선배	-11.4498
▁저질영화	-11.4499
▁비디오용	-11.45
▁불쌍함	-11.4502
엠씨	-11.4503
▁지루합니다	-11.4503
▁퀴어영화	-11.4503
▁볼땐	-11.4503
▁조잡하고	-11.4504
▁인공	-11.4504
▁인상깊었다	-11.4504
▁나오길	-11.4505
▁산만함	-11.4507
▁있죠	-11.4507
▁감성적인	-11.4507
▁취미	-11.4507
운데	-11.4507
▁괜찮지만	-11.4511
▁신선했다	-11.4513
▁뿐이고	-11.4513
▁너희들	-11.4516
▁최악이었다	-11.4516
지마시고	-11.4519
▁정글	-11.4519
▁잠들었	-11.4521
▁구할	-11.4521
생각하게	-11.4521
읽어	-11.4522
▁부재	-11.4522
▁절라	-11.4523
▁재밌겠다	-11.4523
▁누구냐	-11.4524
▁늘려	-11.4525
영화에요	-11.4526
▁이러면	-11.4528
▁익숙한	-11.4528
▁감동적이였	-11.4532
했는가	-11.4532
▁그럴듯한	-11.4533
▁기대하면서	-11.4533
▁없을듯	-11.4541
받아야	-11.4542
▁잼있는데	-11.4548
▁대작이다	-11.4553
▁곳곳에	-11.4554
▁곁에	-11.4556
▁식상하고	-11.4557
▁지루하네요	-11.4557
맞아서	-11.4564
▁레드	-11.4567
▁망함	-11.4567
▁재밌게봄	-11.4568
앗는데	-11.457
▁식상함	-11.4571
▁바뀌고	-11.4571
▁디테일한	-11.4572
▁알았어	-11.4572
▁분들에게	-11.4576
▁그러면	-11.4579
일지도	-11.4581
▁동물들	-11.4582
▁나오면서	-11.4583
괴담	-11.4584
▁무려	-11.4586
▁못했지만	-11.4589
▁개망	-11.459
든데	-11.4592
보세여	-11.4594
라기보다	-11.4594
▁이때까지	-11.4595
▁못봤다	-11.46
▁소비	-11.4601
▁불가능한	-11.4603
▁자연스럽	-11.4604
폼	-11.4607
▁황당함	-11.4607
▁별하나도	-11.461
짤	-11.4611
▁고어물	-11.4611
▁기대안	-11.4612
1990	-11.4614
▁안나와	-11.4614
짝퉁	-11.4615
빅	-11.4616
▁이러지	-11.4616
▁보는듯한	-11.4617
good	-11.4619
▁말이죠	-11.4623
하겠는데	-11.4624
▁이쁘네	-11.4626
뻔한스토리	-11.4628
재밌었는데	-11.463
▁보고싶지	-11.4632
▁남음	-11.4633
▁결혼하고	-11.4633
▁알수있는	-11.4633
▁챙겨보는	-11.4633
살짝	-11.4634
▁생각해요	-11.4639
▁난생	-11.4642
▁돌아보	-11.4643
▁한국인들	-11.4644
▁엉망인	-11.4647
▁개념없	-11.4647
▁돈아까운	-11.4648
주던	-11.4648
▁예상가능	-11.4648
▁고생한	-11.4649
▁볼수있다	-11.465
본건데	-11.4656
▁강하다	-11.4656
▁독특함	-11.4657
처음부터	-11.466
고양이	-11.4661
설마	-11.4663
아픈	-11.4674
▁해보고	-11.4677
▁깎아	-11.4681
예전에	-11.4686
▁한번보고	-11.4686
해야겠다	-11.4687
▁기억속에	-11.4705
여친	-11.4708
▁처음보는	-11.471
틀리	-11.4711
▁갑갑	-11.4719
▁신기할	-11.4721
낮게	-11.4725
화부터	-11.4737
아역	-11.4742
넣어	-11.4742
▁매기	-11.4742
▁망했다	-11.4744
잔잔한	-11.4745
멋잇	-11.4756
▁잘만든영화	-11.4767
▁한쪽	-11.4767
▁투자한	-11.4779
▁흔하	-11.4781
▁관객수	-11.4782
▁쓸쓸	-11.4796
▁보기전	-11.4797
내시간	-11.4806
▁다가오	-11.4812
▁저에게	-11.4813
싶었다	-11.4816
▁보여줬	-11.4817
▁아까운데	-11.4823
▁우롱	-11.4826
듯해요	-11.4826
재미있고	-11.4831
범인	-11.4832
▁찾을수	-11.4833
▁소중함	-11.4833
▁인상깊었	-11.4839
렴	-11.4841
보고나면	-11.4842
▁이용해	-11.4842
년생	-11.4842
게이트	-11.4848
▁일점도	-11.4849
본사람들은	-11.4851
▁느끼기	-11.4861
▁가위	-11.4868
하게만드는	-11.4876
▁개인적	-11.4888
밨	-11.4889
▁과대평가	-11.4891
밌	-11.4891
라는건	-11.4892
럿	-11.4894
딕	-11.4894
쌩뚱맞	-11.4894
퉁	-11.4895
▁개나소나	-11.4896
▁봤는대	-11.4896
▁샤를리즈	-11.4896
▁스칼렛	-11.4896
▁스토리텔링	-11.4896
▁신동엽	-11.4896
▁움직임	-11.4896
▁콜린퍼스	-11.4896
▁히틀러	-11.4896
셰	-11.4896
켈	-11.4896
▁박신혜	-11.4896
▁트와일라잇	-11.4896
늠	-11.4896
점줍니다	-11.4896
쵸	-11.4896
▁마동석	-11.4896
▁유승준	-11.4896
▁뒷통수	-11.4896
▁친일파	-11.4896
붓	-11.4896
▁약빨고	-11.4896
▁흥미롭다	-11.4896
▁이선균	-11.4896
▁김래원	-11.4896
▁왜이러냐	-11.4896
▁무작정	-11.4896
▁미션임파서블	-11.4896
▁짜여진	-11.4896
▁먹칠을	-11.4896
▁배슬기	-11.4896
▁지독한	-11.4896
▁균형	-11.4896
▁뽀로로	-11.4896
▁삼국지	-11.4896
보게됐는데	-11.4896
스턴	-11.4896
▁놓칠	-11.4896
▁역겨워	-11.4896
▁하야오	-11.4896
▁고릴라	-11.4896
▁왜이러지	-11.4896
▁다케시	-11.4896
▁추격씬	-11.4896
▁쓰나미	-11.4896
▁하여금	-11.4896
▁정사씬	-11.4896
▁으리으리	-11.4896
▁해운대	-11.4896
▁잘나가다	-11.4897
▁하루하루	-11.4897
▁블루레이	-11.4897
▁잉여	-11.4897
▁도가니	-11.4897
uck	-11.4897
▁당할순	-11.4898
▁6.5	-11.4898
▁목사님	-11.4898
▁어울릴	-11.4898
▁시끄러워	-11.4898
▁ᄉᄉ	-11.4899
▁바꿀	-11.49
▁놀랄	-11.49
▁속도감	-11.49
▁열받아서	-11.49
▁헛소리	-11.4901
▁위안부	-11.4901
▁빠르고	-11.4901
▁한몫	-11.4901
▁새로울	-11.4901
▁홀로	-11.4901
▁저버리지	-11.4902
▁한결같	-11.4902
▁우울증	-11.4902
▁희극	-11.4903
▁궁금증	-11.4903
▁그렇다치고	-11.4904
ᅲᅲᅲᅲᅲᅲᅲᅲᅲᅲᅲᅲᅲᅲᅲᅲ	-11.4905
▁걷는	-11.4905
▁없으며	-11.4908
▁잼있었음	-11.491
▁몇년전에	-11.491
▁대학교	-11.491
▁스카이	-11.491
▁작업	-11.4911
▁남자친구	-11.4911
xx	-11.4911
▁아쉽습니다	-11.4912
▁은행	-11.4913
너무높다	-11.4913
였군	-11.4914
▁형태	-11.4915
▁저딴	-11.4915
▁최종	-11.4916
▁못알아	-11.4916
엑스	-11.4916
▁벌레	-11.4916
▁살아갈	-11.4917
▁짧지만	-11.492
▁우월	-11.4921
▁작작	-11.4921
▁조악한	-11.4922
▁지능	-11.4923
▁작살	-11.4924
▁이유없이	-11.4924
▁알았습니다	-11.4927
▁구리고	-11.4929
87	-11.493
▁말하려고	-11.4933
▁안됩니다	-11.4935
▁각성	-11.4935
▁유행어	-11.4936
▁오덕	-11.494
▁떨어지지만	-11.4943
▁두가지	-11.4944
▁어정쩡한	-11.4948
▁책임감	-11.4949
▁개연성없는	-11.495
▁달달하고	-11.4951
▁개실망	-11.4953
싶을정도	-11.4954
▁지친	-11.4956
▁질질끌고	-11.4957
▁기대이상으로	-11.4958
▁그러니	-11.496
▁소름돋는다	-11.4962
▁또다시	-11.4962
▁알았지만	-11.4962
아닌가요	-11.4963
▁압권이다	-11.4963
웃기다	-11.4964
▁먹먹하고	-11.4964
▁오늘날	-11.4964
▁기회를	-11.497
▁해피엔딩으로	-11.4972
▁애들용	-11.498
▁급하게	-11.498
싶어요	-11.4981
재밋어	-11.4981
▁제공	-11.4981
▁수십	-11.4984
▁안나올	-11.4987
▁보상	-11.4989
재밌는영화	-11.4992
▁루시	-11.4994
▁어렵게	-11.4994
▁짧고	-11.4996
▁무방	-11.4996
▁알았네요	-11.4997
▁전하고자	-11.4998
▁지금보니	-11.4999
▁사라지고	-11.5001
▁만들었다면	-11.5002
▁조금더	-11.5005
▁어이없게	-11.5009
라기보단	-11.5009
일텐데	-11.501
▁성질	-11.5011
▁엔딩까지	-11.5011
▁멜로물	-11.5016
▁바비	-11.5018
▁영화한편	-11.5023
▁본시리즈	-11.5026
▁있기에	-11.5032
▁아기자기한	-11.5032
났는데	-11.5032
▁안듬	-11.5033
듯한데	-11.5035
▁느껴야	-11.5036
돈아까	-11.504
▁멋졌다	-11.5044
▁충격적이다	-11.5044
▁난무하는	-11.5046
▁생각남	-11.5046
▁보기전에	-11.5049
▁무서운영화	-11.5049
▁즐거웠다	-11.505
무서움	-11.5051
▁바보들	-11.5054
▁못봐주겠	-11.5056
뭐임	-11.5057
▁기원	-11.5062
▁시사회로	-11.5063
▁묘사한	-11.5067
쪼	-11.5067
쭉	-11.5068
예쁘고	-11.5069
중간중간	-11.507
뮤지컬	-11.507
느낀	-11.507
아무튼	-11.507
▁평가할	-11.5073
통쾌	-11.5073
▁진하게	-11.5074
아무것도	-11.5074
훈훈	-11.5076
▁지루해요	-11.5077
재밌었어요	-11.5077
교훈	-11.5079
▁끝나면	-11.5081
▁크라	-11.5081
발견	-11.5082
▁악당들	-11.5083
티브	-11.5087
▁현상	-11.5088
또봐도	-11.5091
▁다음주	-11.5091
gg	-11.5092
외국	-11.5092
환경	-11.5094
▁이루어진	-11.5098
좋았던	-11.5098
▁준수	-11.5099
▁타임용	-11.51
연습	-11.5101
잘생겼다	-11.5102
줄께	-11.5102
▁재밋었	-11.5103
▁자질	-11.5103
맨날	-11.5106
주려고	-11.5108
주변	-11.5109
▁나왔다는	-11.511
▁있어야지	-11.5121
na	-11.5125
▁추천함	-11.5126
▁무적	-11.5128
▁안보는데	-11.5132
ᅲᅲᅲᅲᅲᅲᅲ	-11.5138
으므로	-11.5139
▁헬기	-11.5141
▁중요한건	-11.5147
▁맞지만	-11.5152
▁면도	-11.5154
▁믿기	-11.5154
▁아역들	-11.5159
▁재밌지만	-11.516
풀어	-11.5161
▁망하는	-11.5165
▁있었지	-11.517
▁딴짓	-11.5172
미녀	-11.5189
▁궁금하지	-11.519
아놔	-11.5199
▁과제	-11.52
▁높여	-11.5202
▁벗어나지	-11.5205
울때	-11.5207
시리	-11.5222
▁죽여버리고	-11.5225
행님	-11.5231
▁잼난	-11.5232
준비	-11.5232
보지마	-11.5239
▁무명	-11.5243
▁받으	-11.5246
▁그림자	-11.5246
종류	-11.5251
블리	-11.5252
잤다	-11.526
▁엉뚱	-11.5262
하는짓이	-11.5263
▁추적	-11.5267
▁야하다	-11.5269
쁜	-11.5269
▁애기들	-11.527
▁징징	-11.5313
캠	-11.532
교사	-11.5328
▁집중하게	-11.5328
나왓으면	-11.533
얀	-11.5345
챙	-11.5347
▁안나오네	-11.5348
소름끼치	-11.5349
옵	-11.5349
▁불꽃	-11.5349
뎌	-11.535
삽	-11.535
뎈	-11.535
짬	-11.535
Q	-11.535
▁떠올랐	-11.535
▁블레이드	-11.535
▁소름끼친다	-11.535
뜰	-11.535
박스오피스	-11.535
▁드릅게	-11.535
▁봉태규	-11.535
▁봤으나	-11.535
▁불러일으키	-11.535
▁애틋한	-11.535
▁인상깊다	-11.535
▁쥬라기공원	-11.535
▁쿠엔틴	-11.535
▁터무니없	-11.535
깽	-11.535
낰	-11.535
붐	-11.535
쉰	-11.535
썅	-11.535
얌	-11.535
윗	-11.535
힝	-11.535
▁몸부림	-11.535
▁샤말란	-11.535
▁여고괴담	-11.535
▁손오공	-11.535
▁이슬람	-11.535
▁차인표	-11.535
성폭행	-11.535
▁박정희	-11.535
▁초호화	-11.535
▁유준상	-11.535
▁좌빨	-11.535
▁노다메	-11.535
▁정확한	-11.5351
▁멸망	-11.5351
▁여고생	-11.5351
▁당췌	-11.5351
▁lt	-11.5351
▁최지우	-11.5351
개드림	-11.5351
▁두려워	-11.5351
▁깨끗하	-11.5351
▁오유에서	-11.5351
▁쪽바리	-11.5351
지망생	-11.5351
▁테스트	-11.5351
▁이수근	-11.5351
패밀리	-11.5351
▁미개한	-11.5351
▁이정현	-11.5351
▁테러리스트	-11.5351
▁퍼펙트	-11.5351
▁하여간	-11.5351
▁며칠	-11.5351
바래	-11.5351
▁왔다갔다	-11.5352
▁ᄌᄅ	-11.5352
▁빠르게	-11.5352
이해안감	-11.5352
언젠	-11.5352
▁음모론	-11.5352
▁AV	-11.5353
▁사랑과전쟁	-11.5353
▁올만에	-11.5353
▁국뽕	-11.5353
▁비평	-11.5353
▁놀람	-11.5354
▁극장개봉	-11.5354
▁만들지마	-11.5354
▁물고기	-11.5354
▁무뇌	-11.5354
▁무개념	-11.5355
▁종북	-11.5355
▁두뇌	-11.5355
▁볼까말까	-11.5355
▁고마워	-11.5355
▁싶을정도로	-11.5355
▁순간순간	-11.5355
▁감동적이예요	-11.5356
▁상당	-11.5356
▁이겨내	-11.5356
▁만족스럽	-11.5356
▁여동생	-11.5356
▁일일드라마	-11.5357
▁나았을	-11.5357
▁종결	-11.5357
▁일어났	-11.5357
▁브금	-11.5358
▁있었을텐데	-11.5358
▁있었으나	-11.5359
▁보여줬는데	-11.5359
▁감싸	-11.5359
살짜리	-11.5359
▁여운이남는	-11.5359
▁모든면에서	-11.536
▁힘듬	-11.536
▁최강희	-11.5361
▁주셔서	-11.5361
▁반항	-11.5362
▁건축	-11.5362
▁에혀	-11.5365
▁생생하다	-11.5366
▁반복되는	-11.5366
▁궁금하네요	-11.5366
▁끌리는	-11.5366
▁연락	-11.5367
▁개성있는	-11.5367
▁웃기려고	-11.5368
▁조롱	-11.5368
▁욕설	-11.5368
▁사랑스러움	-11.5368
▁않았어요	-11.5368
▁친구들이랑	-11.5369
▁모르겠습니다	-11.5369
▁생각해보면	-11.537
▁타입	-11.537
▁안타깝지만	-11.537
▁앞서간	-11.537
▁평점테러	-11.537
▁안무섭다	-11.5371
▁호강	-11.5371
▁어필	-11.5371
▁되려	-11.5371
▁독재	-11.5372
▁국제	-11.5372
▁공격	-11.5373
▁키스신	-11.5374
▁보석같은	-11.5376
▁계단	-11.5376
▁그릇	-11.5378
▁명작중의	-11.5378
▁자료	-11.5379
▁잠재	-11.5379
▁쓸쓸한	-11.5384
▁이러냐	-11.5385
▁개봉작	-11.5388
▁숨어있는	-11.5389
하심	-11.539
▁싶었음	-11.539
▁초점을	-11.539
▁장난해	-11.5391
괜찮았	-11.5395
▁치밀하고	-11.5395
센트	-11.5396
▁아픔과	-11.54
▁모든것	-11.5401
MB	-11.5403
▁이상형	-11.5403
▁들었음	-11.5404
▁높음	-11.5408
느님	-11.541
▁귀엽네요	-11.5411
▁갑이다	-11.5413
▁내취향은	-11.5415
본다면	-11.5415
질질끄	-11.5416
▁여전사	-11.5417
▁생각된다	-11.5419
▁배제	-11.5419
▁이쁘네요	-11.5419
▁촌스럽다	-11.542
▁저격	-11.5421
▁처음봄	-11.5424
▁개명작	-11.5425
▁고집	-11.5425
▁되겠다	-11.5427
▁위안	-11.5428
▁무시하고	-11.5433
괴롭히	-11.5438
있더라	-11.544
▁청춘들	-11.5442
▁남습니다	-11.5444
▁우울하고	-11.5445
▁허비	-11.5448
▁동원	-11.5452
▁거시기	-11.5455
▁말대로	-11.5456
▁홍수	-11.5457
▁애잔한	-11.5458
▁어이없어	-11.5458
▁유머와	-11.5459
▁표현된	-11.5463
▁모처럼	-11.5467
▁과하게	-11.5469
▁갈릴	-11.5471
▁고루	-11.5479
▁서양인	-11.5481
▁쩔고	-11.5482
▁라스	-11.5484
▁쫓아	-11.5488
▁단순하고	-11.5488
▁변한	-11.5488
했어야	-11.549
▁허술함	-11.549
▁실망입니다	-11.5496
▁저예산으로	-11.5499
나오더라	-11.5503
▁않겠다	-11.5507
▁패기	-11.5517
▁국내에서	-11.552
환자	-11.5521
▁비트	-11.5522
▁해주었	-11.5523
▁악인	-11.553
옆	-11.5532
▁영화사에	-11.5534
▁일제	-11.5538
▁따라하기	-11.5538
아름답	-11.5539
▁불쾌함	-11.5539
W	-11.5543
씹	-11.5544
쓰래기	-11.5545
메세지	-11.5545
싶었던	-11.5545
▁애쓴	-11.5546
핵노잼	-11.5546
따뜻한	-11.5546
최강	-11.555
젊	-11.5551
좋겠어요	-11.5552
검색	-11.5554
▁늘어놓	-11.5555
예전	-11.5557
역사상	-11.556
잘봤어요	-11.5561
마루	-11.5561
재미도없고	-11.5563
풍경	-11.5564
그럴	-11.5564
지도않은	-11.5568
▁좋으면	-11.5569
▁잔인하다	-11.5569
▁가지게	-11.5572
좋았는데	-11.5578
▁성장기	-11.5581
▁낚였어	-11.5582
▁자신감	-11.5588
레알	-11.5591
시키려	-11.5593
▁그것뿐	-11.5597
▁터질	-11.5604
▁심하네	-11.5605
▁변하는	-11.5607
48	-11.5613
▁고쳐	-11.5631
▁미친놈	-11.5635
▁잡히	-11.5635
▁국민들	-11.5637
갔음	-11.5645
있었고	-11.5647
안나오는	-11.5661
▁시망	-11.5669
▁인간미	-11.5676
잼씀	-11.5679
시청자	-11.5681
해지네요	-11.5682
▁치밀어	-11.5709
▁뛰어났	-11.5709
▁장사	-11.5714
▁선교	-11.5719
에로영화	-11.5719
▁추천해주고	-11.5719
다운받아	-11.5722
겠습니까	-11.5723
▁데뷔	-11.5725
▁느려	-11.5736
▁재밌으면	-11.5739
▁sm	-11.574
▁망쳤	-11.575
빵터지	-11.575
34	-11.5753
▁생각되는	-11.5755
▁끝부분	-11.5757
왔으면	-11.5757
▁별반개	-11.5758
룬	-11.5765
800	-11.5769
뿌리	-11.577
▁의미하는	-11.5772
놓았다	-11.5778
밑	-11.5781
▁돋보인	-11.5782
었으나	-11.5786
싶어진다	-11.5794
▁생각날	-11.5799
평점이낮	-11.5801
률	-11.5803
▁노골적	-11.5809
펀	-11.581
▁평범하지	-11.581
▁비행	-11.5812
▁열번	-11.5819
거같아서	-11.582
버리면	-11.582
위원회	-11.5823
함께	-11.5825
낌	-11.5825
걱	-11.5826
캔	-11.5826
띵	-11.5826
넼ᄏᄏ	-11.5827
킥	-11.5827
겜	-11.5827
▁이스라엘	-11.5827
▁획기적	-11.5827
곸	-11.5827
쌔	-11.5827
ight	-11.5827
ᅧ	-11.5827
▁낄낄	-11.5827
▁로멘스	-11.5827
▁맙소사	-11.5827
▁미성년자	-11.5827
▁반지의제왕	-11.5827
▁버금가는	-11.5827
▁봤건만	-11.5827
▁사이코패스	-11.5827
▁쌈마이	-11.5827
▁어쨋든	-11.5827
▁에니메이션	-11.5827
▁타이타닉	-11.5827
돕	-11.5827
샬	-11.5827
웁	-11.5827
▁this	-11.5827
▁그로테스크	-11.5827
▁밍밍	-11.5827
▁밑도끝도	-11.5827
▁제외하면	-11.5827
▁죄책감	-11.5827
짭	-11.5827
▁강예원	-11.5827
▁썰렁	-11.5827
▁유승호	-11.5827
▁쿵푸	-11.5827
▁김민준	-11.5827
▁장동민	-11.5827
▁허니잼	-11.5827
▁합리화	-11.5827
▁미묘한	-11.5827
▁킬빌	-11.5827
▁별론데	-11.5827
▁조금이나마	-11.5827
▁장선우	-11.5827
▁풍부한	-11.5827
▁누구에게나	-11.5827
▁충족	-11.5827
▁소소하게	-11.5827
▁김규리	-11.5827
▁그이하도	-11.5827
▁대기업	-11.5827
▁무관심	-11.5827
▁부성애	-11.5827
▁호프만	-11.5827
▁안무섭고	-11.5827
▁짝사랑	-11.5827
▁주제의식	-11.5827
▁배두나	-11.5827
▁좌좀	-11.5827
▁끼워넣	-11.5827
라운드	-11.5827
▁꼽히는	-11.5827
▁스무살	-11.5827
▁김정은	-11.5828
▁추구하는	-11.5828
▁직쏘	-11.5828
▁짙은	-11.5828
릅니다	-11.5828
▁챙기	-11.5828
▁헌신	-11.5828
▁푹빠져	-11.5828
▁가문의	-11.5828
땡칠이	-11.5828
▁베리굿	-11.5828
▁낯설	-11.5828
▁이리저리	-11.5829
▁자전거	-11.5829
▁케이온	-11.5829
▁은은한	-11.5829
▁크로우	-11.5829
▁구지성	-11.5829
▁내생의	-11.5829
▁새롭다	-11.5829
▁워킹	-11.5829
▁ᄉᄀ	-11.583
▁기분나쁜	-11.583
▁나올법한	-11.583
▁관찰	-11.583
▁초한지	-11.5831
▁휴먼	-11.5832
▁부담없이	-11.5832
▁맘에든다	-11.5833
▁동화책	-11.5833
▁볼만하던데	-11.5833
▁차리	-11.5833
▁감정표현	-11.5833
▁섬세하게	-11.5834
▁욕나옴	-11.5834
▁청순	-11.5834
▁미화시킨	-11.5835
▁녹아있는	-11.5835
▁찍었을까	-11.5835
▁위대하다	-11.5836
▁견디	-11.5837
▁발암	-11.5838
▁돈아까움	-11.5838
▁얻는	-11.5838
▁창문	-11.5838
▁편안하게	-11.5838
▁모를까	-11.5839
▁따뜻하다	-11.584
거같네	-11.5841
▁사례	-11.5841
하지말자	-11.5841
▁종종	-11.5842
▁원작만화	-11.5842
▁무색하	-11.5843
▁허각	-11.5843
▁세번째	-11.5843
▁폭파	-11.5844
▁지닌	-11.5844
▁안무서움	-11.5845
▁유치하긴	-11.5847
▁사람들에겐	-11.5847
▁로즈	-11.5849
ell	-11.5849
▁양키	-11.5851
▁케이스	-11.5851
▁기발하고	-11.5851
▁근본	-11.5852
▁자신에게	-11.5854
▁되버린	-11.5855
▁봤던건데	-11.5855
▁윌리엄스	-11.5856
▁마련	-11.5857
▁확실하게	-11.5858
▁산타	-11.5859
▁비슷해서	-11.5859
인줄알고	-11.5862
▁결혼식	-11.5863
▁절묘한	-11.5863
▁짜증날	-11.5863
▁느껴지네요	-11.5864
▁알려지지	-11.5864
▁찾아가는	-11.5866
▁출연했	-11.5866
▁보지말고	-11.5867
▁140	-11.5867
연기자들	-11.5868
▁갈리는	-11.5868
▁화제	-11.5869
▁천재적인	-11.5869
시각	-11.5869
▁조아요	-11.5871
▁이건아니다	-11.5871
▁거친	-11.5872
▁건담	-11.5872
▁평작	-11.5872
▁일깨워준	-11.5872
▁전달하고자	-11.5873
▁지루했던	-11.5873
▁무식한	-11.5875
▁맛있는	-11.5875
▁위선	-11.5878
▁없죠	-11.5879
▁중심으로	-11.5879
신다면	-11.5879
▁건달	-11.588
▁충만	-11.5881
▁기절	-11.5883
▁안되겠	-11.5884
▁애들한테	-11.5887
▁그런대로	-11.5888
▁호화	-11.5888
▁재밋던데	-11.589
일만에	-11.5891
▁좋았네요	-11.5892
▁서른	-11.5893
▁강력한	-11.5893
▁방황하는	-11.5894
▁되돌아보게	-11.5894
▁기념	-11.5896
▁제목처럼	-11.5896
▁나른	-11.5899
▁진지하고	-11.5901
▁향수를	-11.5901
▁감동이에요	-11.5901
▁위치	-11.5904
▁있다는걸	-11.5906
▁그려진	-11.5909
뿌려	-11.591
많네	-11.591
▁가족드라마	-11.5912
▁덮어	-11.5912
▁종말	-11.5916
▁눈빛연기	-11.5916
더구만	-11.5917
▁궁금하게	-11.5918
▁짜릿함	-11.5926
전투	-11.5927
할수없다	-11.5928
노력	-11.5928
▁당대	-11.5928
▁아휴	-11.5932
쓸때	-11.5935
▁유명배우	-11.5936
▁열정과	-11.5937
해본다	-11.5938
▁올려주	-11.5939
▁요즘엔	-11.5939
▁문명	-11.594
하지못한	-11.5941
▁놀라게	-11.5941
▁보시고	-11.5941
▁보여줘야	-11.5946
▁존재하지	-11.595
뻔했네	-11.5952
▁비슷하다	-11.5954
▁특성	-11.5955
▁후려	-11.5967
▁교수	-11.597
나올때마다	-11.5972
쯧쯧	-11.5975
▁패스	-11.5975
됐으면	-11.5978
세력	-11.5978
▁붙잡	-11.5978
였을까	-11.598
▁시리즈물	-11.5981
▁뒷부분	-11.5986
만든거	-11.5988
▁예정	-11.5989
▁바뀌었	-11.5993
▁그려내	-11.5995
왠	-11.6004
▁침대	-11.6005
▁야한영화	-11.6008
▁유치할	-11.6012
하신분들	-11.6014
해야할지	-11.6017
▁행복하다	-11.6024
▁강요하는	-11.6024
싶었는데	-11.6028
▁중간까지	-11.6033
▁들으면	-11.6035
답이없다	-11.6039
▁설치	-11.6044
저예산	-11.6044
및	-11.6044
밝	-11.6045
아쉬움	-11.6046
열심히	-11.6046
아닐까	-11.6046
새로운	-11.6046
도저히	-11.6047
청춘	-11.6048
hi	-11.6048
보지마셈	-11.6049
않은데	-11.605
▁재미없는데	-11.6051
흘러	-11.6062
▁보아야	-11.6063
거기다	-11.6064
▁고등학교때	-11.6065
리뷰	-11.6065
잼있어요	-11.6068
할머니	-11.6069
생각나서	-11.6071
씁쓸	-11.6073
한다는게	-11.6074
내인생	-11.6076
▁부족했다	-11.6079
남친	-11.6082
대단하다	-11.6083
감동적이다	-11.6085
영환가	-11.609
보는눈	-11.6094
▁개짜증	-11.6094
▁유치하지	-11.61
▁안믿	-11.6106
▁애매한	-11.6112
라는것을	-11.6113
▁지루하진	-11.6119
돈아까워	-11.6123
▁여자배우	-11.613
따위는	-11.613
좋겠	-11.6132
데리고	-11.614
연속	-11.6141
▁생각하니	-11.6148
하도록	-11.6152
▁만났다	-11.6181
▁지켜보	-11.619
귀엽다	-11.6194
▁교육용	-11.6195
▁힘드네	-11.6214
▁않기	-11.622
▁여명	-11.6222
▁아까울정도	-11.6232
▁괴롭	-11.6234
▁빛났	-11.6236
성격	-11.6244
했을듯	-11.6245
없을정도	-11.6255
재희	-11.6257
겟음	-11.6257
잘모르겠	-11.6275
▁후속	-11.6286
▁마지막부분	-11.6291
▁집중할	-11.6295
▁연령	-11.6297
▁기승전	-11.6302
떤	-11.6308
펙	-11.6315
▁세명	-11.6318
줄려고	-11.6319
보는줄	-11.6319
춰	-11.6319
▁정상인	-11.632
뀌	-11.6324
꿨	-11.6324
씁	-11.6325
어지럽	-11.6326
훔	-11.6326
찜	-11.6326
힙	-11.6327
▁월드컵	-11.6327
뵈	-11.6327
꿉	-11.6327
인시디어스	-11.6327
젬	-11.6327
▁bgm	-11.6327
▁공각기동대	-11.6327
▁러브레터	-11.6327
▁롱테이크	-11.6327
▁막무가내	-11.6327
▁멀쩡한	-11.6327
▁쒸레기	-11.6327
▁어쩐지	-11.6327
▁에반게리온	-11.6327
▁키드먼	-11.6327
꾀	-11.6327
뱃	-11.6327
쑈	-11.6327
융	-11.6327
ᄋᄉᄋ	-11.6327
▁박유천	-11.6327
▁스포일러	-11.6327
▁역겨움	-11.6327
토요명화	-11.6327
▁곽지민	-11.6327
▁의학드라마	-11.6327
▁최수종	-11.6327
▁김승우	-11.6327
▁마모루	-11.6327
ᅣ	-11.6327
▁파치노	-11.6327
▁나도모르게	-11.6327
▁브로디	-11.6327
▁극대화	-11.6327
▁인디아나	-11.6327
▁하이라이트	-11.6327
▁뜬금포	-11.6327
▁민간인	-11.6327
▁삽질	-11.6327
▁스크림	-11.6327
▁비둘기	-11.6327
▁초월한	-11.6327
▁숀펜	-11.6327
▁밉상	-11.6327
▁케로로	-11.6327
▁핑계	-11.6327
▁침략	-11.6327
▁퇴마	-11.6327
▁이문식	-11.6327
▁저지른	-11.6327
▁sbs	-11.6328
경각심	-11.6328
▁가난한	-11.6328
▁촌스러움	-11.6328
▁수식어	-11.6328
▁흠뻑	-11.6328
▁누굴	-11.6328
▁뷰티	-11.6328
▁그려냈다	-11.6328
▁명확하	-11.6328
▁흐른다	-11.6328
▁침몰	-11.6329
▁완존	-11.6329
▁호랑이	-11.6329
▁웃음코드	-11.6329
▁슬플	-11.6329
▁말이필요없음	-11.6329
▁완결	-11.6329
▁필립	-11.633
▁손꼽	-11.633
▁쇼킹	-11.633
▁솔로	-11.633
▁볼가치	-11.633
▁토할뻔	-11.6331
▁어울림	-11.6331
▁코믹요소	-11.6334
▁기타노	-11.6334
▁It	-11.6335
▁빠른전개	-11.6336
▁이질감	-11.6336
▁버튼	-11.6336
▁정신병원	-11.6336
▁넘쳐나는	-11.6336
▁2011	-11.6336
▁흠잡을데	-11.6337
입니당	-11.6339
▁오래도록	-11.6339
▁이제그만	-11.6339
▁살아간다	-11.634
▁똥칠	-11.634
▁마스터	-11.6341
▁개망작	-11.6341
▁기대되네요	-11.6341
▁명언	-11.6342
▁느껴져서	-11.6342
▁기대안하고봤는데	-11.6343
▁어쩔수없이	-11.6343
▁명절	-11.6343
▁근대	-11.6343
▁박힌	-11.6344
▁추석	-11.6345
▁그립네요	-11.6345
▁재벌	-11.6346
▁아니더라도	-11.6346
탐험	-11.6347
▁수십번	-11.6347
▁기본적으로	-11.6347
▁나오길래	-11.6348
▁어찌보면	-11.6349
▁금발	-11.6349
▁나왔는지	-11.635
▁담백하게	-11.635
▁자리를	-11.6351
▁연기실력	-11.6351
▁반가웠	-11.6352
▁동생이랑	-11.6353
궁금하	-11.6353
▁마술	-11.6354
▁자식들	-11.6354
▁모범	-11.6355
▁대립	-11.6355
▁보여지는	-11.6355
▁무서웠음	-11.6357
▁더럽게없다	-11.6357
▁무튼	-11.6357
▁바치는	-11.6358
▁불교	-11.6359
▁쓰레기같은영화	-11.6359
캠프	-11.636
▁입체	-11.636
듣기싫	-11.636
▁충실하	-11.6361
▁한마리	-11.6361
▁기본적인	-11.6361
▁떨어져서	-11.6362
▁알고싶다	-11.6362
▁토토	-11.6364
▁그런걸	-11.6366
▁괜찮아요	-11.6367
▁걸릴	-11.6367
▁돈아깝고	-11.6369
▁머피	-11.6371
▁헷갈리	-11.6372
▁메이저	-11.6372
▁환영	-11.6372
▁해설	-11.6373
▁전투신	-11.6373
▁순수하게	-11.6375
▁비참한	-11.6377
▁최고예요	-11.6377
▁하나씩	-11.6379
▁전문가평점	-11.6379
갑시다	-11.6382
▁별로였던	-11.6385
▁니미	-11.6387
눈물흘	-11.6389
▁편히	-11.639
▁있을듯	-11.639
▁공간에서	-11.6391
▁무섭기	-11.6395
▁흥미진진하게	-11.6396
▁들었는데	-11.6397
▁친구에게	-11.64
▁어색해서	-11.6404
▁바꿔라	-11.6404
▁구림	-11.6404
▁선사하는	-11.6405
▁후회한다	-11.6407
▁최신	-11.6408
▁자극적이고	-11.6411
▁기대하며	-11.6414
▁신발	-11.6416
▁그런것	-11.6416
▁라스트씬	-11.6416
▁파격적인	-11.6416
▁여성들	-11.6417
야겠다는	-11.6418
▁알차	-11.6419
해야할듯	-11.6421
▁짠하고	-11.6424
▁섹시하고	-11.6427
▁안되냐	-11.6428
▁뗄수	-11.6435
▁있었네요	-11.6435
▁제목보고	-11.6436
않을까	-11.6437
▁찍어서	-11.6441
▁유치하게	-11.6445
hh	-11.6445
일뿐이다	-11.6449
▁궁금함	-11.6455
▁광대	-11.6458
▁풋풋함	-11.6461
▁윤리	-11.6465
▁시간때우기용	-11.6466
▁루즈하	-11.6479
고싶으면	-11.6482
받을만한	-11.6485
▁좋아하던	-11.6485
줄아나	-11.649
해보이는	-11.6508
▁좋던데	-11.6515
▁압도적	-11.652
▁담으려	-11.6525
추천합니다	-11.6526
▁동성애자	-11.6536
해주면	-11.6536
쓰는거	-11.654
하진않	-11.6541
▁나왔었	-11.6546
▁높았	-11.6559
▁죽어야	-11.6561
겠구나	-11.6561
버려라	-11.6565
▁대표적	-11.6566
맡	-11.6566
▁붙어	-11.6567
닭	-11.6568
냉	-11.6568
▁되고싶	-11.6569
킬링타임	-11.6569
스케일	-11.657
▁즐기기	-11.657
흥미진진	-11.6571
푹	-11.6572
재밌게봤어요	-11.6574
케이블	-11.6574
눈빛	-11.6575
슈퍼	-11.6576
꼭보세요	-11.6576
졸잼	-11.6578
님께서	-11.6579
나머지	-11.6579
탈출	-11.6579
평범	-11.658
떨어질	-11.6581
재밌었음	-11.6583
▁만들까	-11.6585
잘만들었	-11.6586
동영상	-11.6592
많아서	-11.6593
후반부	-11.6595
▁낮은듯	-11.6597
남긴다	-11.6598
마법사	-11.6598
응원	-11.661
재밌습니다	-11.6616
탄생	-11.663
많은데	-11.6634
댄스	-11.6637
재미없어요	-11.6637
구입	-11.665
안본다	-11.6651
▁소원	-11.6655
햇으면	-11.6655
▁전투기	-11.6663
▁되어버렸	-11.6668
▁연예인들	-11.6679
▁찍으면	-11.6685
▁안타까울	-11.6694
하니깐	-11.6697
와함께	-11.6703
보고싶네	-11.6704
▁그러면서	-11.6706
▁오랜만이네	-11.671
▁싸워	-11.6712
▁전반부	-11.6714
▁10000	-11.6717
▁현실적이지	-11.6738
▁전문가들	-11.6754
est	-11.6756
찜찜	-11.6762
▁촌스럽	-11.6764
▁백번	-11.6765
▁부끄러	-11.6771
▁남겼	-11.6771
▁댓글들	-11.6775
▁공감하기	-11.6792
욬	-11.6792
▁오랫만	-11.6794
▁식상하	-11.6794
쟁이들	-11.6799
▁윌리엄	-11.6821
▁출연자들	-11.6829
▁담백하	-11.6832
딸리	-11.6843
부른	-11.6844
븐	-11.6851
툭	-11.6853
얔	-11.6853
떳	-11.6853
뿐만아니라	-11.6853
돠	-11.6853
빽	-11.6853
▁기대했건만	-11.6853
▁김옥빈	-11.6853
▁김윤석	-11.6853
▁김창완	-11.6853
▁데스노트	-11.6853
▁드라큐라	-11.6853
▁류승룡	-11.6853
▁마스터피스	-11.6853
▁맷데이먼	-11.6853
▁모자이크	-11.6853
▁서바이벌	-11.6853
▁시덥잖은	-11.6853
▁시퀀스	-11.6853
▁싱크로율	-11.6853
▁아름다워요	-11.6853
▁안드로메다	-11.6853
▁어렷을때	-11.6853
▁업그레이드	-11.6853
▁재활용	-11.6853
빔	-11.6853
샴	-11.6853
섰	-11.6853
▁경쾌한	-11.6853
▁유튜브	-11.6853
▁윤시윤	-11.6853
▁지니어스	-11.6853
댜	-11.6853
쿵푸팬더	-11.6853
▁캡틴	-11.6853
▁케서방	-11.6853
▁파트너	-11.6853
▁김민희	-11.6853
▁알렉스	-11.6853
▁담백한	-11.6853
▁디아즈	-11.6853
▁저렴한	-11.6853
▁김소연	-11.6853
▁멈출	-11.6853
▁서커스	-11.6853
▁잊혀지질	-11.6853
▁성동일	-11.6853
▁김현주	-11.6853
▁리부트	-11.6853
▁주진모	-11.6853
▁제외한	-11.6853
▁울트라	-11.6853
▁싼티	-11.6853
▁벅차	-11.6853
▁빵터졌	-11.6853
▁송중기	-11.6853
▁이자벨	-11.6853
▁무한도전	-11.6853
▁견뎌	-11.6853
▁따스한	-11.6853
▁웨스턴	-11.6853
▁롯데	-11.6853
▁소장가치	-11.6853
무시무시	-11.6853
▁김보성	-11.6853
▁어이상실	-11.6853
▁쌍둥이	-11.6854
▁장백지	-11.6854
▁조여정	-11.6854
▁충동	-11.6854
▁발차기	-11.6854
▁밀려온다	-11.6854
▁ᄆᄎ	-11.6854
▁올라갈때	-11.6854
log	-11.6854
▁화이트	-11.6854
▁지금에서야	-11.6854
▁안주는데	-11.6854
▁쿡티비	-11.6854
▁늑대인간	-11.6855
▁무성영화	-11.6855
▁우주전쟁	-11.6855
▁이정진	-11.6855
▁된장녀	-11.6855
▁글쓰	-11.6855
▁흘릴	-11.6856
▁괜찬은	-11.6856
퍼센트	-11.6856
▁감안해도	-11.6856
▁아쉬울뿐	-11.6856
▁비춰	-11.6857
보는편인데	-11.6857
해달라	-11.6857
▁굿바이	-11.6857
▁전달하려는	-11.6858
▁발랄한	-11.6858
춘향	-11.6858
▁흑형	-11.6858
▁자기자신	-11.6859
▁원초적	-11.6859
▁으휴	-11.6859
▁기다린	-11.6859
▁홀리	-11.6859
▁뜯어	-11.686
▁슬펐어요	-11.686
▁안가네	-11.686
▁수준낮은	-11.686
▁나이먹고	-11.686
▁뻔하디	-11.6861
스테리	-11.6861
▁중간쯤	-11.6861
▁복귀	-11.6861
▁밀려오는	-11.6862
▁억지웃음	-11.6862
▁녀석들	-11.6863
▁판치는	-11.6863
▁슬펐던	-11.6864
소린지	-11.6865
▁범작	-11.6865
▁웨스	-11.6866
▁말해준다	-11.6866
▁아까웠음	-11.6866
▁르네	-11.6866
▁죠스	-11.6866
▁감상평	-11.6867
▁웃을수	-11.6868
▁관능	-11.6868
▁실화라서	-11.6868
▁물결	-11.6868
해주셔서	-11.6868
▁인상적이었다	-11.6869
▁있도록	-11.6869
▁끔찍하다	-11.687
▁돈들여	-11.687
▁간단하	-11.6871
▁개쩐다	-11.6871
▁재미없었어요	-11.6871
▁오드리	-11.6872
▁사람으로써	-11.6872
▁비교된다	-11.6872
줄알았음	-11.6873
▁마이크	-11.6875
▁개졸작	-11.6876
▁안남기는데	-11.6877
▁여느	-11.6878
▁지르고	-11.6878
▁어마어마한	-11.688
▁압도적인	-11.688
▁사골	-11.6881
▁생각났다	-11.6881
▁미숙	-11.6881
▁말장난	-11.6881
▁돌프	-11.6882
▁매력적임	-11.6882
▁이기심	-11.6883
▁돈아깝	-11.6884
▁약속	-11.6884
▁안가네요	-11.6885
▁만점짜리	-11.6886
▁조악	-11.6886
깔깔	-11.6886
▁만들어놓고	-11.6886
▁들었습니다	-11.6887
▁느낄수있는	-11.6887
▁애환	-11.6888
▁조쉬	-11.6888
햇어요	-11.6889
▁다있냐	-11.689
▁타워	-11.689
▁들었어요	-11.6891
▁미련	-11.6891
▁발악	-11.6892
영화였습니다	-11.6892
▁아이디	-11.6892
▁시작된다	-11.6893
▁종교적인	-11.6893
▁교훈적인	-11.6894
▁재밌구만	-11.6894
▁잼따	-11.6894
▁진실된	-11.6895
▁생길	-11.6896
▁어처구니없는	-11.6896
▁중국판	-11.6899
▁엄마한테	-11.6899
▁해주네요	-11.6899
▁청소년들	-11.69
▁건질게	-11.6901
▁잘하시고	-11.6901
▁모아서	-11.6903
▁시점에서	-11.6903
▁안보길	-11.6903
▁친구한테	-11.6905
▁진국	-11.6907
▁찾아봤는데	-11.6908
▁유치원	-11.6909
▁넣어서	-11.6909
▁없군요	-11.6911
▁베끼	-11.6912
▁뻔뻔한	-11.6914
▁기대됨	-11.6918
▁다른분들	-11.6919
78	-11.6919
으루	-11.6919
▁깨우	-11.6921
▁두번이나	-11.6921
풀리	-11.6921
▁마니아	-11.6922
▁어느하나	-11.6923
▁수작이라고	-11.6923
▁못본게	-11.6924
▁95	-11.6925
▁않길	-11.6925
▁관우	-11.6927
보여줘서	-11.693
▁전투장면	-11.6932
▁돌아간	-11.6933
노무	-11.6936
▁처음이었다	-11.6939
▁섬세함	-11.6939
▁되어버린	-11.6941
됬으면	-11.6941
▁후배	-11.6942
▁흥미진진하다	-11.6946
를위해	-11.6947
▁마지막장면에서	-11.6947
▁힘들듯	-11.6948
▁입가에	-11.6949
생기면	-11.6953
▁민망해	-11.6962
▁구린	-11.6963
▁유산	-11.6966
▁잼있네	-11.698
낄수	-11.6988
떡칠	-11.6997
하기위해	-11.6999
만들어서	-11.7
▁봤었지	-11.7004
되어있는	-11.7012
봐야되	-11.7023
ᄒᄃᄃ	-11.7029
▁약자	-11.7046
벗어	-11.7046
달려	-11.7068
▁바라본	-11.7086
돌릴	-11.7092
번이상	-11.7092
▁구할수	-11.7101
▁카드	-11.7104
▁즐길수	-11.7106
▁어린애	-11.7116
담배피	-11.7122
▁욕나오	-11.7124
떨어져	-11.7127
뭥미	-11.7128
충분히	-11.7128
본방사수	-11.7128
궁금해	-11.7131
힐링	-11.7131
거늘	-11.7134
멋짐	-11.7134
독립영화	-11.7135
젠장	-11.7135
아픔	-11.7137
손가락안에	-11.7138
다시한번	-11.7138
▁개쩔	-11.7139
▁빠순이	-11.7141
민족	-11.7143
표절	-11.7144
제작진	-11.7149
할아버지	-11.7149
어릴때	-11.7153
부탁	-11.7155
아쉽지만	-11.7159
조합	-11.7162
출연진	-11.7162
봐야하나	-11.7162
흑흑	-11.717
▁모습들	-11.7172
어쩜	-11.7173
분량	-11.7173
어쩔수없	-11.7174
▁웃기면서	-11.7174
낚시	-11.7174
▁봐야될	-11.7177
마지막회	-11.7178
희망	-11.7182
▁몰입하기	-11.7183
▁알바생들	-11.7229
이미지	-11.723
▁좋겠네	-11.7238
▁호주	-11.7257
▁중요하지	-11.7269
할것이다	-11.727
▁상황들	-11.7271
배역	-11.728
▁똥망	-11.7283
찾다가	-11.7286
▁싸울	-11.7288
▁담았	-11.7291
▁엔딩장면	-11.7313
▁바랄	-11.7316
▁살고있	-11.7318
잼있음	-11.7334
▁첨보네	-11.7335
▁보시기	-11.7336
경험	-11.7336
▁시계	-11.7341
타카	-11.7363
없었음	-11.7364
▁틀림없	-11.7365
▁잼있었	-11.7368
ive	-11.737
▁행동들	-11.7375
▁떠올리	-11.7379
▁...............	-11.7388
▁징그럽	-11.7389
끌어	-11.7389
▁설득	-11.7403
덥	-11.7407
뜩	-11.7407
늑	-11.7407
▁삽입	-11.7408
첼	-11.7408
솟	-11.7408
뻘	-11.7408
▁긴급조치	-11.7408
셜	-11.7408
쾅	-11.7408
햄	-11.7408
▁SBS	-11.7408
▁구로사와	-11.7408
▁꼽으라면	-11.7408
▁말코비치	-11.7408
▁머리카락	-11.7408
▁봉준호	-11.7408
▁샌들러	-11.7408
▁스나입스	-11.7408
▁아니올시다	-11.7408
▁얄팍한	-11.7408
▁왤캐	-11.7408
▁울부짖	-11.7408
▁조지클루니	-11.7408
▁존쿠삭	-11.7408
▁피노키오	-11.7408
▁휴잭맨	-11.7408
떴	-11.7408
읎	-11.7408
쟤	-11.7408
짚	-11.7408
챔피언	-11.7408
캣	-11.7408
퀘	-11.7408
핍	-11.7408
????????????????	-11.7408
▁나비효과	-11.7408
▁남녀노소	-11.7408
▁어렴풋	-11.7408
▁오리지날	-11.7408
▁지날수록	-11.7408
▁천천히	-11.7408
▁총격전	-11.7408
쁠	-11.7408
욘	-11.7408
킷	-11.7408
▁오다기리	-11.7408
멕	-11.7408
쉘	-11.7408
▁강우석	-11.7408
▁시어머니	-11.7408
▁칙칙	-11.7408
▁리차드	-11.7408
▁올드보이	-11.7408
▁포커스	-11.7408
▁어우러져	-11.7408
▁유부녀	-11.7408
▁철저한	-11.7408
▁에리카	-11.7409
▁박용우	-11.7409
▁박한별	-11.7409
▁팬심으로	-11.7409
▁지못미	-11.7409
▁야쿠자	-11.7409
▁억압	-11.7409
▁길들여	-11.7409
▁왠만해서	-11.7409
▁과언이	-11.7409
▁나뿐인가	-11.7409
▁심금을	-11.7409
▁추격전	-11.7409
▁콧물	-11.7409
▁모호한	-11.7409
▁아쉬웠던	-11.7409
▁프리퀄	-11.7409
▁하모니	-11.7409
▁이민호	-11.7409
▁시간가는줄모르고	-11.741
▁박현지	-11.741
▁제시카알바	-11.741
▁마디로	-11.741
▁개그코드	-11.741
▁부끄럽다	-11.741
▁SM	-11.7411
▁또하나의	-11.7411
▁앤딩	-11.7411
▁감명깊은	-11.7411
▁인디언	-11.7411
▁별점테러	-11.7411
ood	-11.7412
▁탱고	-11.7412
중고딩	-11.7412
▁늘어지고	-11.7412
▁옳은	-11.7412
▁흘러간다	-11.7412
▁직설	-11.7412
▁같았는데	-11.7413
▁이럴수가	-11.7413
▁바둑	-11.7413
▁시민들	-11.7413
▁내마음	-11.7413
▁폐지해라	-11.7413
▁제이미	-11.7414
▁클레이	-11.7414
▁미달이	-11.7414
▁무고한	-11.7414
▁봐야겠어요	-11.7415
▁매혹	-11.7415
▁절실	-11.7416
▁위협	-11.7416
▁볼수있어서	-11.7416
▁결투	-11.7416
▁종합	-11.7416
▁변함없	-11.7417
▁표출	-11.7417
▁맞먹는	-11.7417
▁죄악	-11.7418
▁중학생때	-11.7418
▁타잔	-11.7419
▁군인들	-11.7419
▁빠져들었다	-11.7419
▁대다수	-11.742
▁뭐이리	-11.742
▁길거리	-11.7421
▁재밌긴한데	-11.7421
▁풍기는	-11.7421
▁때로는	-11.7421
▁생각이든다	-11.7421
▁생각됩니다	-11.7422
▁인내력	-11.7422
▁몇번을봐도	-11.7423
▁몸짓	-11.7424
▁빌린	-11.7424
▁아침부터	-11.7424
▁다섯개	-11.7424
▁질린다	-11.7425
▁처절하게	-11.7425
▁숨겨	-11.7425
▁불과하다	-11.7425
▁한두번	-11.7425
▁온통	-11.7426
▁루크	-11.7428
▁막힌	-11.7429
▁공감되지	-11.743
▁실천	-11.7431
▁세기의	-11.7431
▁유해진	-11.7431
▁이제껏	-11.7431
▁조잡하다	-11.7431
▁그리움	-11.7432
▁격투씬	-11.7432
▁반짝	-11.7432
▁녹음	-11.7432
▁노골적으로	-11.7432
▁부패	-11.7433
▁잃게	-11.7433
▁울버린	-11.7433
▁첩보물	-11.7434
▁아니자나	-11.7434
▁특정	-11.7435
▁좋았을걸	-11.7437
▁어쩌구	-11.7438
▁안좋아하는데	-11.7439
▁레즈	-11.7439
▁불편했다	-11.744
▁상승	-11.744
▁소련	-11.744
▁심은하	-11.7441
▁무엇일까	-11.7442
였죠	-11.7443
▁깊이있는	-11.7443
▁다좋은데	-11.7444
▁안나왔으면	-11.7444
▁기대하고봤는데	-11.7445
▁감안하고	-11.7446
▁보았어요	-11.7447
▁티비판	-11.7447
영애씨	-11.7448
▁별로였어요	-11.745
▁까먹	-11.7452
▁부천	-11.7452
을꺼같	-11.7453
▁조선시대	-11.7454
▁유발하는	-11.7455
▁보고있습니다	-11.7456
▁장담	-11.7456
▁예쁘네요	-11.7457
▁보기싫어	-11.7459
▁시시하다	-11.7459
▁일어나서	-11.746
▁월화	-11.7463
주위	-11.7464
▁누드	-11.7465
▁모여서	-11.7468
▁포스트	-11.7468
현실적이	-11.7469
마지막장면	-11.747
▁들었던	-11.747
▁어디가서	-11.7471
▁참신하다	-11.7471
욬ᄏᄏᄏ	-11.7473
▁잼남	-11.7475
됐네요	-11.7475
▁보시라	-11.7476
▁없으면서	-11.7476
▁아껴	-11.7477
▁별로였는데	-11.7477
▁봤어야	-11.7477
없었던	-11.748
▁볼만했던	-11.7481
코리아	-11.7482
분쯤	-11.7483
독창적	-11.7485
▁스크린에서	-11.7498
▁섹시하다	-11.7498
▁꼬집	-11.7499
▁만들어버린	-11.7501
▁지루하긴	-11.7501
▁추천해요	-11.7513
▁얼마전	-11.7522
▁9.5	-11.7525
▁아이에게	-11.7528
짜증남	-11.753
▁재판	-11.754
▁풀어나가	-11.7543
그랬어요	-11.7547
웃었네	-11.755
▁오버연기	-11.7551
▁자체만으로	-11.7553
▁무시하는	-11.7556
▁대단했다	-11.7566
있는척	-11.758
▁딸아이	-11.7583
모르겠음	-11.7586
▁표현력	-11.7586
man	-11.7587
연인들	-11.7592
▁있으신	-11.7594
▁전작보다	-11.7605
▁씁쓸함	-11.7608
말하고자하는	-11.7613
▁느껴져	-11.762
▁표현할수	-11.762
▁눈물흘리	-11.7621
빵빵	-11.7621
39	-11.7622
▁안들었	-11.7625
시간짜리	-11.7628
▁mi	-11.7628
44	-11.7632
▁들어온	-11.7651
당께	-11.7653
▁재미없으면	-11.7658
▁엿볼	-11.7666
▁비약	-11.767
▁똑같아	-11.7674
하고싶어	-11.7679
ia	-11.7684
▁유사라	-11.7692
주인공들	-11.7693
손가락	-11.7713
시트콤	-11.7716
싸이코	-11.7716
홍콩	-11.7716
굉장히	-11.7716
예뻐	-11.7718
SF	-11.7718
여기서	-11.7719
쵝오	-11.7719
재미있었어요	-11.7721
공룡	-11.7724
밴드	-11.7724
그러냐	-11.7726
폭발	-11.7731
재미있었다	-11.774
나왔음	-11.7746
사랑해요	-11.7765
▁명감독	-11.7765
좋습니다	-11.7766
▁괴수영화	-11.7774
연출력	-11.7784
▁있을뿐	-11.7785
▁통쾌함	-11.7806
박살	-11.7817
봐야겠다	-11.7827
▁우울할때	-11.7836
▁개봉했을	-11.784
▁못찾	-11.7858
▁섬세	-11.7865
▁감정연기	-11.7882
있으니	-11.7882
▁막막	-11.7884
▁나이들어	-11.7888
▁망했어	-11.7894
할거면	-11.7895
▁인정받	-11.7897
▁해피엔딩이라	-11.7897
빠들	-11.7898
▁진행되	-11.7917
인물들	-11.7927
▁스님	-11.7929
▁없을것	-11.7933
점준것중	-11.7937
▁줬어	-11.7938
▁나쁘지않	-11.7947
년뒤	-11.7951
▁만들어졌	-11.7968
▁교훈적이	-11.797
잇어서	-11.7976
▁어떠	-11.7983
▁답습	-11.7986
밝혀지	-11.7989
칫	-11.7993
콧	-11.7994
짙	-11.7995
릅	-11.7995
깁	-11.7995
사이트	-11.7996
▁영화볼줄	-11.7996
귄	-11.7997
▁요근래	-11.7997
갚	-11.7997
그렇구	-11.7997
맬	-11.7997
▁기막힌	-11.7997
▁꾸역꾸역	-11.7997
▁베토벤	-11.7997
▁봤더만	-11.7997
▁솔찍히	-11.7997
▁아름다우	-11.7997
▁안젤리나	-11.7997
▁액티비티	-11.7997
▁올바른	-11.7997
▁우디앨런	-11.7997
▁워싱턴	-11.7997
▁제멋대로	-11.7997
▁클로즈업	-11.7997
▁퍼포먼스	-11.7997
걔	-11.7997
넉	-11.7997
뇬	-11.7997
댁	-11.7997
웹	-11.7997
퉷	-11.7997
▁결승전	-11.7997
▁꾸준히	-11.7997
▁나홀로집에	-11.7997
▁대리만족	-11.7997
▁밸런스	-11.7997
▁타임머신	-11.7997
▁훌쩍	-11.7997
뭍	-11.7997
밀라요보비치	-11.7997
뺐	-11.7997
숴	-11.7997
훤	-11.7997
▁자연스레	-11.7997
▁흥미로웠다	-11.7997
▁간신히	-11.7997
▁윤은혜	-11.7997
▁티라노	-11.7997
▁박진희	-11.7997
▁성시경	-11.7997
▁기묘한	-11.7997
▁불끄고	-11.7997
▁보너스	-11.7997
▁나쁘게	-11.7997
▁눈부신	-11.7997
▁속시원	-11.7997
▁차기작	-11.7997
▁눈높이	-11.7997
썸띵	-11.7997
▁나탈리	-11.7997
▁흔해빠진	-11.7997
▁베를린	-11.7997
▁박진영	-11.7997
▁빡침	-11.7997
▁간단한	-11.7997
▁임성한	-11.7997
▁남상미	-11.7997
차대전	-11.7997
▁민주화	-11.7997
▁바이블	-11.7997
▁태어났	-11.7997
▁별두개	-11.7997
▁총맞	-11.7997
▁편안한	-11.7997
▁협박	-11.7997
▁컬러	-11.7997
▁훔쳐	-11.7997
▁쥬라기	-11.7997
▁김수미	-11.7997
▁조한선	-11.7997
▁러닝	-11.7997
▁김아중	-11.7997
▁서태지	-11.7997
박시환	-11.7997
▁브라질	-11.7997
▁좁은	-11.7997
▁이경영	-11.7997
▁강원도	-11.7998
드럽다	-11.7998
▁곤란	-11.7998
▁슬로우	-11.7998
low	-11.7998
▁어수선하고	-11.7998
▁이럴거면	-11.7998
▁가르침	-11.7998
▁여태껏	-11.7998
▁가슴찡한	-11.7999
▁옷벗	-11.7999
▁연결고리	-11.7999
▁미루다	-11.7999
▁패륜	-11.7999
레이션	-11.7999
▁상태에서	-11.7999
김대희	-11.7999
▁제주도	-11.8
▁오래간만에	-11.8
합니당	-11.8
▁같았어요	-11.8
▁어릴땐	-11.8
▁for	-11.8
▁슬슬	-11.8
▁새로움	-11.8001
▁증오	-11.8001
▁축복	-11.8002
▁찐한	-11.8002
▁1998	-11.8002
▁흘러나오는	-11.8002
▁총싸움	-11.8002
▁워스트	-11.8003
▁소녀시대	-11.8003
▁자신만의	-11.8003
▁특색	-11.8003
▁펼쳐지는	-11.8004
좋아하는사람	-11.8004
[...]
